{
  "vocab": {
    "0": "\u0000",
    "1": "\u0001",
    "2": "\u0002",
    "3": "\u0003",
    "4": "\u0004",
    "5": "\u0005",
    "6": "\u0006",
    "7": "\u0007",
    "8": "\b",
    "9": "\t",
    "10": "\n",
    "11": "\u000b",
    "12": "\f",
    "13": "\r",
    "14": "\u000e",
    "15": "\u000f",
    "16": "\u0010",
    "17": "\u0011",
    "18": "\u0012",
    "19": "\u0013",
    "20": "\u0014",
    "21": "\u0015",
    "22": "\u0016",
    "23": "\u0017",
    "24": "\u0018",
    "25": "\u0019",
    "26": "\u001a",
    "27": "\u001b",
    "28": "\u001c",
    "29": "\u001d",
    "30": "\u001e",
    "31": "\u001f",
    "32": " ",
    "33": "!",
    "34": "\"",
    "35": "#",
    "36": "$",
    "37": "%",
    "38": "&",
    "39": "'",
    "40": "(",
    "41": ")",
    "42": "*",
    "43": "+",
    "44": ",",
    "45": "-",
    "46": ".",
    "47": "/",
    "48": "0",
    "49": "1",
    "50": "2",
    "51": "3",
    "52": "4",
    "53": "5",
    "54": "6",
    "55": "7",
    "56": "8",
    "57": "9",
    "58": ":",
    "59": ";",
    "60": "<",
    "61": "=",
    "62": ">",
    "63": "?",
    "64": "@",
    "65": "A",
    "66": "B",
    "67": "C",
    "68": "D",
    "69": "E",
    "70": "F",
    "71": "G",
    "72": "H",
    "73": "I",
    "74": "J",
    "75": "K",
    "76": "L",
    "77": "M",
    "78": "N",
    "79": "O",
    "80": "P",
    "81": "Q",
    "82": "R",
    "83": "S",
    "84": "T",
    "85": "U",
    "86": "V",
    "87": "W",
    "88": "X",
    "89": "Y",
    "90": "Z",
    "91": "[",
    "92": "\\",
    "93": "]",
    "94": "^",
    "95": "_",
    "96": "`",
    "97": "a",
    "98": "b",
    "99": "c",
    "100": "d",
    "101": "e",
    "102": "f",
    "103": "g",
    "104": "h",
    "105": "i",
    "106": "j",
    "107": "k",
    "108": "l",
    "109": "m",
    "110": "n",
    "111": "o",
    "112": "p",
    "113": "q",
    "114": "r",
    "115": "s",
    "116": "t",
    "117": "u",
    "118": "v",
    "119": "w",
    "120": "x",
    "121": "y",
    "122": "z",
    "123": "{",
    "124": "|",
    "125": "}",
    "126": "~",
    "127": "",
    "128": "",
    "129": "",
    "130": "",
    "131": "",
    "132": "",
    "133": "",
    "134": "",
    "135": "",
    "136": "",
    "137": "",
    "138": "",
    "139": "",
    "140": "",
    "141": "",
    "142": "",
    "143": "",
    "144": "",
    "145": "",
    "146": "",
    "147": "",
    "148": "",
    "149": "",
    "150": "",
    "151": "",
    "152": "",
    "153": "",
    "154": "",
    "155": "",
    "156": "",
    "157": "",
    "158": "",
    "159": "",
    "160": " ",
    "161": "¡",
    "162": "¢",
    "163": "£",
    "164": "¤",
    "165": "¥",
    "166": "¦",
    "167": "§",
    "168": "¨",
    "169": "©",
    "170": "ª",
    "171": "«",
    "172": "¬",
    "173": "­",
    "174": "®",
    "175": "¯",
    "176": "°",
    "177": "±",
    "178": "²",
    "179": "³",
    "180": "´",
    "181": "µ",
    "182": "¶",
    "183": "·",
    "184": "¸",
    "185": "¹",
    "186": "º",
    "187": "»",
    "188": "¼",
    "189": "½",
    "190": "¾",
    "191": "¿",
    "192": "À",
    "193": "Á",
    "194": "Â",
    "195": "Ã",
    "196": "Ä",
    "197": "Å",
    "198": "Æ",
    "199": "Ç",
    "200": "È",
    "201": "É",
    "202": "Ê",
    "203": "Ë",
    "204": "Ì",
    "205": "Í",
    "206": "Î",
    "207": "Ï",
    "208": "Ð",
    "209": "Ñ",
    "210": "Ò",
    "211": "Ó",
    "212": "Ô",
    "213": "Õ",
    "214": "Ö",
    "215": "×",
    "216": "Ø",
    "217": "Ù",
    "218": "Ú",
    "219": "Û",
    "220": "Ü",
    "221": "Ý",
    "222": "Þ",
    "223": "ß",
    "224": "à",
    "225": "á",
    "226": "â",
    "227": "ã",
    "228": "ä",
    "229": "å",
    "230": "æ",
    "231": "ç",
    "232": "è",
    "233": "é",
    "234": "ê",
    "235": "ë",
    "236": "ì",
    "237": "í",
    "238": "î",
    "239": "ï",
    "240": "ð",
    "241": "ñ",
    "242": "ò",
    "243": "ó",
    "244": "ô",
    "245": "õ",
    "246": "ö",
    "247": "÷",
    "248": "ø",
    "249": "ù",
    "250": "ú",
    "251": "û",
    "252": "ü",
    "253": "ý",
    "254": "þ",
    "255": "ÿ",
    "256": "ä¸",
    "257": "ç",
    "258": "ç",
    "259": "ã",
    "260": "ï¼",
    "261": "ã",
    "262": "ï¼",
    "263": "ä»",
    "264": "äº",
    "265": "å",
    "266": "æ",
    "267": "å",
    "268": "å®",
    "269": "ç",
    "270": "å",
    "271": "è¿",
    "272": "æ",
    "273": "ä½",
    "274": "ä¸",
    "275": "å¤",
    "276": "å",
    "277": "å",
    "278": "å",
    "279": "å",
    "280": "è¯",
    "281": "ä¸ª",
    "282": "æ",
    "283": "ç»",
    "284": "æ",
    "285": "è®",
    "286": "å",
    "287": "å­",
    "288": "å°",
    "289": "ä¹",
    "290": "æ¯",
    "291": "å¨",
    "292": "ä»¥",
    "293": "æ",
    "294": "åº",
    "295": "å¹",
    "296": "ã",
    "297": "ç¨",
    "298": "  ",
    "299": "å",
    "300": "é",
    "301": "é",
    "302": "½",
    "303": "æ",
    "304": "æ",
    "305": "äºº",
    "306": "å",
    "307": "æ",
    "308": "å¯",
    "309": "ä¸ä¸ª",
    "310": "å¼",
    "311": "è§",
    "312": "å",
    "313": "å",
    "314": "ç",
    "315": "ä¼",
    "316": "è½",
    "317": "çæ",
    "318": "è¡",
    "319": "å·",
    "320": "ä¸º",
    "321": "å¸",
    "322": "å¯",
    "323": "ç§",
    "324": "äº",
    "325": "æ",
    "326": "ä¸­",
    "327": "ç",
    "328": "ä»¬",
    "329": "å¾",
    "330": "ç",
    "331": "ä»",
    "332": "å¥",
    "333": "å",
    "334": "å½",
    "335": "é",
    "336": "æ",
    "337": "è¿",
    "338": "æ",
    "339": "äº",
    "340": "æ",
    "341": "æ",
    "342": "æ­",
    "343": "æ°",
    "344": "è",
    "345": "é¢",
    "346": "è",
    "347": "æ",
    "348": "é",
    "349": "ä¿",
    "350": "ç",
    "351": "ä¸",
    "352": "ä¾",
    "353": "æ³",
    "354": "å",
    "355": "ä½¿",
    "356": "ï¼",
    "357": "å¿",
    "358": "æ ",
    "359": "æ",
    "360": "æ",
    "361": "å­",
    "362": "å¹¶",
    "363": "è¦",
    "364": "æ",
    "365": "å¨",
    "366": "è¦",
    "367": "å°",
    "368": "åº",
    "369": "æ°",
    "370": "æ",
    "371": "è´",
    "372": "æ¥",
    "373": "å¤§",
    "374": "è¾",
    "375": "ç",
    "376": "ç©",
    "377": "å®",
    "378": "æµ",
    "379": "å®",
    "380": "¦",
    "381": "å¯ä»¥",
    "382": "æ",
    "383": "æ",
    "384": "æ¹",
    "385": "å°",
    "386": "æ¶",
    "387": "æ",
    "388": "å°",
    "389": "è¡",
    "390": "ç®",
    "391": "ä¸",
    "392": "å",
    "393": "æ´",
    "394": "èª",
    "395": "ç§",
    "396": "æ",
    "397": "å¯¹",
    "398": "å",
    "399": "è¿",
    "400": "å¦",
    "401": "çº",
    "402": "æ´",
    "403": "èµ",
    "404": "æ¯",
    "405": "å­¦",
    "406": "æº",
    "407": "è½",
    "408": "æ",
    "409": "ä½",
    "410": "æ",
    "411": "å",
    "412": "æ³",
    "413": "æ",
    "414": "ä½¿ç¨",
    "415": "å",
    "416": "å",
    "417": "ä¸",
    "418": "å",
    "419": "ç¨",
    "420": "ç½",
    "421": "é",
    "422": "å·¥",
    "423": "æ®",
    "424": "é",
    "425": "é£",
    "426": "æ",
    "427": "å³",
    "428": "æ§",
    "429": "å",
    "430": "ç±",
    "431": "å¶",
    "432": "é¢",
    "433": "å»",
    "434": "æ·",
    "435": "åº",
    "436": "è§£",
    "437": "è",
    "438": "è®¡",
    "439": "å¥",
    "440": "ç¨",
    "441": "å»º",
    "442": "in",
    "443": "ç­",
    "444": "ç",
    "445": "å±",
    "446": "é",
    "447": "ç¡",
    "448": "æ²",
    "449": "ç³",
    "450": "    ",
    "451": "ç«",
    "452": "å ",
    "453": "æ",
    "454": "ä¼",
    "455": "è¿",
    "456": "å¤",
    "457": "â",
    "458": "é´",
    "459": "å",
    "460": "å®¶",
    "461": "é¡",
    "462": "å¼",
    "463": "æ",
    "464": "æ",
    "465": "å½",
    "466": "è¡¨",
    "467": "ä¿",
    "468": "ç°",
    "469": "æ°",
    "470": "åº¦",
    "471": "æ°æ®",
    "472": "é",
    "473": "ï¼",
    "474": "é",
    "475": "çç",
    "476": "å",
    "477": "ç±»",
    "478": "ä¾",
    "479": "å¸¸",
    "480": "ä¸",
    "481": "ç",
    "482": "å¡",
    "483": "é«",
    "484": "ç¡®",
    "485": "è¶",
    "486": "é«",
    "487": "ç»",
    "488": "ä½",
    "489": "ç´",
    "490": "ç»",
    "491": "é¢",
    "492": "è¯­",
    "493": "æ¸",
    "494": "å¢",
    "495": "he",
    "496": "è",
    "497": "æä¾",
    "498": "å¥½",
    "499": "æ¬",
    "500": "å",
    "501": "è°",
    "502": "ç",
    "503": "å®¢",
    "504": "æ±",
    "505": "å",
    "506": "ç",
    "507": "ä¹",
    "508": "å",
    "509": "ç",
    "510": "è¿°",
    "511": "ç¾",
    "512": "é",
    "513": "å¾",
    "514": "ç³»",
    "515": "äº",
    "516": "æä»¬",
    "517": "ç",
    "518": "è¯",
    "519": "é®",
    "520": "å",
    "521": "å",
    "522": "é",
    "523": "ä¸",
    "524": "ä»ä»¬",
    "525": "ç¤",
    "526": "å¥",
    "527": "å¼",
    "528": " t",
    "529": "ä½ ",
    "530": "ç©",
    "531": "å",
    "532": "å",
    "533": "ç®",
    "534": "æ",
    "535": "æ¬",
    "536": "ä»¥ä¸",
    "537": "è²",
    "538": "äº",
    "539": "å",
    "540": "ä»",
    "541": "ä»¶",
    "542": "ç",
    "543": "æ´»",
    "544": "å¬",
    "545": "äº§",
    "546": "å¹´",
    "547": "ç¶",
    "548": "æ",
    "549": "ç¼",
    "550": "ä¸»",
    "551": "å©",
    "552": "çµ",
    "553": "å¤©",
    "554": "ä»»",
    "555": "æ­¤",
    "556": "ç¹",
    "557": "é",
    "558": "æ",
    "559": "æ",
    "560": "ä½",
    "561": "å½±",
    "562": "æ¨",
    "563": "æ",
    "564": "å¶",
    "565": "å­",
    "566": "å¥å­",
    "567": "æ",
    "568": "é",
    "569": "å³",
    "570": "å¤",
    "571": "ç¸",
    "572": "è¯¥",
    "573": "è®¾",
    "574": "ç¹",
    "575": "è¢",
    "576": "å®",
    "577": "å",
    "578": "å°",
    "579": "ç¾",
    "580": "å",
    "581": "ä¿¡",
    "582": "é",
    "583": "è",
    "584": "å¨",
    "585": "é",
    "586": "å",
    "587": "å·",
    "588": "ä¹",
    "589": "è",
    "590": "er",
    "591": "ç",
    "592": " a",
    "593": "å¥¹",
    "594": "ï¼",
    "595": "å",
    "596": "ç",
    "597": "å¨",
    "598": "ç½",
    "599": "åå»º",
    "600": "æ°",
    "601": "ç¬",
    "602": "ä¸¤",
    "603": "å ",
    "604": "å®¢æ·",
    "605": "ä¾",
    "606": "å¯è½",
    "607": "ç»",
    "608": "é£",
    "609": "ç®",
    "610": "è",
    "611": "ä¸",
    "612": "å",
    "613": "å©",
    "614": "æ",
    "615": "å",
    "616": "æ",
    "617": "å¹³",
    "618": "æ¯",
    "619": "è",
    "620": "ä»",
    "621": "é",
    "622": "æ",
    "623": "ä»ä¹",
    "624": "ä¹ ",
    "625": "ç»",
    "626": "ï¼",
    "627": "æ¯",
    "628": "å°",
    "629": "è¿",
    "630": "è·",
    "631": "å¿",
    "632": "ç»",
    "633": "å",
    "634": "éª",
    "635": "è¢«",
    "636": "æ­£",
    "637": "è",
    "638": "å",
    "639": "ä¸ç§",
    "640": "æ¬",
    "641": "ç ",
    "642": "æ¾",
    "643": "è",
    "644": "re",
    "645": "è¿ä¸ª",
    "646": "é¦",
    "647": "æ",
    "648": "å",
    "649": "æº",
    "650": "å¤",
    "651": "éè¿",
    "652": "æ ",
    "653": "ç",
    "654": "æè¿°",
    "655": "å«",
    "656": "å½",
    "657": "å½¢",
    "658": "on",
    "659": "å",
    "660": "   ",
    "661": "æ·",
    "662": "ä½",
    "663": "å",
    "664": "æ¹",
    "665": "æ",
    "666": "æ",
    "667": "é®é¢",
    "668": "æ»",
    "669": "åæ¬",
    "670": "æº",
    "671": "é",
    "672": "st",
    "673": "é¿",
    "674": "æ°´",
    "675": "é",
    "676": "ç",
    "677": "æ¶",
    "678": "è¿è¡",
    "679": "é",
    "680": "é",
    "681": "an",
    "682": "è¯",
    "683": "å­¦ä¹ ",
    "684": "å¾",
    "685": "äº¤",
    "686": " 1",
    "687": "æµ",
    "688": "å",
    "689": "ç",
    "690": "æ¡",
    "691": "è±",
    "692": "ç»å®",
    "693": "å¤",
    "694": "å£",
    "695": "èµ·",
    "696": "çæ",
    "697": "é¨",
    "698": "æ¯",
    "699": "ç¨äº",
    "700": "é½",
    "701": "éè¦",
    "702": "é ",
    "703": "æ",
    "704": "éè¦",
    "705": "ä»£",
    "706": "le",
    "707": "æ",
    "708": "ç¥",
    "709": "ç¤º",
    "710": "00",
    "711": "å½±å",
    "712": "ar",
    "713": "å§",
    "714": "æ¶é´",
    "715": "å¸®",
    "716": "é¢",
    "717": "or",
    "718": "ä½",
    "719": "è",
    "720": "æ¥",
    "721": "èªå·",
    "722": "èªå·±",
    "723": "æ ",
    "724": "å",
    "725": "å",
    "726": "å¢",
    "727": "Â·",
    "728": "è¾",
    "729": "å¸®å©",
    "730": "å®",
    "731": "é¡¹",
    "732": "æ£",
    "733": "è®º",
    "734": "åº",
    "735": "è½å¤",
    "736": "--",
    "737": "æº",
    "738": "è¯´",
    "739": "ç­",
    "740": "è",
    "741": "æ³",
    "742": "çº¿",
    "743": "é",
    "744": "é",
    "745": "ç±",
    "746": "ææ¯",
    "747": "ç³»ç»",
    "748": "å¼º",
    "749": "ç´ ",
    "750": "at",
    "751": "å",
    "752": "è¾¾",
    "753": "è®¡ç®",
    "754": "ä¸ç",
    "755": "ä¸ç",
    "756": "æå¡",
    "757": "é",
    "758": "é©",
    "759": "å",
    "760": "ing",
    "761": "æºå¨",
    "762": "å¿«",
    "763": "ä¹",
    "764": "å",
    "765": "è¯",
    "766": "å·¥ä½",
    "767": "å¥",
    "768": "ä¸å",
    "769": "æµ",
    "770": "en",
    "771": "èµ",
    "772": "å±",
    "773": "ç¯",
    "774": "è",
    "775": "é£",
    "776": "é¥",
    "777": "æ¹å¼",
    "778": "ç¼",
    "779": "ç©º",
    "780": "å®¹",
    "781": "è®¸",
    "782": "å®ä»¬",
    "783": "è",
    "784": "¨¡",
    "785": "å¶ä»",
    "786": "æ¯",
    "787": "â",
    "788": "å",
    "789": "â",
    "790": "ç",
    "791": "ç²",
    "792": "ç¨æ·",
    "793": "å»",
    "794": "å¦ä½",
    "795": "è½¦",
    "796": " s",
    "797": "å¼",
    "798": "é»",
    "799": "ç",
    "800": "è¨",
    "801": "æ¯",
    "802": "æ­¤å¤",
    "803": " =",
    "804": "æ",
    "805": "æ",
    "806": "æºè½",
    "807": "è´¨",
    "808": "å­",
    "809": "è¨",
    "810": "ä¼ ",
    "811": "æ»¡",
    "812": "åº",
    "813": "å",
    "814": "æ",
    "815": "æ¥",
    "816": "è§",
    "817": "è",
    "818": "å¯¼",
    "819": "çæ´»",
    "820": "å¤",
    "821": "ç",
    "822": "ä¸¤ä¸ª",
    "823": " b",
    "824": "åå°",
    "825": "é",
    "826": "æ±",
    "827": "ç¥",
    "828": "æ¹æ³",
    "829": "å³äº",
    "830": "éª",
    "831": "å¤",
    "832": "å¢",
    "833": "åº",
    "834": "æ",
    "835": "é",
    "836": "å¾",
    "837": "è",
    "838": "è§",
    "839": "äººå·¥",
    "840": "æ ¼",
    "841": "ç",
    "842": "æäº",
    "843": "è",
    "844": "è°",
    "845": "ä¼",
    "846": "äº§å",
    "847": "ç´¢",
    "848": "ä»¥å",
    "849": "é",
    "850": " 2",
    "851": "ä¸­ç",
    "852": "æ¨¡",
    "853": "æ¾",
    "854": "å¸",
    "855": "ä¹",
    "856": " w",
    "857": "çº¦",
    "858": "å°±",
    "859": "æ",
    "860": "å®",
    "861": "è§£å³",
    "862": "æ­¥",
    "863": "è®©",
    "864": "è®¾è®¡",
    "865": " the",
    "866": "ç¦",
    "867": "é",
    "868": "è®®",
    "869": "æ°å­",
    "870": "æ¥",
    "871": "ç®¡",
    "872": "å",
    "873": "åº",
    "874": "ä»»å¡",
    "875": "ä¿¡æ¯",
    "876": "è§",
    "877": "è¯",
    "878": "å",
    "879": "è®°",
    "880": "å¨ç©",
    "881": "å",
    "882": "å",
    "883": " i",
    "884": "é",
    "885": "è§£é",
    "886": "ä¹é´",
    "887": "é©",
    "888": "æµ·",
    "889": "æ®",
    "890": "å",
    "891": "äººå·¥æºè½",
    "892": "al",
    "893": "å",
    "894": "è¿äº",
    "895": "é",
    "896": "ç´",
    "897": " c",
    "898": "æ¡",
    "899": "æ¯",
    "900": "åå»ºä¸ä¸ª",
    "901": "æ",
    "902": "è±¡",
    "903": "è",
    "904": "\n   ",
    "905": "å·²",
    "906": "ï¼",
    "907": "æ¶",
    "908": "è´",
    "909": "10",
    "910": " -",
    "911": "å·æ",
    "912": "æ",
    "913": "å¸¦",
    "914": "åº·",
    "915": "è",
    "916": "å",
    "917": "çäºº",
    "918": "ç",
    "919": "é",
    "920": "ç",
    "921": "èº",
    "922": "äº",
    "923": "ou",
    "924": "å¸",
    "925": "æ ·",
    "926": "æ¯ä¸ä¸ª",
    "927": "åè¯",
    "928": "ä¾å¦",
    "929": "ç« ",
    "930": "æ",
    "931": "å§",
    "932": "æ¼",
    "933": "å®å¨",
    "934": "å",
    "935": "ç¢",
    "936": "é¦",
    "937": "it",
    "938": "å",
    "939": "å¿",
    "940": "ä¹",
    "941": "å¥åº·",
    "942": "ä»»ä½",
    "943": "åæ",
    "944": "è¥",
    "945": "è³",
    "946": "å ä¸º",
    "947": "äº",
    "948": "æ",
    "949": "ç¯å¢",
    "950": "å¢å ",
    "951": "è",
    "952": "è·",
    "953": "å",
    "954": "æ¤",
    "955": "å°",
    "956": "ç«",
    "957": "ç¤¾",
    "958": "å",
    "959": "è¶",
    "960": "æ´",
    "961": "æ»",
    "962": "ç¡®ä¿",
    "963": "å¼",
    "964": "ç®æ³",
    "965": "ä¹¦",
    "966": "åºç¨",
    "967": "èº«",
    "968": "è¯­è¨",
    "969": "éå¸¸",
    "970": "æ",
    "971": "è½¬",
    "972": "é£",
    "973": "è§",
    "974": "å»",
    "975": "è®¤",
    "976": "ç¾å½",
    "977": "å",
    "978": " |",
    "979": "æ",
    "980": "è¯å«",
    "981": "å",
    "982": "ç",
    "983": "åºè¯¥",
    "984": "è",
    "985": "ç",
    "986": "æç« ",
    "987": "ç",
    "988": "æ¸¸",
    "989": "ç¨åº",
    "990": "å·",
    "991": "èªç¶",
    "992": "æ¨",
    "993": "å«",
    "994": "å½",
    "995": "å¤ª",
    "996": "æ¸©",
    "997": "å",
    "998": "ä¿æ",
    "999": " m",
    "1000": "ç¥",
    "1001": "æ¯ä¸ç§",
    "1002": "ç¿",
    "1003": "éå¸¸",
    "1004": "è½»",
    "1005": "å¯",
    "1006": "å",
    "1007": "å½å®¶",
    "1008": "ä¸»è¦",
    "1009": "ç§",
    "1010": "è£",
    "1011": "ç­",
    "1012": "å¤ç",
    "1013": "ç®",
    "1014": "å£",
    "1015": "å",
    "1016": "è½¯",
    "1017": "ed",
    "1018": "æª",
    "1019": "ä¸ªäºº",
    "1020": "è¯",
    "1021": "ä»·",
    "1022": "æ´»å¨",
    "1023": "è´¹",
    "1024": "è´­",
    "1025": "æ¿",
    "1026": "åé ",
    "1027": "åª",
    "1028": "é³",
    "1029": "è¿",
    "1030": "ç§¯",
    "1031": "æ ¹",
    "1032": "ä½",
    "1033": "æ¯ä¸",
    "1034": "é¾",
    "1035": "å",
    "1036": "æ©",
    "1037": "ã",
    "1038": "ã",
    "1039": "åå",
    "1040": "ç¯",
    "1041": "å¬å¸",
    "1042": "ç»",
    "1043": "as",
    "1044": "ç¬¬",
    "1045": "éæ©",
    "1046": "å",
    "1047": "ä¼",
    "1048": "æ¤",
    "1049": "ç½ç»",
    "1050": "æ",
    "1051": "æ",
    "1052": "è¯·",
    "1053": "        ",
    "1054": " f",
    "1055": "æ",
    "1056": "20",
    "1057": "å",
    "1058": "æ³¨",
    "1059": "ææ¬",
    "1060": "ç",
    "1061": "æ²¡",
    "1062": "ç©¶",
    "1063": "è",
    "1064": "æ¡",
    "1065": "ä¸",
    "1066": "æ®µ",
    "1067": "å",
    "1068": "ä¼ä¸",
    "1069": "ç®æ ",
    "1070": "ç",
    "1071": "è½æº",
    "1072": "ä¸¾",
    "1073": "The",
    "1074": "æ¬¢",
    "1075": "¤",
    "1076": "ç»",
    "1077": "ç«",
    "1078": "åè¡¨",
    "1079": "è¥",
    "1080": "è¥¿",
    "1081": "é¤",
    "1082": "ä¸ä¸ª",
    "1083": "ç©¶",
    "1084": "è",
    "1085": "è®¡ç®æº",
    "1086": "è¾å¥",
    "1087": "om",
    "1088": "æ",
    "1089": "å",
    "1090": "um",
    "1091": "åç°",
    "1092": "ææ",
    "1093": "é",
    "1094": "19",
    "1095": "è®¸å¤",
    "1096": "è·¯",
    "1097": "æ",
    "1098": "ç ",
    "1099": "å¯¼è´",
    "1100": "æå",
    "1101": "æ·±",
    "1102": "äººä»¬",
    "1103": "æ¾å°",
    "1104": "å¤§ç",
    "1105": "ç",
    "1106": "å",
    "1107": "æ",
    "1108": " p",
    "1109": "è§",
    "1110": "è¿ç¨",
    "1111": "äº«",
    "1112": "ic",
    "1113": "æ¯ä»ä¹",
    "1114": "å",
    "1115": "å³",
    "1116": "ç­",
    "1117": "æ",
    "1118": "æ¬¡",
    "1119": "æ",
    "1120": "ç±",
    "1121": "æ",
    "1122": "é¸",
    "1123": "ç½®",
    "1124": "åµ",
    "1125": "å¸",
    "1126": "æ¸",
    "1127": "å¥½ç",
    "1128": "è±",
    "1129": "å",
    "1130": "æ",
    "1131": "ç¯",
    "1132": "ç±»å",
    "1133": "å¼å§",
    "1134": "é³",
    "1135": "èªå¨",
    "1136": "å",
    "1137": "æ¶",
    "1138": "é¢",
    "1139": "ç",
    "1140": "æ",
    "1141": "è¾",
    "1142": "è¿",
    "1143": "ç»´",
    "1144": "é",
    "1145": "am",
    "1146": "è±",
    "1147": "å¯»",
    "1148": "çæ",
    "1149": "å¸",
    "1150": "æé«",
    "1151": "ç­",
    "1152": "å¨çº¿",
    "1153": "å",
    "1154": "é",
    "1155": "æ²¡æ",
    "1156": "å",
    "1157": "ç ç©¶",
    "1158": "ç¡®å®",
    "1159": "å¡",
    "1160": "å­",
    "1161": "å±",
    "1162": " \"",
    "1163": "æ¯",
    "1164": "è½¯ä»¶",
    "1165": "è®¡å",
    "1166": "es",
    "1167": "è",
    "1168": "å¤´",
    "1169": "å®æ",
    "1170": "æ",
    "1171": "å©ç¨",
    "1172": "é¢æµ",
    "1173": "ä»½",
    "1174": "ro",
    "1175": "ä»ä»¬ç",
    "1176": "ä¸äº",
    "1177": "æ£",
    "1178": "å",
    "1179": "å¼å",
    "1180": "æ¢",
    "1181": "è¶³",
    "1182": "çæ",
    "1183": "å°½",
    "1184": "äº",
    "1185": "å",
    "1186": "åç±»",
    "1187": "å·²ç»",
    "1188": " o",
    "1189": "è²",
    "1190": "é©¬",
    "1191": "åª",
    "1192": "æ¿",
    "1193": "æ°",
    "1194": "å",
    "1195": "åä¸",
    "1196": " to",
    "1197": "è½å",
    "1198": "äº§ç",
    "1199": "ä¹é´ç",
    "1200": "é¡¹ç®",
    "1201": "ç¸å³",
    "1202": " n",
    "1203": "æ",
    "1204": "é",
    "1205": "å°",
    "1206": "ä¹°",
    "1207": "æ²»",
    "1208": "ä¸½",
    "1209": "çµå½±",
    "1210": "æ",
    "1211": "æºå¨äºº",
    "1212": "ä¾å­",
    "1213": "è·å¾",
    "1214": "½",
    "1215": " d",
    "1216": "å¨",
    "1217": "æå",
    "1218": "å£«",
    "1219": "è¯»",
    "1220": "å¹¿",
    "1221": "æ",
    "1222": "æ",
    "1223": "----",
    "1224": "ç¶å",
    "1225": "èµ°",
    "1226": "æµ",
    "1227": "ç¶",
    "1228": " h",
    "1229": "æå°",
    "1230": "æ¯",
    "1231": "ç»",
    "1232": "å",
    "1233": "æ",
    "1234": "æ²¹",
    "1235": "é",
    "1236": "å¨ç",
    "1237": " A",
    "1238": "ç»æµ",
    "1239": "äººç±»",
    "1240": "å¾·",
    "1241": "ç¬¦",
    "1242": "çè§£",
    "1243": "ä¸",
    "1244": "ç¦»",
    "1245": "ç",
    "1246": "ac",
    "1247": "æ¨ç",
    "1248": "è¿",
    "1249": "å´",
    "1250": "ç½ç«",
    "1251": "æ ¹æ®",
    "1252": "el",
    "1253": "å¦æ",
    "1254": "å­¦ç",
    "1255": "æ¢",
    "1256": "ç¬",
    "1257": "ç»­",
    "1258": "å",
    "1259": "ut",
    "1260": "é",
    "1261": "åº",
    "1262": " in",
    "1263": "ç§»",
    "1264": "å¥",
    "1265": "å¢",
    "1266": "æä¸º",
    "1267": "æ­",
    "1268": "å¨",
    "1269": "å ",
    "1270": "ååº",
    "1271": "å°ä»¥ä¸",
    "1272": "æ­",
    "1273": "å£°",
    "1274": "æ",
    "1275": "è½",
    "1276": "å¨",
    "1277": "å¤±",
    "1278": "çæ",
    "1279": "is",
    "1280": "nd",
    "1281": "è",
    "1282": "è",
    "1283": "è´­ä¹°",
    "1284": "æ­£å¨",
    "1285": "èªå·±ç",
    "1286": "äº",
    "1287": "ä¿æ¤",
    "1288": "è¶£",
    "1289": "__",
    "1290": "åç§",
    "1291": "è¿",
    "1292": "å±±",
    "1293": "åæ»¡",
    "1294": "ææ¬",
    "1295": "æ¥",
    "1296": "æ ",
    "1297": "ç½",
    "1298": "æ",
    "1299": "æ¨¡å",
    "1300": "ææ",
    "1301": "æ¹é¢",
    "1302": "å®ç°",
    "1303": "æ°ç",
    "1304": "æ¿",
    "1305": "å¿",
    "1306": "è¯",
    "1307": "è®¿",
    "1308": "çå½±å",
    "1309": "çç©",
    "1310": "ä¸»é¢",
    "1311": "åå«",
    "1312": " 3",
    "1313": "ä¸èµ·",
    "1314": "lo",
    "1315": "é¨å",
    "1316": " re",
    "1317": "è§è²",
    "1318": "å»ç",
    "1319": "åå¸",
    "1320": "è§",
    "1321": "æ",
    "1322": "æºå¨å­¦ä¹ ",
    "1323": "æ¾",
    "1324": "çæ¹å¼",
    "1325": "æ¹å",
    "1326": "çæä¸ä¸ª",
    "1327": "åè½",
    "1328": "æ¹æ¡",
    "1329": " \n",
    "1330": "ä¾¿",
    "1331": "å",
    "1332": "åç´ ",
    "1333": "æ¾",
    "1334": "é»",
    "1335": "è£",
    "1336": "æ´å¤",
    "1337": "è¹",
    "1338": "è¹æ",
    "1339": " 4",
    "1340": "ç±³",
    "1341": "ur",
    "1342": "æè²",
    "1343": "åºç¨ç¨åº",
    "1344": "ç",
    "1345": "å³ç³»",
    "1346": "è¾åº",
    "1347": "åª",
    "1348": "åä¸ä¸ª",
    "1349": "å¤æ",
    "1350": "æ½",
    "1351": "è¾¹",
    "1352": "å³",
    "1353": "åå®¹",
    "1354": "æ´",
    "1355": "ï¼",
    "1356": "ç¤",
    "1357": "æç»",
    "1358": "çæ ",
    "1359": "å¯»æ¾",
    "1360": "å¿µ",
    "1361": "æ",
    "1362": "å°",
    "1363": "é¾",
    "1364": "ç»åº",
    "1365": "æ¯æ",
    "1366": "ç»æ",
    "1367": "å»ºè®®",
    "1368": "åç¡®",
    "1369": "ç§",
    "1370": "äº",
    "1371": "å·¥å·",
    "1372": "æ°å",
    "1373": "å³ç­",
    "1374": "æ¥",
    "1375": "et",
    "1376": "ä»¤",
    "1377": "è¾",
    "1378": "æ±½",
    "1379": " S",
    "1380": "ç«",
    "1381": "ç»æ",
    "1382": "äºä¸",
    "1383": "çä¸",
    "1384": "å",
    "1385": "è¶",
    "1386": "ay",
    "1387": "çª",
    "1388": "æ¢ç´¢",
    "1389": "ç§å­¦",
    "1390": "å±",
    "1391": "ä¼",
    "1392": "èµæº",
    "1393": "ç",
    "1394": "å·",
    "1395": "åª",
    "1396": "å²",
    "1397": "å¬",
    "1398": "è",
    "1399": "å±",
    "1400": "ç»",
    "1401": "åä¸¾",
    "1402": "åæ¬¢",
    "1403": "æä»¬ç",
    "1404": "ad",
    "1405": "è®¿é®",
    "1406": "æ¥æ",
    "1407": "ç²¾",
    "1408": "æå",
    "1409": "å¥è¯",
    "1410": "æ",
    "1411": "è¡¨è¾¾",
    "1412": "åå±",
    "1413": "ç²",
    "1414": "æ§",
    "1415": "ç§°",
    "1416": "å¦",
    "1417": "ç©å",
    "1418": "é¢",
    "1419": "il",
    "1420": "è¯",
    "1421": "è¿å¯ä»¥",
    "1422": "æ¸¸æ",
    "1423": " of",
    "1424": "çæ",
    "1425": "æ¢",
    "1426": "åå¾",
    "1427": "å¿«é",
    "1428": "å¹²",
    "1429": "æç",
    "1430": "æ¹å",
    "1431": "é",
    "1432": "è",
    "1433": "å´",
    "1434": "AI",
    "1435": "ç»æ",
    "1436": "ç½",
    "1437": "çæäº",
    "1438": "å°",
    "1439": "å¦",
    "1440": "å¾",
    "1441": "ä½éª",
    "1442": "äºä¸ª",
    "1443": "ç»ç»",
    "1444": "æ©",
    "1445": "é¡»",
    "1446": "å¢é",
    "1447": "ä»ç",
    "1448": "å¸",
    "1449": "é",
    "1450": "ç­ç",
    "1451": "ç­ç¥",
    "1452": "å¤ªé³",
    "1453": "åå¶ä»",
    "1454": "çµå­",
    "1455": "é»",
    "1456": "è",
    "1457": "é¼",
    "1458": "æ±½è½¦",
    "1459": "é",
    "1460": "å¥³",
    "1461": "ç§",
    "1462": "åªä½",
    "1463": "æ¯ä¸ª",
    "1464": "å",
    "1465": "éº",
    "1466": "æ´å ",
    "1467": "é®",
    "1468": "ä¼°",
    "1469": "æºä¼",
    "1470": "è",
    "1471": "å¯¹äº",
    "1472": "ion",
    "1473": "å²",
    "1474": "æ¼",
    "1475": "åè®¸",
    "1476": "å©äº",
    "1477": "å¥¶",
    "1478": "é²",
    "1479": "éæ±",
    "1480": "äºä¸ä¸ª",
    "1481": "æ¯",
    "1482": "½å¨",
    "1483": "å¤",
    "1484": " (",
    "1485": "çæ",
    "1486": "é¤",
    "1487": "æ¦",
    "1488": "å¿é¡»",
    "1489": "pp",
    "1490": "å¬å­",
    "1491": "ç",
    "1492": "èªå¨å",
    "1493": "æ",
    "1494": "ç®¡ç",
    "1495": "éª¤",
    "1496": "å¹¶ä¸",
    "1497": "æå©äº",
    "1498": "å¾®",
    "1499": "é£ç©",
    "1500": "é¨",
    "1501": "id",
    "1502": "ç»",
    "1503": "å°¼",
    "1504": "æ§ç",
    "1505": "è",
    "1506": "â",
    "1507": "ent",
    "1508": "çæ°",
    "1509": "å¾",
    "1510": "è®²",
    "1511": "æ¬¾",
    "1512": "ç¤¾äº¤",
    "1513": "ç­",
    "1514": "è®¤ä¸º",
    "1515": "å¯",
    "1516": "å­å¨",
    "1517": "çäº§",
    "1518": "æåº",
    "1519": "åª",
    "1520": "åªå",
    "1521": "ç»å®ç",
    "1522": "æ",
    "1523": "th",
    "1524": "é£",
    "1525": "è",
    "1526": "å",
    "1527": "è¿ç§",
    "1528": "äººç",
    "1529": "é®",
    "1530": "æ£®",
    "1531": "æé",
    "1532": "é¥®",
    "1533": "è¯¯",
    "1534": "ç±äº",
    "1535": "é£é©",
    "1536": "çä¾å­",
    "1537": "è¡ä¸º",
    "1538": "ã\"",
    "1539": "è¸",
    "1540": "ä¸åç",
    "1541": "é",
    "1542": " C",
    "1543": "ç§¯æ",
    "1544": "æ­¢",
    "1545": "å°ç",
    "1546": "å",
    "1547": " å¨",
    "1548": "åº",
    "1549": " P",
    "1550": "å»",
    "1551": "è",
    "1552": "æ",
    "1553": "è¥é",
    "1554": "è¿å¨",
    "1555": "ä½¿å¶",
    "1556": "è´¢",
    "1557": "æ°ååå",
    "1558": "æ­£ç¡®",
    "1559": "æ¯è¾",
    "1560": "ers",
    "1561": " st",
    "1562": "ä½",
    "1563": "çª",
    "1564": "ç",
    "1565": "è",
    "1566": "çæ¹æ³",
    "1567": "è§£å³æ¹æ¡",
    "1568": "å ",
    "1569": "å¯è½ä¼",
    "1570": "æå³",
    "1571": "åºäº",
    "1572": "å­å¨",
    "1573": "ç³",
    "1574": "é®ä»¶",
    "1575": "å å¥",
    "1576": "ç¦",
    "1577": "æ´²",
    "1578": "è®¾å¤",
    "1579": "æ",
    "1580": "å¯ä»¥å¸®å©",
    "1581": "ä»¥ä¸å¥å­",
    "1582": " is",
    "1583": "é¡¾",
    "1584": "å°äº",
    "1585": "æåµ",
    "1586": "æ¿åº",
    "1587": "å",
    "1588": " 5",
    "1589": "è·",
    "1590": "é¦",
    "1591": "é",
    "1592": "å¶å®",
    "1593": "å¸",
    "1594": "çæ",
    "1595": "       ",
    "1596": "æ",
    "1597": "ç¼º",
    "1598": "é¢å",
    "1599": "å®³",
    "1600": "è¿æ¥",
    "1601": " +",
    "1602": "ä¸å¤©",
    "1603": "å»ºç«",
    "1604": "ä¹ä¸",
    "1605": "äºè§£",
    "1606": "å¸¦æ¥",
    "1607": "å¾",
    "1608": "é£å",
    "1609": "æ··",
    "1610": "ç©",
    "1611": "é¢",
    "1612": "ä½ ç",
    "1613": "æ",
    "1614": "12",
    "1615": "å°",
    "1616": "é¸¡",
    "1617": "åé",
    "1618": "åº",
    "1619": "æ£æµ",
    "1620": " g",
    "1621": "é¢è²",
    "1622": "æ",
    "1623": "æ¿",
    "1624": "éè¦ç",
    "1625": "å",
    "1626": "è",
    "1627": "å",
    "1628": "æ¤",
    "1629": "äºä»¶",
    "1630": "é",
    "1631": "é",
    "1632": "ec",
    "1633": "è´",
    "1634": "çä¸ä¸ª",
    "1635": "æªæ¥",
    "1636": "è",
    "1637": "æ²",
    "1638": "å·",
    "1639": "ä»£ç ",
    "1640": "å",
    "1641": "å¡",
    "1642": "å³å®",
    "1643": "é",
    "1644": "ç»",
    "1645": "åå¤",
    "1646": "ï¼ï¼",
    "1647": "æèµ",
    "1648": "åç",
    "1649": "å¤©ç©º",
    "1650": "èç³»",
    "1651": "èª",
    "1652": "å¸åº",
    "1653": "æ®",
    "1654": "æ°¸",
    "1655": "äº®",
    "1656": "å",
    "1657": "è®¨",
    "1658": "æ¶",
    "1659": "åä¸",
    "1660": "ç¹å®",
    "1661": "èè",
    "1662": "è¿å»",
    "1663": "å",
    "1664": "æ²",
    "1665": "è¯",
    "1666": "ç¾¤",
    "1667": "å¼ ",
    "1668": "çæ°æ®",
    "1669": "é«æ",
    "1670": "åæ¶",
    "1671": "ä»",
    "1672": "çæ­",
    "1673": "ä¿®",
    "1674": "å¸å¼",
    "1675": "å±",
    "1676": "å¯å",
    "1677": "å¯åç",
    "1678": "å½",
    "1679": "ge",
    "1680": "è",
    "1681": "ve",
    "1682": "å¶ä¸­",
    "1683": "å",
    "1684": "å¼",
    "1685": "èæ",
    "1686": "éº¦",
    "1687": "å®¤",
    "1688": "ä¿",
    "1689": "è",
    "1690": "ææ",
    "1691": "å·§",
    "1692": "ä¸ºä»ä¹",
    "1693": "é¿",
    "1694": " W",
    "1695": "é",
    "1696": " l",
    "1697": "ol",
    "1698": "å·¨",
    "1699": "å¥½å¤",
    "1700": "æ¶å",
    "1701": "æ­¥éª¤",
    "1702": "çæ",
    "1703": "æ³¢",
    "1704": "è",
    "1705": "å¾",
    "1706": "èç½",
    "1707": "ç¼è¾",
    "1708": "éè¯¯",
    "1709": "åæ",
    "1710": "å­©",
    "1711": "å¨",
    "1712": "å®¢æ·æå¡",
    "1713": "åº",
    "1714": "éæ°",
    "1715": "è´£",
    "1716": "å",
    "1717": "ç",
    "1718": "å",
    "1719": "å",
    "1720": "å¹³å°",
    "1721": "åç",
    "1722": "ç¿°",
    "1723": "æ´å¥½",
    "1724": "è¡¡",
    "1725": "å½¢å¼",
    "1726": "æ§",
    "1727": "åªäº",
    "1728": "æ",
    "1729": "æè¶£",
    "1730": "çº¦ç¿°",
    "1731": "ç©¿",
    "1732": "æ©",
    "1733": "æ¬§",
    "1734": "æ æ³",
    "1735": "ç¹å¾",
    "1736": "ç«",
    "1737": "åº­",
    "1738": "ä»è",
    "1739": "å¶",
    "1740": "è¯",
    "1741": "ä»",
    "1742": " and",
    "1743": "ç¥é",
    "1744": "ä½ç¨",
    "1745": " <",
    "1746": "é²",
    "1747": "us",
    "1748": "ç¥¨",
    "1749": "ä½³",
    "1750": "å­ç¬¦",
    "1751": "è½é",
    "1752": "ex",
    "1753": "èº",
    "1754": "ç®ç",
    "1755": "ä¼¼",
    "1756": "å³é®",
    "1757": "int",
    "1758": "ri",
    "1759": "å½",
    "1760": "è¯",
    "1761": "çº¢",
    "1762": "è¬",
    "1763": "è¬è",
    "1764": "ä»·æ ¼",
    "1765": "å",
    "1766": "æ½å¨",
    "1767": "å°½ç®¡",
    "1768": "å·´",
    "1769": "å",
    "1770": "è",
    "1771": " ä½ ",
    "1772": "ç",
    "1773": "é²",
    "1774": "å°æ¹",
    "1775": "ç´¢",
    "1776": "å¶ä½",
    "1777": "è¯ä¼°",
    "1778": "çæ",
    "1779": "tur",
    "1780": "è¯¾",
    "1781": "ç§»å¨",
    "1782": "è±",
    "1783": "å¯åçè½æº",
    "1784": "æä¸ä¸ª",
    "1785": "éå½",
    "1786": "é",
    "1787": "ä»¤äºº",
    "1788": "æ¯å¦",
    "1789": " G",
    "1790": "æ¸©åº¦",
    "1791": "ä¿å¥",
    "1792": "éä½",
    "1793": "çæ",
    "1794": "è",
    "1795": "ver",
    "1796": "æ¯",
    "1797": "çéè¦",
    "1798": "ææº",
    "1799": "ï¼ã",
    "1800": "æµè¡",
    "1801": "èªç¶è¯­è¨",
    "1802": "è¯¢",
    "1803": "ç¤¾ä¼",
    "1804": "ä¸",
    "1805": "å",
    "1806": " I",
    "1807": "çæ",
    "1808": "ï¼\"",
    "1809": "å®¶åº­",
    "1810": "é ",
    "1811": "å®ä¹",
    "1812": "éè¯»",
    "1813": "ul",
    "1814": "çä¸»è¦",
    "1815": "æå",
    "1816": "çå¥å­",
    "1817": "å¹³å",
    "1818": "ä¸æ­",
    "1819": "é",
    "1820": "ååº",
    "1821": "çº§",
    "1822": "ææ",
    "1823": "å®¹æ",
    "1824": "è",
    "1825": "å°",
    "1826": "äºèç½",
    "1827": "ç",
    "1828": "æ§è¡",
    "1829": "æµè¯",
    "1830": "å¾å",
    "1831": "è½¬æ¢",
    "1832": "æ°é",
    "1833": "è¿½",
    "1834": "åé",
    "1835": " ar",
    "1836": "ä¼",
    "1837": "å æ­¤",
    "1838": "ç³",
    "1839": "åä½",
    "1840": "å",
    "1841": "åé©",
    "1842": "å",
    "1843": "å¿",
    "1844": " th",
    "1845": "äº",
    "1846": "åå²",
    "1847": "é¥¼",
    "1848": "é¨",
    "1849": "æ§å¶",
    "1850": "å»çä¿å¥",
    "1851": "æ¨",
    "1852": "è§é¢",
    "1853": "å",
    "1854": "éç",
    "1855": "çæ",
    "1856": "å¯ä»¥éè¿",
    "1857": "æ",
    "1858": "é¹",
    "1859": "å¿",
    "1860": "è¶",
    "1861": "è¶æ¥",
    "1862": "è¶æ¥è¶",
    "1863": "æ°",
    "1864": "æ¾ç¤º",
    "1865": "æ¿",
    "1866": "æç´¢",
    "1867": "ç¤¾äº¤åªä½",
    "1868": "ä¸ç´",
    "1869": "ç­è¯­",
    "1870": "ä»",
    "1871": "èªæ",
    "1872": "å¿è¦",
    "1873": "å¾ª",
    "1874": "ä¼ ç»",
    "1875": "è°¢",
    "1876": "000",
    "1877": "ç»éª",
    "1878": "ç¥ç»",
    "1879": "æè¿",
    "1880": "ä¸ä½",
    "1881": "ot",
    "1882": "é»",
    "1883": "å®",
    "1884": "å±ç¤º",
    "1885": "è¡¨ç¤º",
    "1886": "ä¸å¯",
    "1887": "æ£®æ",
    "1888": "50",
    "1889": "ç¢³",
    "1890": "ææ",
    "1891": "çæ¸",
    "1892": " F",
    "1893": "çµå­é®ä»¶",
    "1894": "se",
    "1895": "åº§",
    "1896": "çæ¦",
    "1897": "èº«ä½",
    "1898": "åå",
    "1899": "ä¸è§",
    "1900": "ä¸ç§",
    "1901": "å§",
    "1902": "è´¨é",
    "1903": "æ±¡",
    "1904": "ç",
    "1905": "è¸ª",
    "1906": "è",
    "1907": "æ¤ç©",
    "1908": "å¦",
    "1909": "ä½ä¸º",
    "1910": "åä¸",
    "1911": "çå½",
    "1912": "æ",
    "1913": "éª",
    "1914": "çè¿ç¨",
    "1915": "turn",
    "1916": "put",
    "1917": "ä¸è§å½¢",
    "1918": "æ·»",
    "1919": "ç»§",
    "1920": "æ··å",
    "1921": "è¡ä¸",
    "1922": "çæä¸",
    "1923": " was",
    "1924": "ä¸é¢",
    "1925": "çµè",
    "1926": "ç",
    "1927": "ç°å¨",
    "1928": " M",
    "1929": "ä»·å¼",
    "1930": "æä¾äº",
    "1931": "ef",
    "1932": "å¬å±",
    "1933": "åç±»ä¸º",
    "1934": "ååº",
    "1935": "æ¾åº",
    "1936": "å¥¹ç",
    "1937": " for",
    "1938": "ç",
    "1939": "ä¸çä¸",
    "1940": "æè¡",
    "1941": "è",
    "1942": "äººå£",
    "1943": "æ¹",
    "1944": "å¥",
    "1945": "oo",
    "1946": "æ¶é",
    "1947": "éåº",
    "1948": "ç¿»",
    "1949": "im",
    "1950": "):",
    "1951": "å¹´è½»",
    "1952": "ç ´",
    "1953": "å",
    "1954": "è´§",
    "1955": "èºæ¯",
    "1956": "è°æ¥",
    "1957": "å ä¸ºå®",
    "1958": "å¯ä»¥ä½¿ç¨",
    "1959": "ä¹",
    "1960": "æ°§",
    "1961": "çæ¯",
    "1962": "ç¬",
    "1963": "é­",
    "1964": "è",
    "1965": "çæ ",
    "1966": " return",
    "1967": "è®¨è®º",
    "1968": "é¡µ",
    "1969": "num",
    "1970": "è",
    "1971": " B",
    "1972": "ä¸",
    "1973": "æ¥èª",
    "1974": "æ±¡æ",
    "1975": "çæ°",
    "1976": "ç",
    "1977": "ç´å°",
    "1978": "è§è§",
    "1979": "æ´",
    "1980": "æ¢",
    "1981": "ax",
    "1982": "ä¸²",
    "1983": "é",
    "1984": "éè¿°",
    "1985": "ç©ºæ°",
    "1986": "é¼",
    "1987": "æ´",
    "1988": "è",
    "1989": "ç­",
    "1990": "æ¾",
    "1991": "\n ",
    "1992": "åä¸ç¯",
    "1993": "éå",
    "1994": "18",
    "1995": "ä¸",
    "1996": "è²ç",
    "1997": "é¾",
    "1998": "æ¹ç¨",
    "1999": "æ§å",
    "2000": "æ¥æº",
    "2001": "çº³",
    "2002": "æ·»å ",
    "2003": "å¤",
    "2004": "è´¢å¡",
    "2005": "é¾",
    "2006": "äº¤é",
    "2007": "èªç¶è¯­è¨å¤ç",
    "2008": "å»",
    "2009": "å¿ ",
    "2010": "çºª",
    "2011": "æ¸å",
    "2012": "ç",
    "2013": "ä½ç½®",
    "2014": "ç¥è¯",
    "2015": "å·¥ç¨",
    "2016": " be",
    "2017": " he",
    "2018": "å»",
    "2019": "è¿ä¸ªå¥å­",
    "2020": "è°",
    "2021": " #",
    "2022": "æ¨¡å¼",
    "2023": "//",
    "2024": "ä¸´",
    "2025": "ç¼ç¨",
    "2026": "æ³",
    "2027": "ä¸ºäº",
    "2028": "ä¸¥",
    "2029": "ç¬",
    "2030": "çç¤",
    "2031": "æ¹å",
    "2032": "å¸æ",
    "2033": "è®­",
    "2034": "ä»",
    "2035": " T",
    "2036": "ra",
    "2037": "å",
    "2038": "è",
    "2039": "å",
    "2040": "å¨ä¸èµ·",
    "2041": "ä¹",
    "2042": "é¡¾å®¢",
    "2043": "ht",
    "2044": "ç®å",
    "2045": "éå",
    "2046": "å½",
    "2047": "æ¨è",
    "2048": "é½æ¯",
    "2049": "å¸¸è§",
    "2050": "ly",
    "2051": "un",
    "2052": "ç",
    "2053": "é",
    "2054": "ä¹å",
    "2055": "å½å",
    "2056": "           ",
    "2057": "åäº«",
    "2058": "å¸",
    "2059": "ç»§ç»­",
    "2060": "é¿",
    "2061": "ä»£è¡¨",
    "2062": "é¥®é£",
    "2063": "çæ",
    "2064": "çæ¶é´",
    "2065": "æç",
    "2066": "ä¸ä¼",
    "2067": "ä¼å",
    "2068": "é©¶",
    "2069": "è§¦",
    "2070": "å°è¯´",
    "2071": "å³",
    "2072": "è¯´æ",
    "2073": "å­æ¯",
    "2074": "çæ",
    "2075": "æ»¡æ",
    "2076": "è¿æ¯",
    "2077": "æ£",
    "2078": "å¨è¯",
    "2079": "æ",
    "2080": "ä¸¤ç§",
    "2081": "é¢",
    "2082": "å±",
    "2083": "ç",
    "2084": "åå ",
    "2085": "æ¥å¸¸",
    "2086": "ç®±",
    "2087": "å°åº",
    "2088": "çå·¥ä½",
    "2089": "æ£",
    "2090": "é©¾",
    "2091": "æ©",
    "2092": "çæµ",
    "2093": "å¤§å©",
    "2094": "å¢é¿",
    "2095": "å ç´ ",
    "2096": "ig",
    "2097": "èä¸",
    "2098": "æª",
    "2099": "å®è¿",
    "2100": "å°å¶",
    "2101": "å¤§é",
    "2102": "é±",
    "2103": "é±",
    "2104": "é±¼",
    "2105": "ä¸æ³¨",
    "2106": "ä¼¤",
    "2107": "é",
    "2108": "å½æ°",
    "2109": "è°æ´",
    "2110": "¾ç",
    "2111": "ç¸å³ç",
    "2112": "è½¬æ¢ä¸º",
    "2113": "ber",
    "2114": "å",
    "2115": "ç¼",
    "2116": "11",
    "2117": "å²",
    "2118": "å±",
    "2119": "å¾",
    "2120": "å¹¸",
    "2121": "ç»æ",
    "2122": "èµ·æ¥",
    "2123": "å¡",
    "2124": "æç»­",
    "2125": "å¹¿æ³",
    "2126": "é¢ç§¯",
    "2127": "å",
    "2128": "æ°",
    "2129": "é¤å",
    "2130": "ch",
    "2131": "åºç¡",
    "2132": "åºç¡",
    "2133": "100",
    "2134": "å°é¾",
    "2135": "éåº¦",
    "2136": "ç«",
    "2137": "é¡¿",
    "2138": "å°",
    "2139": "é¸",
    "2140": "ç",
    "2141": "äºå®",
    "2142": "æè½",
    "2143": "ç",
    "2144": "çµ",
    "2145": "äº«å",
    "2146": "å®",
    "2147": " 20",
    "2148": "çç",
    "2149": "æ´å¥½å°",
    "2150": "çæ¦å¿µ",
    "2151": "æ²é",
    "2152": "\n       ",
    "2153": "æ°æ®åº",
    "2154": "äºæ",
    "2155": "æ±¤",
    "2156": "ä¸æ ·",
    "2157": "ç¯",
    "2158": "å­ç¬¦ä¸²",
    "2159": "é",
    "2160": "è¥å»",
    "2161": "å°",
    "2162": "é©",
    "2163": "è¶",
    "2164": "å»",
    "2165": "éå¤",
    "2166": "é¦å",
    "2167": " 0",
    "2168": "çç¬",
    "2169": "è",
    "2170": "æ¼«",
    "2171": "æå»º",
    "2172": "ççæ´»",
    "2173": "å½¢å®¹",
    "2174": "ç¼åä¸ä¸ª",
    "2175": "è®¢",
    "2176": "com",
    "2177": "and",
    "2178": " y",
    "2179": "ke",
    "2180": "å¯¹è¯",
    "2181": "å°",
    "2182": "è¯º",
    "2183": "å±",
    "2184": "å¾å°",
    "2185": "é®é¢ç",
    "2186": "å¯",
    "2187": "ç°å®",
    "2188": "one",
    "2189": "é±",
    "2190": "ä»å¤©",
    "2191": "å¤«",
    "2192": "ç",
    "2193": "å¼",
    "2194": " å",
    "2195": "å½å®¶å¬å­",
    "2196": "ä¸ªæ§",
    "2197": "è¯­æ³",
    "2198": "æ»ç»",
    "2199": "è¿æ ·",
    "2200": "pple",
    "2201": " do",
    "2202": "15",
    "2203": "17",
    "2204": "çå¤§",
    "2205": "æ°æ®é",
    "2206": " arr",
    "2207": "ä¸æ¯",
    "2208": "ç",
    "2209": "èªç±",
    "2210": "æäº",
    "2211": "æå",
    "2212": "å®ç",
    "2213": "è¶å¿",
    "2214": "èå´",
    "2215": "æ¤",
    "2216": " R",
    "2217": "çæ´",
    "2218": "ç»å¸¸",
    "2219": "ç¾ç",
    "2220": "æ­",
    "2221": "è¯è®º",
    "2222": "ç»",
    "2223": "é­",
    "2224": "æ´ä¸ª",
    "2225": "åä½",
    "2226": "ç®",
    "2227": "ç¬ç¹",
    "2228": "è¡å¨",
    "2229": "è¿æ¯",
    "2230": "ue",
    "2231": "ith",
    "2232": "æµª",
    "2233": "ab",
    "2234": "æ¶",
    "2235": "é¡º",
    "2236": "è¦",
    "2237": "å³",
    "2238": "ç³",
    "2239": "äººå",
    "2240": "æ´",
    "2241": "ä¿è¿",
    "2242": "å¤©æ°",
    "2243": "å¼ºå¤§",
    "2244": "ç»¿",
    "2245": "çæåµ",
    "2246": "æ»¡è¶³",
    "2247": "ä¸»ä¹",
    "2248": "æ",
    "2249": "é",
    "2250": "æ¿",
    "2251": "ç©ç§",
    "2252": "é«ç",
    "2253": "é¦",
    "2254": "éå½ç",
    "2255": "è¿·",
    "2256": "æä»¶",
    "2257": "æåº",
    "2258": "å¯ä»¥å¨",
    "2259": "è¯¾ç¨",
    "2260": "å®æ",
    "2261": "æ",
    "2262": "çæ²",
    "2263": "è½»æ¾",
    "2264": "å°åº¦",
    "2265": "é»è²",
    "2266": "æ°",
    "2267": "åå°",
    "2268": "è®¾è®¡ä¸ä¸ª",
    "2269": "æ­£å¼",
    "2270": "ç¼©",
    "2271": "å¯é ",
    "2272": "ç¥ç§",
    "2273": "åè¯",
    "2274": "äºå¨",
    "2275": "ç",
    "2276": "ring",
    "2277": "æ¶è´¹",
    "2278": "å®¶äºº",
    "2279": "å½©",
    "2280": "å¥",
    "2281": "od",
    "2282": "æä¸",
    "2283": "å¿",
    "2284": "æ¥æ¾",
    "2285": "ä»¥ç¡®ä¿",
    "2286": "ation",
    "2287": "å·®",
    "2288": "å",
    "2289": "è¨",
    "2290": "åºå«",
    "2291": "æ ¸",
    "2292": "--------",
    "2293": "æ",
    "2294": "Â°",
    "2295": "ä½¿å¾",
    "2296": "é©¾é©¶",
    "2297": "æ é¢",
    "2298": "æ°´æ",
    "2299": "èé",
    "2300": "å¾å¿«",
    "2301": "è®°å½",
    "2302": "å¿ è¯",
    "2303": "ç¹ç¹",
    "2304": "äº¤æµ",
    "2305": " 8",
    "2306": " 6",
    "2307": "em",
    "2308": "è§ç¹",
    "2309": "è¡¨ç°",
    "2310": "è¯æ­",
    "2311": "å°æ¶",
    "2312": "ä¸ç",
    "2313": "å°±å",
    "2314": "é",
    "2315": "è·è¸ª",
    "2316": "è®­ç»",
    "2317": " D",
    "2318": "å¡",
    "2319": "ç°ä»£",
    "2320": "ç«äº",
    "2321": "è¡",
    "2322": "è·",
    "2323": "æ",
    "2324": "é¶",
    "2325": "å¥¥",
    "2326": " [",
    "2327": "å¯",
    "2328": "èæ¯",
    "2329": "è´­ç©",
    "2330": "æå¤§",
    "2331": "è·",
    "2332": "è¡¨æ",
    "2333": "å«",
    "2334": "å¨ä¸ä¸ª",
    "2335": "é",
    "2336": "çç¾",
    "2337": "åºæ¬",
    "2338": "ââ",
    "2339": "åºç°",
    "2340": "çä¸ä¸ª",
    "2341": "ç¼å",
    "2342": "ç´§",
    "2343": "ç­¾",
    "2344": "æ³¨æ",
    "2345": "arr",
    "2346": "çéè¦æ§",
    "2347": "å¹¶å¨",
    "2348": "è",
    "2349": "ä¼ç¹",
    "2350": "å¬æ°",
    "2351": "äº²",
    "2352": "å­©å­",
    "2353": "é¢ä¸´",
    "2354": "è¶å",
    "2355": "ç¢",
    "2356": "å¶é ",
    "2357": "åç§°",
    "2358": "if",
    "2359": "ç",
    "2360": "å¹¿å",
    "2361": "æ¥è¯¢",
    "2362": "ç",
    "2363": "è±",
    "2364": "é¢",
    "2365": "å½¢å®¹è¯",
    "2366": "éå®",
    "2367": "æµ·æ´",
    "2368": " r",
    "2369": "ç¸äº",
    "2370": "ä¸æ¬¡",
    "2371": "å¯ä»¥ç¨äº",
    "2372": "æ",
    "2373": "å¿ç",
    "2374": "é",
    "2375": "ç­æ¡",
    "2376": "å±",
    "2377": "çº½",
    "2378": "å",
    "2379": "é³ä¹",
    "2380": "ä¸ç¯",
    "2381": "ç ",
    "2382": " L",
    "2383": "ç",
    "2384": "è¾",
    "2385": "ä¾",
    "2386": "å¤ªé³è½",
    "2387": "åæ°",
    "2388": "ä»¥ä¾¿",
    "2389": "æ­£ç¡®ç",
    "2390": "åç",
    "2391": "è¦æ±",
    "2392": "ä»å",
    "2393": "ç±",
    "2394": "æ¶å",
    "2395": "è¡",
    "2396": "ç¸å",
    "2397": "å®£",
    "2398": "åæ»¡äº",
    "2399": "æ°¸è¿",
    "2400": "ä»ç¶",
    "2401": "è´¹ç¨",
    "2402": " å°",
    "2403": "å°è¾¾",
    "2404": "å°è¯",
    "2405": "æ",
    "2406": "å¢å¼º",
    "2407": "ç®",
    "2408": "æ¥è¯´",
    "2409": "åå",
    "2410": "ä¸é¦",
    "2411": "å°é",
    "2412": "æ­»",
    "2413": "ç©ç",
    "2414": "ä¹",
    "2415": "å¤§å­¦",
    "2416": " ä½¿ç¨",
    "2417": "ææ¾",
    "2418": "é¼å±",
    "2419": "ç¥ç»ç½ç»",
    "2420": "è¯",
    "2421": "é¸",
    "2422": "14",
    "2423": "çå°",
    "2424": "ä¹¦ç±",
    "2425": "è®²è¿°",
    "2426": " 10",
    "2427": "åè¯",
    "2428": "ç¨",
    "2429": "no",
    "2430": "æ¯ä¸ªäºº",
    "2431": "é³å",
    "2432": "å",
    "2433": "è®¾ç½®",
    "2434": " J",
    "2435": "å§",
    "2436": "åå·¥",
    "2437": "åºå¯¹",
    "2438": "é¾ä»¥",
    "2439": "é¾",
    "2440": "æä½³",
    "2441": "çè½å",
    "2442": "æ¡£",
    "2443": "ç",
    "2444": "ç¡",
    "2445": "çé®é¢",
    "2446": "æä¹",
    "2447": "ç¾å",
    "2448": "éª",
    "2449": "ä¼å¿",
    "2450": "ç¢",
    "2451": "av",
    "2452": "å®éª",
    "2453": "æ¯ä¸ä½",
    "2454": "æ£æ¥",
    "2455": "æ°´å¹³",
    "2456": "å®æ¯",
    "2457": "ç±»å«",
    "2458": "åä¸ª",
    "2459": "æäº",
    "2460": "çç¾",
    "2461": "ç»å",
    "2462": "é",
    "2463": "æå¤§å©",
    "2464": "ç®",
    "2465": "ç",
    "2466": "çè³",
    "2467": "å³æ³¨",
    "2468": "æ¶å¥",
    "2469": "åæ",
    "2470": "ç",
    "2471": "ill",
    "2472": "ir",
    "2473": "ç¾ä¸½",
    "2474": "å¦ä¸ä¸ª",
    "2475": "è³å³",
    "2476": "æ¿",
    "2477": "è¶è¿",
    "2478": "input",
    "2479": "ç«",
    "2480": "æ¿æ²»",
    "2481": "ä½¿ç¨ç",
    "2482": "æ¹è¿",
    "2483": "ç¹å«",
    "2484": "è°·",
    "2485": "é¸¡è",
    "2486": "æ",
    "2487": "åº",
    "2488": "ç¸ä¿¡",
    "2489": "æå°",
    "2490": "çå®¢æ·",
    "2491": "ä¸ä¸",
    "2492": "äººç©",
    "2493": "çæ",
    "2494": "æ´¾",
    "2495": "æè¯",
    "2496": "å°",
    "2497": "ç¿»è¯",
    "2498": "çæ¯",
    "2499": "ç¬è®°",
    "2500": "æ¦",
    "2501": "ç¶è",
    "2502": "å¼èµ·",
    "2503": "éç¨",
    "2504": "ç©è´¨",
    "2505": "é",
    "2506": "è¿",
    "2507": "æ®µè½",
    "2508": "ld",
    "2509": "æ",
    "2510": "æ",
    "2511": "½ç¶",
    "2512": "ä¼æ¯",
    "2513": "çç",
    "2514": "çä»»å¡",
    "2515": "è´µ",
    "2516": "è§å",
    "2517": "ame",
    "2518": "å",
    "2519": "ç£",
    "2520": "ä¹³",
    "2521": "é",
    "2522": "èå",
    "2523": "\"ã",
    "2524": "op",
    "2525": "æè°¢",
    "2526": "å¤å°",
    "2527": "å©æ",
    "2528": "ææº",
    "2529": " O",
    "2530": "ä¸æ³¨äº",
    "2531": "ä¸æ­¥",
    "2532": "å´",
    "2533": "æ³å½",
    "2534": "èº«ä»½",
    "2535": "è",
    "2536": "ä¸­å¿",
    "2537": "æ»æ¯",
    "2538": " x",
    "2539": "å½ç±»",
    "2540": "åº",
    "2541": "åºæ¯",
    "2542": "å¡",
    "2543": "å¯ç¨",
    "2544": "ç¬¬äº",
    "2545": "æä½",
    "2546": " æ¨",
    "2547": "æå³",
    "2548": "è½ç¶",
    "2549": "éé¡¹",
    "2550": "æ²",
    "2551": "çç¥",
    "2552": "çæ»",
    "2553": "å¼ºå¤§ç",
    "2554": "ä¼¦",
    "2555": "ææ",
    "2556": "è",
    "2557": "æ¿",
    "2558": "è¹",
    "2559": "ä¸°",
    "2560": "æ è®º",
    "2561": "å¾ªç¯",
    "2562": "ist",
    "2563": "æ°",
    "2564": "é",
    "2565": "å",
    "2566": "å¼äºº",
    "2567": "ä»",
    "2568": "çç»æ",
    "2569": "å¤ä¸ª",
    "2570": "éå¶",
    "2571": "å¯¹è±¡",
    "2572": "ä¸å",
    "2573": "æ¢¦",
    "2574": "è­",
    "2575": "ç³»å",
    "2576": "é£äº",
    "2577": "å§",
    "2578": "æ¥æ",
    "2579": "ææç",
    "2580": " {",
    "2581": "ce",
    "2582": "ore",
    "2583": "èç",
    "2584": "åå¡",
    "2585": "å¨è¿ä¸ª",
    "2586": "æªæ½",
    "2587": "æ",
    "2588": "ä¸è¦",
    "2589": "æå³ç",
    "2590": "ç¡¬",
    "2591": "ä¹",
    "2592": "çä¿¡æ¯",
    "2593": "å",
    "2594": "åæ°",
    "2595": "ä½",
    "2596": "çæ",
    "2597": "å",
    "2598": "è´è´£",
    "2599": "ç",
    "2600": "æ¢",
    "2601": "å¾å¤",
    "2602": "ç«¥",
    "2603": "æ",
    "2604": "çå¹³å",
    "2605": "åç­",
    "2606": "oh",
    "2607": "çææ",
    "2608": "é¢ç®",
    "2609": "æµç¨",
    "2610": "æ´å¥½ç",
    "2611": "å¹¶æä¾",
    "2612": "æ½",
    "2613": "ort",
    "2614": "ä¸ä»½",
    "2615": "ç°",
    "2616": "æ¥å",
    "2617": "ç¬ç«",
    "2618": "ä¸çºª",
    "2619": "ä¸ä¸ªäºº",
    "2620": "åç",
    "2621": "å½¢ç¶",
    "2622": " H",
    "2623": "å",
    "2624": "å",
    "2625": "è¿",
    "2626": "æ´ä½",
    "2627": "ap",
    "2628": "èµ",
    "2629": "éµ",
    "2630": "æ²³",
    "2631": "æ´å¤ç",
    "2632": "ç±»åç",
    "2633": "é¿å",
    "2634": "é²",
    "2635": "è´¦",
    "2636": "çå®",
    "2637": "è°±",
    "2638": "çå¥¶",
    "2639": "å®å®",
    "2640": "å®å®",
    "2641": "ï¼â",
    "2642": "ohn",
    "2643": "ç¼ºä¹",
    "2644": "æå©",
    "2645": "è´",
    "2646": "é»æ²¹",
    "2647": "ç",
    "2648": "å±é©",
    "2649": "æ°§å",
    "2650": "çé£é©",
    "2651": "å®å¶",
    "2652": "è¯­é³",
    "2653": "ç«¯",
    "2654": "è",
    "2655": "æè",
    "2656": "è¯",
    "2657": "é¦",
    "2658": "åå¸",
    "2659": "æ¬¢è¿",
    "2660": "ct",
    "2661": "æ¶",
    "2662": " on",
    "2663": "ç¢",
    "2664": "ç·",
    "2665": "é»æ",
    "2666": "qu",
    "2667": "è¿å",
    "2668": "å¹¸ç¦",
    "2669": "our",
    "2670": "æ",
    "2671": "æ´å®¹æ",
    "2672": "åå ",
    "2673": "ä½äº",
    "2674": "ç¨æ¥",
    "2675": "è",
    "2676": "çæ³",
    "2677": "å£°é³",
    "2678": "æç¨",
    "2679": "èä½",
    "2680": "æ",
    "2681": "äº§çäº",
    "2682": "å·",
    "2683": "å®¢æ·ç",
    "2684": "æ±¤å",
    "2685": "å´è¶£",
    "2686": "æ£è",
    "2687": "è",
    "2688": "è",
    "2689": "æ©",
    "2690": "ä¸è¥¿",
    "2691": "ä¼è®®",
    "2692": "å¨çåæ",
    "2693": "çææ",
    "2694": " by",
    "2695": "å",
    "2696": "å ä¸ª",
    "2697": "ä¹è¯",
    "2698": "æ°å­¦",
    "2699": "æ°ç»",
    "2700": "å",
    "2701": "å",
    "2702": "æ¯å¤©",
    "2703": "ä¸ä¸",
    "2704": "ä¸å®¶",
    "2705": "ç¥",
    "2706": "æ´å¿«",
    "2707": "é¥­",
    "2708": "çº½çº¦",
    "2709": "å ¡",
    "2710": "å",
    "2711": "å¯æç»­",
    "2712": "è·å",
    "2713": "æéç",
    "2714": "çæç« ",
    "2715": "æåç",
    "2716": "é",
    "2717": "åºå",
    "2718": "æä¾ä¸ä¸ª",
    "2719": "def",
    "2720": "è",
    "2721": "éª",
    "2722": "ag",
    "2723": "è¡£",
    "2724": "çæ°´",
    "2725": "å¤æ ·",
    "2726": "å¹³é¢",
    "2727": "çäºä¸ª",
    "2728": "å¯ç¨äº",
    "2729": " num",
    "2730": "åå¹³",
    "2731": "çå°",
    "2732": " '",
    "2733": "æ´",
    "2734": "è­¦",
    "2735": "æ°é²",
    "2736": "å",
    "2737": "åç±³",
    "2738": "æ¯åº",
    "2739": "é«åº¦",
    "2740": "æ",
    "2741": "å°ç",
    "2742": "ä»ç»",
    "2743": "ä»ç»",
    "2744": "é",
    "2745": "ä¹æ¯",
    "2746": "å½¢æ",
    "2747": "æ ¡",
    "2748": "æ§è½",
    "2749": "çä¸ç§",
    "2750": "å¼",
    "2751": "å¦ä¸",
    "2752": "ç¨³",
    "2753": "ã-",
    "2754": "åé¦",
    "2755": "æ¸æ°",
    "2756": "å»å­¦",
    "2757": "åæ°",
    "2758": "</",
    "2759": "iv",
    "2760": "ä¸­å½",
    "2761": "è¯·æ±",
    "2762": "çé¢",
    "2763": "è¯¦",
    "2764": "â¢",
    "2765": "å·¥ä¸",
    "2766": "å®æ½",
    "2767": "ç»",
    "2768": "ä¼ æ­",
    "2769": " *",
    "2770": "æ£",
    "2771": "äºç§",
    "2772": "å§å",
    "2773": "è¯å¾",
    "2774": "ä½å",
    "2775": "ss",
    "2776": "éå",
    "2777": "å·¨å¤§ç",
    "2778": "å¨å´",
    "2779": "å¿",
    "2780": "çæè§",
    "2781": "é¡ºåº",
    "2782": "ter",
    "2783": "è¿å±",
    "2784": "æ¦å¿µ",
    "2785": "å¡æ",
    "2786": "çæ³æ³",
    "2787": "å¨å",
    "2788": "å®ä»¬ç",
    "2789": "ant",
    "2790": " j",
    "2791": "çç®æ ",
    "2792": "21",
    "2793": "ç",
    "2794": "è",
    "2795": " æ¯",
    "2796": " \n   ",
    "2797": "å¾",
    "2798": "åº",
    "2799": "æ",
    "2800": "èµ",
    "2801": "ç§",
    "2802": "æ²»ç",
    "2803": "æ¾ç»",
    "2804": "å¤",
    "2805": "è",
    "2806": "å°º",
    "2807": "çæ",
    "2808": "åå®¢",
    "2809": "ub",
    "2810": "out",
    "2811": "çº¸",
    "2812": "å½ç±»ä¸º",
    "2813": "å­£",
    "2814": "å¯¹æ¯",
    "2815": "çæ¨",
    "2816": "ew",
    "2817": "çå¥½å¤",
    "2818": "çæ¨¡",
    "2819": "è·ç¦»",
    "2820": "90",
    "2821": " ç",
    "2822": "ä½æ¯",
    "2823": "ä¸è½",
    "2824": "æ å¿",
    "2825": "ä¸æ¡",
    "2826": "ä¸åª",
    "2827": "ç°æ",
    "2828": "é¶",
    "2829": "åè®¾",
    "2830": "ææ¡£",
    "2831": "30",
    "2832": "ç»å®ä¸ä¸ª",
    "2833": "æ",
    "2834": "é£è°±",
    "2835": "å·å¤",
    "2836": "åæ¢",
    "2837": "åè°",
    "2838": "åè°",
    "2839": "ast",
    "2840": "æ",
    "2841": "ç§",
    "2842": "æ´",
    "2843": " E",
    "2844": "åº¦å",
    "2845": "ç£",
    "2846": "é¶",
    "2847": "è±è¯­",
    "2848": "rint",
    "2849": "å±",
    "2850": "æ",
    "2851": "éå¯¹",
    "2852": "å¤",
    "2853": "çç",
    "2854": "lic",
    "2855": "ç»æé¨å",
    "2856": "å¬",
    "2857": "å´å¥",
    "2858": "å³å¿",
    "2859": "æè§",
    "2860": "eb",
    "2861": "ä¼¯",
    "2862": "è",
    "2863": "æè¿°ä¸ä¸ª",
    "2864": "å¤ç§",
    "2865": "ç§æ",
    "2866": "æ¿é´",
    "2867": "é¼ ",
    "2868": "è·³",
    "2869": "ord",
    "2870": "æå·§",
    "2871": "å°¼äº",
    "2872": "æ",
    "2873": "æ",
    "2874": "è±å½",
    "2875": "ææ¸¸",
    "2876": "æ³¡",
    "2877": "æ»",
    "2878": "ç»´æ¤",
    "2879": "è¿é",
    "2880": "____",
    "2881": "ä¸ç»",
    "2882": "éª",
    "2883": "ç¾",
    "2884": "é¢å",
    "2885": "è¿ª",
    "2886": "ç´ é£",
    "2887": "ä»ä¹æ¯",
    "2888": "è",
    "2889": "John",
    "2890": "å£®",
    "2891": "ity",
    "2892": "è¥",
    "2893": "äºæ°§å",
    "2894": "åç³",
    "2895": "è¯",
    "2896": "éè",
    "2897": "len",
    "2898": "è¿",
    "2899": "æ©å­",
    "2900": "æ§",
    "2901": "æé¿",
    "2902": "é",
    "2903": "æ©",
    "2904": "æ©æ¦",
    "2905": "æ©æ¦",
    "2906": "è¸",
    "2907": "St",
    "2908": "æéè¦ç",
    "2909": "ç¯",
    "2910": "ind",
    "2911": "art",
    "2912": "çµè¯",
    "2913": "æ¨",
    "2914": " if",
    "2915": "ç»ª",
    "2916": "è³å³éè¦",
    "2917": "ç¼",
    "2918": "ä¸çä¸æ",
    "2919": "âã",
    "2920": "æ",
    "2921": "å",
    "2922": "è¯",
    "2923": "ç´æ¥",
    "2924": "ç©ä½",
    "2925": "ç½ª",
    "2926": "å¹",
    "2927": "ect",
    "2928": "é£ç¨",
    "2929": "é¿æ",
    "2930": "ate",
    "2931": "ow",
    "2932": "å²çª",
    "2933": "é©å½",
    "2934": "\",",
    "2935": "é©±",
    "2936": "çæ é¢",
    "2937": "NL",
    "2938": "è¯¦ç»",
    "2939": "æ¿å±",
    "2940": "è«",
    "2941": "ææ",
    "2942": "ç©ºé´",
    "2943": "ä¸ªæ§å",
    "2944": "ç¬è®°æ¬",
    "2945": "çæåµä¸",
    "2946": "ä¸",
    "2947": "ææ£",
    "2948": "è",
    "2949": "ä»¥æ¥",
    "2950": "çå°æ¹",
    "2951": "æ»©",
    "2952": "æ°é»",
    "2953": "æå¼",
    "2954": "13",
    "2955": "å¼ºç",
    "2956": " al",
    "2957": " e",
    "2958": "å¥",
    "2959": "éç¢",
    "2960": "é½æ",
    "2961": "å",
    "2962": "è",
    "2963": "ç»è®¡",
    "2964": "è¯´åº",
    "2965": "ï¼",
    "2966": "æ¥æ¬",
    "2967": "æç§",
    "2968": "å¿è¦ç",
    "2969": "çæ´»",
    "2970": "é»",
    "2971": "è®¾å®",
    "2972": "æ¿",
    "2973": "æ¿ç­",
    "2974": "æ¯",
    "2975": "é²æ­¢",
    "2976": "é æ",
    "2977": "åä½",
    "2978": "å¹´é¾",
    "2979": "25",
    "2980": "å",
    "2981": "å«",
    "2982": "è±é",
    "2983": "æ¾å¨",
    "2984": "çææ",
    "2985": "å¥å±",
    "2986": "å¨äº",
    "2987": "TM",
    "2988": "å¼ºè°",
    "2989": "äººå·¥æºè½ç",
    "2990": "æ¹åäº",
    "2991": "ç§å¯",
    "2992": "åå¾",
    "2993": "é»",
    "2994": "her",
    "2995": "æäº",
    "2996": "NLP",
    "2997": "end",
    "2998": "æé´",
    "2999": "æ¦",
    "3000": "è®¤è¯",
    "3001": "æä»ä¹",
    "3002": "ç»åºä¸ä¸ª",
    "3003": "çç£",
    "3004": "èªå¨é©¾é©¶",
    "3005": "å°ä»¥ä¸å¥å­",
    "3006": "yth",
    "3007": "age",
    "3008": "çç",
    "3009": "è¿é",
    "3010": "çæ°",
    "3011": "å³ä½¿",
    "3012": "å±",
    "3013": "æ¯ç±",
    "3014": "ªè",
    "3015": "é¦è",
    "3016": "é¦è",
    "3017": " 7",
    "3018": "ain",
    "3019": "\n    ",
    "3020": "ä»æª",
    "3021": "ç¹",
    "3022": "æ¬ä¹¦",
    "3023": "èè¯",
    "3024": "è¡",
    "3025": "å¿«ä¹",
    "3026": "å¹",
    "3027": "ä»å¨",
    "3028": "éå»",
    "3029": "åé",
    "3030": "æ¨å¨",
    "3031": "åé",
    "3032": "80",
    "3033": "ä¸å¼ ",
    "3034": "å°¾",
    "3035": "çç­",
    "3036": "å¾éè¦",
    "3037": "æ¯å¨",
    "3038": "åä½",
    "3039": "ååº",
    "3040": "å­¦æ ¡",
    "3041": "æ¥",
    "3042": "è¢",
    "3043": "è§å¯",
    "3044": "å¯ç ",
    "3045": "hone",
    "3046": "å¤§å°",
    "3047": "åå­",
    "3048": "åº",
    "3049": "åºä¹³",
    "3050": "åºä¹³å¨ç©",
    "3051": "å®",
    "3052": "èç³",
    "3053": " pro",
    "3054": "åº",
    "3055": "è¢",
    "3056": "ä¼ è¾¾",
    "3057": "å¦æ­¤",
    "3058": "éå¤§",
    "3059": "å®ç¾",
    "3060": " ex",
    "3061": "å¯",
    "3062": "è¾",
    "3063": "è·¯çº¿",
    "3064": "ç¯å¢ä¸­",
    "3065": "å",
    "3066": "å¥è",
    "3067": "å¼å¸",
    "3068": "å·¥ç¨å¸",
    "3069": "æ¹",
    "3070": "ç¤¾åº",
    "3071": "å½»",
    "3072": "äºæ°§åç¢³",
    "3073": " int",
    "3074": "æ¦æ¬",
    "3075": "åé ä¸ä¸ª",
    "3076": "çä¸ç",
    "3077": "æä¾ç",
    "3078": "çç¤¾",
    "3079": "æ´è±",
    "3080": "å¤§è",
    "3081": "æ¦è¿°",
    "3082": "16",
    "3083": "é£æ ¼",
    "3084": "low",
    "3085": "æ¯å¦",
    "3086": "æ³åº",
    "3087": "äº¤äº",
    "3088": "ä¼ é",
    "3089": "are",
    "3090": "é»ç¼",
    "3091": "ä¼å",
    "3092": "æ¾æ¾",
    "3093": "ç§å­¦å®¶",
    "3094": "±ä¹",
    "3095": "ç",
    "3096": "æ»ç»",
    "3097": "çæ³",
    "3098": "ark",
    "3099": "é»",
    "3100": "å¤§æ°",
    "3101": "ä½è",
    "3102": "æ£",
    "3103": "ä¸°å¯",
    "3104": "for",
    "3105": "è¿æ­¥",
    "3106": "ç¤¼",
    "3107": "åè®®",
    "3108": "ä¸",
    "3109": "å",
    "3110": "ææ¯ç",
    "3111": "ook",
    "3112": "ç²",
    "3113": "¶æ¯",
    "3114": "å¼äººå¥è",
    "3115": "çæ",
    "3116": "åä¸",
    "3117": "è¿ä¸æ­¥",
    "3118": "èä¸",
    "3119": "ython",
    "3120": "åºäº",
    "3121": "ç¾",
    "3122": "ç",
    "3123": "åä¼",
    "3124": "è±",
    "3125": "åæ¬¢è¿",
    "3126": "æç",
    "3127": "å¹",
    "3128": "up",
    "3129": "è¶³å¤",
    "3130": "æ¡ä»¶",
    "3131": "æ¶è´¹è",
    "3132": "åå­¦",
    "3133": "æ¥",
    "3134": "å¯",
    "3135": "å¯ä¸",
    "3136": "ç¦»å¼",
    "3137": "ç±ç",
    "3138": "æå»ºä¸ä¸ª",
    "3139": "å¹¶ä¸º",
    "3140": "çæ´»å¨",
    "3141": "ç¤ºä¾",
    "3142": "ä¸ªåè¯",
    "3143": "å°",
    "3144": "ç§",
    "3145": "ç¦",
    "3146": "æ¯æ",
    "3147": "çç¥",
    "3148": "ç¬¬ä¸",
    "3149": "å°ç",
    "3150": "èµé",
    "3151": "ç¨³å®",
    "3152": "è",
    "3153": "çç",
    "3154": "å ",
    "3155": "æ·±å¥",
    "3156": "æ ",
    "3157": "ååº",
    "3158": "é",
    "3159": "å¿ç«¥",
    "3160": "ç®æ´",
    "3161": "å¤§æµè¡",
    "3162": "=\"",
    "3163": "åé",
    "3164": "æ³å¾",
    "3165": "ple",
    "3166": "é¡µé¢",
    "3167": "ear",
    "3168": "å²",
    "3169": "æ",
    "3170": "ææ",
    "3171": "é¢å¤",
    "3172": "æ·±åº¦",
    "3173": "pt",
    "3174": "å¥¶éª",
    "3175": "é¢è¯",
    "3176": "Apple",
    "3177": "æ¼ ",
    "3178": "çæ´»ä¸­",
    "3179": "è¯»è",
    "3180": "ä¸éè¦",
    "3181": "å®ä½",
    "3182": "ç©å®¶",
    "3183": "æ¥å",
    "3184": " pl",
    "3185": "å¯¿",
    "3186": "é",
    "3187": "æ®",
    "3188": "æç",
    "3189": "å½å°",
    "3190": "å¹³æ¹",
    "3191": "ange",
    "3192": "åä¸ä¸ª",
    "3193": "196",
    "3194": " N",
    "3195": "He",
    "3196": "çæ³",
    "3197": "çåè¡¨",
    "3198": "åå",
    "3199": "ä¾µ",
    "3200": "all",
    "3201": "ç¼",
    "3202": "ä½",
    "3203": "ust",
    "3204": "ç»è®º",
    "3205": "éªè¯",
    "3206": "200",
    "3207": "ç²",
    "3208": "å®³æ",
    "3209": "å®é",
    "3210": "å³°",
    "3211": "äº§åç",
    "3212": "è½®",
    "3213": "å¬å¸ç",
    "3214": "å«ä¹",
    "3215": "çæè½",
    "3216": "å¹³è¡¡",
    "3217": "å¡«",
    "3218": "ï¼ã",
    "3219": "ç»",
    "3220": "çå¨ç©",
    "3221": "å¼å¾",
    "3222": " ç©",
    "3223": "ps",
    "3224": "è¿å¥",
    "3225": "ä¾§",
    "3226": "èè²",
    "3227": "é",
    "3228": "æ¬",
    "3229": "åæ",
    "3230": "ææä¹",
    "3231": "é¢å¯¹",
    "3232": "çµæ´»",
    "3233": "è®ºæ",
    "3234": "å",
    "3235": "è³å°",
    "3236": "æ¸",
    "3237": "æ°åº¦",
    "3238": "æ±",
    "3239": "ææ",
    "3240": "ç",
    "3241": "çæ¯",
    "3242": "æå",
    "3243": "å¬å°",
    "3244": "éä¸¾",
    "3245": "å¥åº·ç",
    "3246": "æ²",
    "3247": "æ´",
    "3248": "ç»ä»¶",
    "3249": "ä¾èµ",
    "3250": "å",
    "3251": "å¹",
    "3252": "è¯æ­",
    "3253": "äº¤æ",
    "3254": "è¿æ¯ä¸ä¸ª",
    "3255": "å¶",
    "3256": "SE",
    "3257": "ç¹æ®",
    "3258": "è¯´æ",
    "3259": "ç»",
    "3260": " éè¿",
    "3261": "çé¿",
    "3262": "æ¸©æ",
    "3263": "å½é",
    "3264": "ä¸¥é",
    "3265": " ch",
    "3266": "è¯­",
    "3267": "ä¸æ¥",
    "3268": "å¢",
    "3269": "è®°å¿",
    "3270": "æ¬£",
    "3271": "é»",
    "3272": "é»è¾",
    "3273": "æé",
    "3274": "æ è®°",
    "3275": "æ°æ®ä¸­",
    "3276": " $",
    "3277": "åä¸è",
    "3278": "è¿å°",
    "3279": "é¿åº¦",
    "3280": "è¿«",
    "3281": "40",
    "3282": "ä¹å¤",
    "3283": "é¥°",
    "3284": "å·®å¼",
    "3285": "æç¥¨",
    "3286": "VI",
    "3287": "æ¨å¨",
    "3288": "è¿ç¨",
    "3289": "ä¹",
    "3290": "åè®¸ç¨æ·",
    "3291": "çåå®¹",
    "3292": "ç¤ç®±",
    "3293": "é¢ç²",
    "3294": "çæ­£",
    "3295": "çµå¨",
    "3296": "½å",
    "3297": "çå",
    "3298": "ä¸å¡",
    "3299": "è¿ä¸",
    "3300": "çæ",
    "3301": "çææ¯",
    "3302": "è§",
    "3303": "è§£éä¸ºä»ä¹",
    "3304": "æ±ä¸½",
    "3305": "æ±ä¸½å¶",
    "3306": "å",
    "3307": "å",
    "3308": "æ",
    "3309": "ang",
    "3310": "ç¨æ·çé¢",
    "3311": "45",
    "3312": "é",
    "3313": "è½¦è¾",
    "3314": "å®è£",
    "3315": "å ä¹",
    "3316": "èç¹",
    "3317": "ç¸ä¼¼",
    "3318": "é",
    "3319": "éå¸¸æ¯",
    "3320": "æ±",
    "3321": "çé¢è²",
    "3322": "æ± ",
    "3323": "è",
    "3324": "ç¾å³",
    "3325": "è¿½æ±",
    "3326": "æ­",
    "3327": "è´«",
    "3328": "å°±ä¸",
    "3329": "ä¸ç´å¨",
    "3330": "å",
    "3331": " v",
    "3332": ");",
    "3333": "æå¨",
    "3334": "æ±",
    "3335": "ob",
    "3336": "åæ´",
    "3337": "ç¹",
    "3338": " that",
    "3339": "è´£ä»»",
    "3340": "æè½",
    "3341": "èµ",
    "3342": "æç",
    "3343": "çæ¶",
    "3344": "çéæ±",
    "3345": "åå¶",
    "3346": "éµå¾ª",
    "3347": "è¬",
    "3348": "å´",
    "3349": "åºæ",
    "3350": "ä¼¼ä¹",
    "3351": "è·¯å¾",
    "3352": "çåè¯",
    "3353": "å¹¶å°å¶",
    "3354": "ä¼",
    "3355": "æ",
    "3356": "è¡¥",
    "3357": "æ³è±¡",
    "3358": "è",
    "3359": "å°æ­¤",
    "3360": "åºç¥",
    "3361": "TML",
    "3362": "åç¡®æ§",
    "3363": "æå¾",
    "3364": "é´",
    "3365": "äº",
    "3366": "è®¾æ½",
    "3367": "è±",
    "3368": "ak",
    "3369": "ç»¿è²",
    "3370": "æé«",
    "3371": "èç½",
    "3372": "å¯è§",
    "3373": "å¯è§å",
    "3374": "å¼å¸¸",
    "3375": " dog",
    "3376": "å¥",
    "3377": "çç©",
    "3378": "æ¬§æ´²",
    "3379": "åå",
    "3380": "æ ç­¾",
    "3381": "çæ§",
    "3382": "æ",
    "3383": "çæ§",
    "3384": "çæ£",
    "3385": "è¿¹",
    "3386": "æ°ä½",
    "3387": "åé",
    "3388": "ç§°ä¸º",
    "3389": "çä¸¤ä¸ª",
    "3390": "å¥³å­©",
    "3391": "è²",
    "3392": "çªè",
    "3393": "æ©æ¦æ²¹",
    "3394": "å®",
    "3395": "å»¶",
    "3396": "å¯è½å¯¼è´",
    "3397": "row",
    "3398": "She",
    "3399": " an",
    "3400": "ç©¿è¿",
    "3401": "å®å¨",
    "3402": "æäº®",
    "3403": "åä¸º",
    "3404": "ç®ç­",
    "3405": "åå­",
    "3406": "able",
    "3407": "å¥åº·å",
    "3408": "è¯å¥½",
    "3409": "èä¸æ¯",
    "3410": "å±äº«",
    "3411": "åå®¢æç« ",
    "3412": "è½¬å",
    "3413": "é¡¶",
    "3414": "åæ¥",
    "3415": "æ³æ³",
    "3416": "åç°",
    "3417": "å¦ä¸æ¹é¢",
    "3418": "è",
    "3419": "æ±",
    "3420": "ç¬ç¹ç",
    "3421": "å·¨å¤§",
    "3422": "è",
    "3423": "äº«ç¨",
    "3424": "çæ·",
    "3425": "åå¬",
    "3426": "çå­",
    "3427": "ound",
    "3428": "éµ",
    "3429": "ãâ",
    "3430": "çåé",
    "3431": "å¨è",
    "3432": "å¨è",
    "3433": "pe",
    "3434": "é",
    "3435": "åæå¡",
    "3436": "æ",
    "3437": "èµ¢",
    "3438": "å®ª",
    "3439": "æå°",
    "3440": "è",
    "3441": "æä»¥",
    "3442": "æ¨åº",
    "3443": "ary",
    "3444": "å¹»",
    "3445": "çç©º",
    "3446": "aS",
    "3447": "å¾·å½",
    "3448": "è¿é¦",
    "3449": "æ¥è§¦",
    "3450": "ive",
    "3451": "ä»äºº",
    "3452": "åæ",
    "3453": "75",
    "3454": "é£æ",
    "3455": "æ²æ¼ ",
    "3456": "                   ",
    "3457": "æ·",
    "3458": "å¤æç",
    "3459": "æ å",
    "3460": "å¬å±äº¤é",
    "3461": "çç ",
    "3462": "è§å",
    "3463": "æºå¨å­¦ä¹ ç®æ³",
    "3464": "çå³ç­",
    "3465": "é¶è¡",
    "3466": "ç¿»è¯æ",
    "3467": " 9",
    "3468": "æ",
    "3469": "è¿ç¨ä¸­",
    "3470": "åº",
    "3471": "é",
    "3472": "éè¯·",
    "3473": "è°",
    "3474": "ç¹",
    "3475": "è´¡",
    "3476": "è´¡ç®",
    "3477": "è´«å°",
    "3478": "åæ¥",
    "3479": "å¸¸è§ç",
    "3480": "ä¹å¯ä»¥",
    "3481": "ç¬¦å·",
    "3482": "è²å½©",
    "3483": "å´",
    "3484": " St",
    "3485": "è°è¯­",
    "3486": "æ¤",
    "3487": "åä¹è¯",
    "3488": "æ¹æ³æ¯",
    "3489": "è¯å«å",
    "3490": "è¾¾å°",
    "3491": "çæ¨¡å¼",
    "3492": "åºåæ¬",
    "3493": "å¹´ç",
    "3494": "ç¶æ",
    "3495": "ç»å",
    "3496": "å»ç",
    "3497": "æç¨",
    "3498": "æ¢",
    "3499": "å¨±ä¹",
    "3500": "éè",
    "3501": "æµªè´¹",
    "3502": "OVI",
    "3503": "OVID",
    "3504": "æ¯ä»",
    "3505": "ç­äº",
    "3506": "éæ´²",
    "3507": "é³",
    "3508": "é¹°",
    "3509": "ww",
    "3510": "è¿å¥è¯",
    "3511": "å¤ªç©º",
    "3512": " with",
    "3513": "å",
    "3514": "ç»è",
    "3515": "ç§¯æç",
    "3516": "å£¤",
    "3517": "å°±æ¯",
    "3518": "æå",
    "3519": "åå¤",
    "3520": "å¤æ",
    "3521": "é­æ³",
    "3522": "çç¬¬",
    "3523": "è¡ç¥¨",
    "3524": "éç§",
    "3525": "ick",
    "3526": "æ§",
    "3527": "é¨çµå½±",
    "3528": "çªç¶",
    "3529": "åªæ",
    "3530": "è",
    "3531": "ç¼ç ",
    "3532": "èå¤©",
    "3533": "é",
    "3534": "ine",
    "3535": "ess",
    "3536": " can",
    "3537": "æ½è±¡",
    "3538": "ç¨åº¦",
    "3539": "çç´ ",
    "3540": "éä¿¡",
    "3541": "èçº¦",
    "3542": "æå¶ä»",
    "3543": "å½»åº",
    "3544": "ç©ºæ°æ±¡æ",
    "3545": "åå°",
    "3546": "å·¥ä½ç",
    "3547": "è¦",
    "3548": "å¾®ç¬",
    "3549": "LE",
    "3550": "æè",
    "3551": "çæµ·",
    "3552": "é¥ª",
    "3553": "å",
    "3554": "åå",
    "3555": "åå¾",
    "3556": "å¼±",
    "3557": "çç¤º",
    "3558": "çç­ç¥",
    "3559": "ello",
    "3560": "orld",
    "3561": " }",
    "3562": "æ",
    "3563": "æ®é",
    "3564": " sh",
    "3565": "æ¶é´å",
    "3566": "é",
    "3567": "éç",
    "3568": "å",
    "3569": "å¦",
    "3570": "æå¹",
    "3571": "å½å",
    "3572": "å å¯",
    "3573": "ç¥å¥",
    "3574": "'s",
    "3575": "ç²¾ç¥",
    "3576": "æ¯",
    "3577": "éå¸¸éè¦",
    "3578": "æç¤º",
    "3579": "noinput",
    "3580": "ä¸è§å½¢ç",
    "3581": "åæ",
    "3582": "åè§£",
    "3583": "æ¯ç",
    "3584": "çæ¢",
    "3585": "åç©",
    "3586": "ä¸å¶ä»",
    "3587": "ç¸æ¯",
    "3588": "çç",
    "3589": "ous",
    "3590": "æ½å¨ç",
    "3591": "log",
    "3592": "çæ½å¨",
    "3593": "å°¼äºå·",
    "3594": "è´¦æ·",
    "3595": "NA",
    "3596": "åç©",
    "3597": "åç©é¦",
    "3598": "å",
    "3599": "ç",
    "3600": "æä¼",
    "3601": "å±å",
    "3602": "æç¤º",
    "3603": "å§",
    "3604": "éæ¾",
    "3605": "ç¡ç ",
    "3606": "æ¯æ",
    "3607": "æ¼",
    "3608": "æ è¾å¥",
    "3609": "æ´å·",
    "3610": "çåè½",
    "3611": "ram",
    "3612": "Phone",
    "3613": "å¯¼èª",
    "3614": "å¨å®¶",
    "3615": "ç½å¯",
    "3616": "ç½å¯æ¬§",
    "3617": "å­",
    "3618": "å¼å¤´",
    "3619": "å¥",
    "3620": "å®ªæ³",
    "3621": "åºå",
    "3622": "åºåé¾",
    "3623": "æ¯ç¹",
    "3624": "ç»è¿",
    "3625": "å¯»æ±",
    "3626": "æäº",
    "3627": "å¥å­ä¸­",
    "3628": " \n       ",
    "3629": "è¡",
    "3630": "çæ¯",
    "3631": "æ",
    "3632": "åå½¢",
    "3633": "æ°åä¸ç¯",
    "3634": "çæ¸",
    "3635": "ç¥ç§ç",
    "3636": "æª",
    "3637": "çä¸»é¢",
    "3638": "è¨",
    "3639": "å©",
    "3640": "å¼æ",
    "3641": "å¼æ",
    "3642": "æ",
    "3643": "æºæ",
    "3644": "çç¤ºä¾",
    "3645": "è¯¸",
    "3646": "åå¥½",
    "3647": "æ ¼å¼",
    "3648": "ªæ°´",
    "3649": "é£æ´",
    "3650": "app",
    "3651": "ome",
    "3652": "ç",
    "3653": "ç­",
    "3654": "æè¯å°",
    "3655": "ä½ä»",
    "3656": "å¤§å",
    "3657": "åä½",
    "3658": "åè¡¨ä¸­",
    "3659": "22",
    "3660": "oc",
    "3661": "ä¹ æ¯",
    "3662": "çäºæ",
    "3663": "å¯æ",
    "3664": "äºè®¸å¤",
    "3665": "è®©æä»¬",
    "3666": "è±å­",
    "3667": "æ±",
    "3668": "æä¸",
    "3669": "æ´æ",
    "3670": "å­å",
    "3671": "å®å¯ä»¥",
    "3672": "äºç©",
    "3673": "ææ",
    "3674": "æè´§",
    "3675": "COVID",
    "3676": "NN",
    "3677": "æ³è¦",
    "3678": "å¸¦æ",
    "3679": "å¤æ",
    "3680": "ä¼",
    "3681": "èå",
    "3682": "éæ",
    "3683": "æ°åä¸",
    "3684": ".\"",
    "3685": "è°",
    "3686": "çæ¯",
    "3687": "ä¸å°",
    "3688": "ä½¿ç¨äººå·¥æºè½",
    "3689": "ç¼ºç¹",
    "3690": "HTML",
    "3691": "åå£¤",
    "3692": "æ·å¤",
    "3693": "è¢«ç¨äº",
    "3694": "ç»å",
    "3695": "é©±å¨",
    "3696": "ä¸§",
    "3697": "ç§ç",
    "3698": "æ¯å¤å°",
    "3699": "è°",
    "3700": "ç½©",
    "3701": "ä½¿äººä»¬",
    "3702": "ç¬",
    "3703": "è´¥",
    "3704": "çº¿æ§",
    "3705": "è",
    "3706": "æ",
    "3707": "å²",
    "3708": "æ©é¤",
    "3709": "çè®º",
    "3710": "æ­æ²",
    "3711": "å",
    "3712": "æå¸",
    "3713": "å",
    "3714": "2020",
    "3715": "ç",
    "3716": "ä½ ä»¬",
    "3717": "çå®å¨",
    "3718": "å¬ä¼",
    "3719": "å¯¹ç¯å¢",
    "3720": "åç³çæ",
    "3721": "å¹é",
    "3722": "æ¤ç",
    "3723": "èªå¨é©¾é©¶æ±½è½¦",
    "3724": " /",
    "3725": "ç¬¬ä¸",
    "3726": "ä¸å¥è¯",
    "3727": "æ´é«",
    "3728": "ç¬è®°æ¬çµè",
    "3729": "è¡",
    "3730": "è¡è",
    "3731": "è¡è",
    "3732": "æ©å±",
    "3733": "å·§å",
    "3734": "ä¿¡ä»»",
    "3735": "çäººä»¬",
    "3736": "ä¸çå",
    "3737": "éç",
    "3738": "ç­æ",
    "3739": "é­",
    "3740": "Hello",
    "3741": "æ¿æ¢",
    "3742": "å¤±ä¸",
    "3743": "å¸",
    "3744": " are",
    "3745": "åå¿",
    "3746": "å»ºç­",
    "3747": "çæ­£",
    "3748": "å®æ",
    "3749": "GP",
    "3750": "å®¡",
    "3751": "å·ä½",
    "3752": "çç®æ³",
    "3753": "çå³é®",
    "3754": "é£ä¸ª",
    "3755": "æ¯èµ",
    "3756": "å§ç»",
    "3757": "æ¶å°",
    "3758": "åå³",
    "3759": "åå³äº",
    "3760": "ç»ä¹ ",
    "3761": "å°å¹´",
    "3762": "å­¤",
    "3763": "ç¯ç½ª",
    "3764": "oun",
    "3765": "çæ²é",
    "3766": "çº¢è²",
    "3767": "å å©",
    "3768": "å å©ç¦",
    "3769": "ä¿",
    "3770": "åç¡®å°",
    "3771": "è¡èå",
    "3772": "è¿æ¬¾",
    "3773": "æ¦",
    "3774": "é¢å¯¼",
    "3775": "å¤§çº¦",
    "3776": "é¢è¢",
    "3777": "è¸",
    "3778": "è¾¨",
    "3779": "ç",
    "3780": "æç¡®",
    "3781": "ç",
    "3782": "çæ",
    "3783": " se",
    "3784": "æå°±",
    "3785": "æåæ¬¢",
    "3786": "è¿æ",
    "3787": "åº¦è¿",
    "3788": " wh",
    "3789": "æ°å",
    "3790": "å·«",
    "3791": "é",
    "3792": "å ",
    "3793": "å é¤",
    "3794": "è¿è¡",
    "3795": "çç",
    "3796": "èµ",
    "3797": "çæ­",
    "3798": "çç",
    "3799": "é·",
    "3800": "PI",
    "3801": "æ¯",
    "3802": "èµ¢å¾",
    "3803": "Python",
    "3804": "åå¹´",
    "3805": "æç",
    "3806": "å¹³ç­",
    "3807": "åºç¡è®¾æ½",
    "3808": "éªå£«",
    "3809": "æ··åç©",
    "3810": "å°å",
    "3811": "è§£å³é®é¢",
    "3812": "å® ç©",
    "3813": " \",",
    "3814": "åæ°´",
    "3815": "å¤æ ·æ§",
    "3816": "çè®¡å",
    "3817": "æ",
    "3818": "å®¤æ°ä½",
    "3819": "å¹¶è§£é",
    "3820": "æ°æ®ç¹",
    "3821": "ä¿®æ¹",
    "3822": "print",
    "3823": "çæ¸©",
    "3824": "æä¸å¤©",
    "3825": "å·§åå",
    "3826": "å",
    "3827": "æµ·å¹³é¢",
    "3828": "çªåº",
    "3829": "å®é",
    "3830": "ç¥",
    "3831": "ç½²",
    "3832": "é«å´",
    "3833": "ç»å",
    "3834": "of",
    "3835": "ER",
    "3836": "ning",
    "3837": "è¾©",
    "3838": "æ£æ­¥",
    "3839": "å ",
    "3840": "å ",
    "3841": "çæ¢¦",
    "3842": " over",
    "3843": "æè¶£ç",
    "3844": "ç®å",
    "3845": "ã[",
    "3846": "æ´å¤§ç",
    "3847": "æ°ä¸»",
    "3848": "ç½é¡µ",
    "3849": "å¾å¾",
    "3850": "å½¼",
    "3851": "è½½",
    "3852": "çè§£å³æ¹æ¡",
    "3853": "çé£ç©",
    "3854": "å¡",
    "3855": "DNA",
    "3856": "æ¿",
    "3857": "é¿ç",
    "3858": "æ¦",
    "3859": "ç»´æ",
    "3860": "çæ´»æ¹å¼",
    "3861": "å¤è",
    "3862": "åä½ä¸é¦",
    "3863": "é£è¡",
    "3864": "é¢æ",
    "3865": "å¹",
    "3866": "ä»°",
    "3867": "å¯¹æ",
    "3868": "ä¼´",
    "3869": "åä¸ä¸ªå³äº",
    "3870": "çå¥½",
    "3871": "ä»",
    "3872": "ç®çå°",
    "3873": "ä¹±",
    "3874": "ææ",
    "3875": "ä¼ è¾",
    "3876": " le",
    "3877": "æ¥",
    "3878": "æ¾è",
    "3879": "åæ¶",
    "3880": "ample",
    "3881": "å®¢æ·æä¾",
    "3882": "éè¿",
    "3883": "åä¸é¦",
    "3884": "99",
    "3885": "èç½è´¨",
    "3886": "å¿ è¯åº¦",
    "3887": "æ¥å­",
    "3888": "æé ",
    "3889": "è¡æ",
    "3890": "å¤ç©º",
    "3891": "å¹¶ç¡®ä¿",
    "3892": "åè§",
    "3893": "ç¶",
    "3894": "åè",
    "3895": "ç",
    "3896": "æ·±åº¦å­¦ä¹ ",
    "3897": "å©ç",
    "3898": "å°",
    "3899": "çæ¿",
    "3900": "éº¦",
    "3901": "ç",
    "3902": "æ´æ",
    "3903": "æ´æ",
    "3904": "æ´æç",
    "3905": "æ´æç¶",
    "3906": "æ æ¨",
    "3907": "ææºé£å",
    "3908": "åä¸ª",
    "3909": "çä½¿ç¨",
    "3910": "çæ ",
    "3911": "å ä¸ºå®ä»¬",
    "3912": "çç£å­¦ä¹ ",
    "3913": " ==",
    "3914": "èµ°è¿",
    "3915": "å³é",
    "3916": "og",
    "3917": "çµæ± ",
    "3918": "å¤§èªç¶",
    "3919": "çç¾ä¸½",
    "3920": "èäºº",
    "3921": "å£å·",
    "3922": "è¯å¥½ç",
    "3923": "ç³",
    "3924": "åäº",
    "3925": "åè¯",
    "3926": "60",
    "3927": "è¯é¢",
    "3928": "æº",
    "3929": "çä¸å",
    "3930": " it",
    "3931": "ä¹¡",
    "3932": " as",
    "3933": "II",
    "3934": "ç»äº",
    "3935": "erson",
    "3936": "çç±",
    "3937": "åå¿",
    "3938": "ä¹é´çå³ç³»",
    "3939": "è©",
    "3940": "çæµ",
    "3941": "æ«",
    "3942": "ake",
    "3943": "å®",
    "3944": "ä¸å",
    "3945": "å±ç°",
    "3946": "os",
    "3947": "é",
    "3948": "é¶æ®µ",
    "3949": "æ¥å¸®å©",
    "3950": "å½¼æ­¤",
    "3951": "ç¬¦å",
    "3952": "é",
    "3953": "ä¸é",
    "3954": "è´¸",
    "3955": "çæ´»å¨",
    "3956": "æµ·æ»©",
    "3957": "é",
    "3958": "é¢ç­",
    "3959": "ç¢ä¸­",
    "3960": "ä¸æ¦",
    "3961": "æå¿«",
    "3962": "å¦æä½ ",
    "3963": "ä¸å",
    "3964": "è§ç",
    "3965": "ä½è²",
    "3966": "æ¯éè¿",
    "3967": "æ¯ä¸ªäººé½",
    "3968": "æ¶¦",
    "3969": "æ´æ°",
    "3970": "è¯­æ°",
    "3971": "è ",
    "3972": "æåºä¸ä¸ª",
    "3973": "çæ­¥",
    "3974": "æ°",
    "3975": "çæµ",
    "3976": "oy",
    "3977": "ææå¡",
    "3978": "ææå°",
    "3979": "ç¡®è®¤",
    "3980": "æ¨å¯ä»¥",
    "3981": "æä¹",
    "3982": "æ",
    "3983": "ãã",
    "3984": "ç´«",
    "3985": " Pro",
    "3986": "åç¢",
    "3987": "è¡æ¤",
    "3988": "å¯",
    "3989": " this",
    "3990": "éæº",
    "3991": "()",
    "3992": "çæä½³",
    "3993": "é¸¡è",
    "3994": "çå½",
    "3995": "è¯æ",
    "3996": "]ï¼",
    "3997": "ç»´çç´ ",
    "3998": "äº¡",
    "3999": "æ³¥",
    "4000": "çè¦",
    "4001": "ç",
    "4002": "ud",
    "4003": "è©",
    "4004": " \",\"",
    "4005": "ç²¾ç¡®",
    "4006": "æèµäº",
    "4007": "æ ",
    "4008": "æ¬º",
    "4009": "è¥¿ç­",
    "4010": "è¥¿ç­ç",
    "4011": "å°ç¹",
    "4012": "çæ®",
    "4013": "å¯¿å½",
    "4014": "ç¼",
    "4015": "é£é",
    "4016": "åæ",
    "4017": "è¥éç­ç¥",
    "4018": "ç¹é¥ª",
    "4019": "è´åäº",
    "4020": "ä¸çåå°",
    "4021": "ç¹",
    "4022": "è¸è¯å«",
    "4023": " World",
    "4024": " been",
    "4025": "du",
    "4026": "ä»¥å",
    "4027": "å¹¶å°",
    "4028": "å¯ä»¥æä¾",
    "4029": "å ç­",
    "4030": "è«",
    "4031": "ä¸å",
    "4032": "è´¨æ°",
    "4033": "iz",
    "4034": "çè¯­è¨",
    "4035": "å¥½å¥",
    "4036": "éè·¯",
    "4037": "æ¬£èµ",
    "4038": "å¤äº",
    "4039": "æ°¸è¿ä¸ä¼",
    "4040": "å¿è®°",
    "4041": " com",
    "4042": "ä¸å®",
    "4043": "æ¶æ",
    "4044": "æ¶æ¯",
    "4045": "è¿è¡æ¯è¾",
    "4046": "é¿æ",
    "4047": "è±ª",
    "4048": "äººç",
    "4049": "æ©ä¸",
    "4050": "å¼æ¾",
    "4051": "æ°æ®ç",
    "4052": "è¿ç¯",
    "4053": "è¯æ±",
    "4054": "å¹¶ä¸",
    "4055": "åè¯æ",
    "4056": "æ¢¦æ³",
    "4057": "è½¬åä¸º",
    "4058": "å²©",
    "4059": "å®",
    "4060": "ç­å¾",
    "4061": "ies",
    "4062": "åºå ",
    "4063": "ç",
    "4064": "æ¿å±",
    "4065": "çç¼",
    "4066": "ç",
    "4067": "å ä¸",
    "4068": "ov",
    "4069": "ä»¥ä¸åè¯",
    "4070": "ã<",
    "4071": "çä¸",
    "4072": "çµè§",
    "4073": "çæ",
    "4074": "è°å³",
    "4075": "æ¿æ",
    "4076": "çæºä¼",
    "4077": "ä¸»è§",
    "4078": "é§",
    "4079": "ee",
    "4080": "æ ",
    "4081": "ä¿é",
    "4082": "çæ",
    "4083": "ç¹æ¯",
    "4084": "éæ¸",
    "4085": "å¨",
    "4086": " V",
    "4087": "èç",
    "4088": "å¨é¢",
    "4089": "ä¼æ ",
    "4090": "åæ",
    "4091": "éæ°æå",
    "4092": "å¤©ç",
    "4093": "åºç",
    "4094": "åé æ§",
    "4095": "é¢ä¸",
    "4096": "é¨é¨",
    "4097": "çç¼",
    "4098": "84",
    "4099": "åå¸",
    "4100": "è¿æå³ç",
    "4101": "ææ³",
    "4102": "è®©æ",
    "4103": "äº¿",
    "4104": "æµ",
    "4105": "æµè§",
    "4106": "ç¬¬ä¸ä¸ª",
    "4107": "cri",
    "4108": "ä¸å¾",
    "4109": "ä¹æ",
    "4110": "ç¶åµ",
    "4111": "çéº¦",
    "4112": "è",
    "4113": "èéº¦",
    "4114": "çä¸é¨å",
    "4115": "500",
    "4116": "é»",
    "4117": "ççæ´»æ¹å¼",
    "4118": "å»",
    "4119": "çå½å®¶",
    "4120": "å¼",
    "4121": "åè±",
    "4122": "åæ¶",
    "4123": "é£è½",
    "4124": "æ¸æ´",
    "4125": "ä¸ä»",
    "4126": "åçç",
    "4127": "ç¸åº",
    "4128": "æ»¤",
    "4129": "ç¨æ·ç",
    "4130": "èè¨",
    "4131": "é",
    "4132": "éé¢",
    "4133": "æå",
    "4134": "æ¹",
    "4135": "ä»ä»¬å¨",
    "4136": "çä»·æ ¼",
    "4137": "è¿æ ·ç",
    "4138": "è¶³ç",
    "4139": "å",
    "4140": "å¹¶ä¸",
    "4141": "ass",
    "4142": "å®£å¸",
    "4143": "å³å°",
    "4144": "è",
    "4145": "ç¨æ¶",
    "4146": " not",
    "4147": "çæå·§",
    "4148": "è¡é",
    "4149": "å½ä»",
    "4150": "éçæ¶é´",
    "4151": "ä¸­æ¾å°",
    "4152": "çæ",
    "4153": "çæ",
    "4154": "ry",
    "4155": "é¢é¨",
    "4156": "Max",
    "4157": "++",
    "4158": "æå¥½ç",
    "4159": "ia",
    "4160": "å²ç",
    "4161": "ç»©",
    "4162": "ç²",
    "4163": "å¨çº¿è¯¾ç¨",
    "4164": "ä¸å¹´",
    "4165": "ave",
    "4166": "çæ¢¦æ³",
    "4167": " us",
    "4168": "æ³¢ç¹",
    "4169": "ç«æ",
    "4170": "å å©ç¦å°¼äºå·",
    "4171": "æ²¿",
    "4172": "æ",
    "4173": "è¦",
    "4174": "ç³å¤´",
    "4175": "èè",
    "4176": "èè´",
    "4177": "ç¼è¾ä»¥ä¸å¥å­",
    "4178": "ult",
    "4179": "è¿è¡åç±»",
    "4180": "è¯æ®",
    "4181": "çæç³»ç»",
    "4182": "èªè¡",
    "4183": "åé äº",
    "4184": "å®",
    "4185": "ä¸é¢çå¥å­",
    "4186": "æ«",
    "4187": "æ¶²",
    "4188": "é½å¨",
    "4189": "çæ¶",
    "4190": "å´",
    "4191": "æ´æ°",
    "4192": "ç¹æ¯æ",
    "4193": "çç¥",
    "4194": "çç¥è¯",
    "4195": "åå«",
    "4196": "è",
    "4197": " æ",
    "4198": "æ­£å¼ä¿¡",
    "4199": "è¯å",
    "4200": "é»æ­¢",
    "4201": "è¿å¨å",
    "4202": "æ¯",
    "4203": "æ¯æ",
    "4204": "æç»ª",
    "4205": "23",
    "4206": "é¢",
    "4207": "è¡¨æ ¼",
    "4208": "åå¤å¥½",
    "4209": "ç¯ä¿",
    "4210": "çæ",
    "4211": "èªç­",
    "4212": "ææ²»",
    "4213": " è¶å",
    "4214": "æä»·å¼",
    "4215": "æ´å¤§",
    "4216": "ç",
    "4217": "çç§å¯",
    "4218": "string",
    "4219": "åå®¶",
    "4220": "è½»æ¾å°",
    "4221": "è",
    "4222": "æ°åååå¯¹",
    "4223": "å·´é»",
    "4224": "ååç©",
    "4225": "ight",
    "4226": "ress",
    "4227": "æ¸´",
    "4228": "æ²ä¼¤",
    "4229": " U",
    "4230": "æ¡",
    "4231": "æ¶è",
    "4232": "åè¿",
    "4233": "çæº",
    "4234": "çæ¼",
    "4235": "å·",
    "4236": "æ",
    "4237": " åå°",
    "4238": "èªä¸»",
    "4239": "åå¾æ´å ",
    "4240": "æ¸©å®¤æ°ä½",
    "4241": "åå½",
    "4242": "æè¦",
    "4243": "ææ¬ä¸­",
    "4244": "å¦ä¸",
    "4245": "çæ®µ",
    "4246": "çåæ",
    "4247": "è³",
    "4248": "ä¸äº",
    "4249": "èª",
    "4250": "èªæ",
    "4251": "åç°äº",
    "4252": "ä¸åº",
    "4253": "èè",
    "4254": "æç»",
    "4255": "åå­",
    "4256": "æ­ç¤º",
    "4257": "ç¾¤ä½",
    "4258": " ç¾å½",
    "4259": "æè®¸å¤",
    "4260": "åæ¬¢ç",
    "4261": "å¨ä½",
    "4262": "å¹å»",
    "4263": "æ¹å",
    "4264": "å",
    "4265": "æ¨¡æ",
    "4266": "ublic",
    "4267": "String",
    "4268": "\n     ",
    "4269": " at",
    "4270": "å¨æ",
    "4271": "å°å¥å­",
    "4272": "ç­",
    "4273": "ææ",
    "4274": "aut",
    "4275": "ard",
    "4276": "ie",
    "4277": "any",
    "4278": "ib",
    "4279": "é¥®æ",
    "4280": "ç¾ä¸½ç",
    "4281": "å¹³é",
    "4282": "éªè",
    "4283": " new",
    "4284": "å¾åº",
    "4285": "æ¶é¤",
    "4286": "åè´¹",
    "4287": "åæ",
    "4288": "çç®ç",
    "4289": "åºæ¥",
    "4290": "è½å¤å¨",
    "4291": "å¤§å¤",
    "4292": " max",
    "4293": "çº¦ä¸º",
    "4294": "çä¸é¡¹",
    "4295": "ææ°",
    "4296": "ä¸æå",
    "4297": "è¿åº¦",
    "4298": "åè´¨",
    "4299": "ç¸å¯¹",
    "4300": "åº",
    "4301": "åå¾æ´",
    "4302": "è®©äºº",
    "4303": "çç²",
    "4304": "æ¯è¯­",
    "4305": "éå°å¹´",
    "4306": "æ±",
    "4307": "éº»",
    "4308": "çå®",
    "4309": "çäº§å",
    "4310": "åä¸",
    "4311": "ç¡¬ä»¶",
    "4312": "å·¥ä½åºæ",
    "4313": "çå¤",
    "4314": "åç",
    "4315": "åçé¡¿",
    "4316": "35",
    "4317": "è¡¨è¾¾å¼",
    "4318": "æ­",
    "4319": "ä¼°è®¡",
    "4320": "çµå¨",
    "4321": "ç",
    "4322": "åä½ä¸ä¸ª",
    "4323": "é½ä¼",
    "4324": "æ¶",
    "4325": "ç³",
    "4326": "çäº§å",
    "4327": "ç»å¸",
    "4328": "ç¾å¥½ç",
    "4329": "åæ»¡æ´»",
    "4330": "ase",
    "4331": "ææ",
    "4332": "å®¶æ",
    "4333": "æå",
    "4334": "SS",
    "4335": "ä¸æ¬¾",
    "4336": "ç»ç",
    "4337": "å¤",
    "4338": "ç ´å",
    "4339": "éä¸­",
    "4340": "è§è§£",
    "4341": "å®ä½",
    "4342": "è¿å¯ä»¥ç¨äº",
    "4343": "æ¬å°",
    "4344": "å»äº",
    "4345": " 11",
    "4346": "ç©¿è¶",
    "4347": "å¸",
    "4348": "æ¯å¦ä½",
    "4349": "é«æå°",
    "4350": "å¨æ¿",
    "4351": "é",
    "4352": "alk",
    "4353": "ack",
    "4354": "çææ",
    "4355": "å¢¨",
    "4356": "è¥éæ´»å¨",
    "4357": "ä½¿å½",
    "4358": "ç½",
    "4359": "éå­",
    "4360": "çæå¡",
    "4361": "eac",
    "4362": "èå",
    "4363": "æ",
    "4364": "æ·",
    "4365": "æ¾å¥",
    "4366": "å¿çå¥åº·",
    "4367": "å²",
    "4368": "å­ä½",
    "4369": "az",
    "4370": "ä¸ææ²»",
    "4371": "çå",
    "4372": "çè½é",
    "4373": "å¦",
    "4374": "å°é",
    "4375": "ä¼",
    "4376": "per",
    "4377": "cript",
    "4378": " //",
    "4379": "ä½ éè¦",
    "4380": "è£¹",
    "4381": "ææ§",
    "4382": "ä¸æ®µ",
    "4383": "nst",
    "4384": "è¡¡é",
    "4385": "è¿æ¬ä¹¦",
    "4386": "76",
    "4387": "ä¸çç",
    "4388": "ction",
    "4389": "å«ç",
    "4390": "ght",
    "4391": "pl",
    "4392": "éå±",
    "4393": "å°½å¯è½",
    "4394": "çç ç©¶",
    "4395": "éå",
    "4396": "æµè¡ç",
    "4397": "è¿æ»¤",
    "4398": "è¯¥ç³»ç»",
    "4399": "æ¥ç",
    "4400": " AI",
    "4401": "çæ®µè½",
    "4402": "å¯¼è´äº",
    "4403": "å±æº",
    "4404": "çæ¯",
    "4405": "é²è³",
    "4406": "æé¤",
    "4407": "å±å¼",
    "4408": "äºé©¬",
    "4409": "äºé©¬é",
    "4410": "åç°äºä¸ä¸ª",
    "4411": "æè¯´æ",
    "4412": "è¾",
    "4413": "è±å°º",
    "4414": "è¯­å¥",
    "4415": " å©ç¨",
    "4416": "ç¨é",
    "4417": "å®¶å·",
    "4418": "å°ç»å®ç",
    "4419": "æç»",
    "4420": "å¾ä¹¦",
    "4421": "Th",
    "4422": "åæ¦",
    "4423": "ç«å³",
    "4424": "ä»¿",
    "4425": "çæ¨ç§»",
    "4426": "æ¥ä¸æ¥",
    "4427": "ææ¿",
    "4428": "å¤§å¤æ°",
    "4429": "ä¸­ä½¿ç¨",
    "4430": "GPT",
    "4431": "èª",
    "4432": "åæå",
    "4433": "ååº",
    "4434": "ment",
    "4435": " qu",
    "4436": " K",
    "4437": "é³é¢",
    "4438": "å ",
    "4439": "âï¼",
    "4440": "èæ",
    "4441": "ååº",
    "4442": "åå¯¹æ¯",
    "4443": "çæ",
    "4444": "å¼å¿",
    "4445": "å¸å",
    "4446": "ç¿",
    "4447": "åé",
    "4448": "ç",
    "4449": "å¶æ",
    "4450": "æ",
    "4451": "åä¸åº¦",
    "4452": "ä¸é¡¹",
    "4453": "è®¡ç®æºç§å­¦",
    "4454": "ç¥ç»å",
    "4455": " am",
    "4456": "çæ°é",
    "4457": "è´¸æ",
    "4458": "è±¡å¾",
    "4459": "ä¾¿å©",
    "4460": "æå®",
    "4461": "é¤ä»¥",
    "4462": "ï¼\"",
    "4463": "æå¤§ç",
    "4464": "æ",
    "4465": "çç¼ç",
    "4466": "åå¥",
    "4467": "å·å´",
    "4468": "tps",
    "4469": "://",
    "4470": "çµå¨æ±½è½¦",
    "4471": "æªç¥",
    "4472": "ç»æ",
    "4473": "è°é¾",
    "4474": "è¾¾æ",
    "4475": "è¿æ¯ä¸",
    "4476": "æ¨",
    "4477": "è¾",
    "4478": "å¡",
    "4479": "å¯è½åæ¬",
    "4480": "æå¥",
    "4481": "ä¿¡ä»°",
    "4482": "è®ºç¹",
    "4483": "è£",
    "4484": "èªè¡è½¦",
    "4485": "å¦ä½å¸®å©",
    "4486": "æå­",
    "4487": "æ",
    "4488": "å¸æ¶",
    "4489": "ç¸æº",
    "4490": "çæ­¥éª¤",
    "4491": " store",
    "4492": "ä¸ºä¸ä¸ª",
    "4493": "ä»",
    "4494": "br",
    "4495": "åºç©",
    "4496": "å¹´è½»äºº",
    "4497": "29",
    "4498": "è¡è¯",
    "4499": "ç»æç",
    "4500": "å®å¨",
    "4501": "è§ä¼",
    "4502": " go",
    "4503": "è¿",
    "4504": "éå¾·",
    "4505": "ä¸å",
    "4506": " æ",
    "4507": "çºµ",
    "4508": "å¬é",
    "4509": "éªç",
    "4510": "æª",
    "4511": "å®å°",
    "4512": " ç¡®ä¿",
    "4513": "çæ¯è±¡",
    "4514": "ç©å·",
    "4515": "ç²å­",
    "4516": "è¢«è®¤ä¸º",
    "4517": "è®©ä½ ",
    "4518": "çæå",
    "4519": "è è",
    "4520": "è¿å",
    "4521": "ä»æ¬¾",
    "4522": "æå¯¹",
    "4523": "ç",
    "4524": " The",
    "4525": "æ­£å",
    "4526": "70",
    "4527": "å¤§è±¡",
    "4528": "æå®¤",
    "4529": " 17",
    "4530": "æ¡",
    "4531": "å£",
    "4532": "çä¸½",
    "4533": "ç£",
    "4534": "çèµ·æ¥",
    "4535": "å°æ·",
    "4536": "å°æ·",
    "4537": "å°æ·æ·",
    "4538": "è¿ä¸ªäºº",
    "4539": "çæ¥",
    "4540": "ä¸æ»¡æ",
    "4541": "ç¨æ°´",
    "4542": "æ¾",
    "4543": "æµé",
    "4544": "ä½¿å¶æ´",
    "4545": "å®æ¯ä¸ä¸ª",
    "4546": "åå¥½",
    "4547": "çæ¸¸",
    "4548": "])",
    "4549": "(\"",
    "4550": "è½´",
    "4551": "åé¨",
    "4552": "å¯¸",
    "4553": "ç§",
    "4554": "æåº",
    "4555": "èæ",
    "4556": "ç",
    "4557": "CT",
    "4558": "æç´¢å¼æ",
    "4559": "çå®¢æ·æå¡",
    "4560": "å¯è½æ¯",
    "4561": "å¹³åº",
    "4562": "å¹³åºé",
    "4563": "ç",
    "4564": "ç³è¯·",
    "4565": "è¯¸å¦",
    "4566": "çåå¸",
    "4567": "çæ",
    "4568": "ç¾é£",
    "4569": "è®¡ç®æºè§è§",
    "4570": "å®½",
    "4571": " lo",
    "4572": " me",
    "4573": "å®¹å¨",
    "4574": "èå",
    "4575": "ç»ä½",
    "4576": "æå",
    "4577": "éçæ¶é´çæ¨ç§»",
    "4578": "äºä¸äº",
    "4579": "å¿",
    "4580": "å½ä»¤",
    "4581": "ä¸ä¸",
    "4582": "æ¨¡åç",
    "4583": "èº«ä»½éªè¯",
    "4584": "çç»æ",
    "4585": "å¹¸ç¦æ",
    "4586": "å®è·",
    "4587": "å®è·µ",
    "4588": "å¥",
    "4589": "å©ç",
    "4590": "å¸¦æ¥äº",
    "4591": "çæ",
    "4592": "æä»¬ççæ´»",
    "4593": "å¯è½æ§",
    "4594": "æå­¦",
    "4595": "è¯¾å ",
    "4596": "è§ç",
    "4597": "ä¸å¯è½",
    "4598": "åªç§",
    "4599": "å¹²æ±",
    "4600": "çæ°é»",
    "4601": "æ¿ä»£",
    "4602": "åä¸",
    "4603": "å¤§éæ°æ®",
    "4604": "å¯ä»¥åæ¬",
    "4605": "è§ä¸º",
    "4606": "ç«è",
    "4607": "æ¥æ¹å",
    "4608": "æ­",
    "4609": "é«ä¸­",
    "4610": "æå¥",
    "4611": "çå",
    "4612": "..",
    "4613": "æ¹ä¾¿",
    "4614": "ç ",
    "4615": "éª¨",
    "4616": "æ¯ç¹",
    "4617": "ä¹ä¸æ¯",
    "4618": "å¤å¹´",
    "4619": "é¿æ¶é´",
    "4620": "çæ",
    "4621": "çæ",
    "4622": "æ¶æ",
    "4623": "çæ·±",
    "4624": "å½ä»ä»¬",
    "4625": "çæ¯",
    "4626": " had",
    "4627": "çç§",
    "4628": "çæ°å­",
    "4629": "æå¾å¤",
    "4630": "è´µç",
    "4631": "æ¼",
    "4632": "çä¸äº",
    "4633": "åå",
    "4634": "ence",
    "4635": "åºè²",
    "4636": "æ´æ¹",
    "4637": "ä»·å¼è§",
    "4638": "¼éµ",
    "4639": "ææ°ç",
    "4640": "æ",
    "4641": "åæ",
    "4642": "å¥³å·«",
    "4643": "çæå",
    "4644": "æ¯å°",
    "4645": "gle",
    "4646": "ix",
    "4647": "ile",
    "4648": ")ã",
    "4649": "½®",
    "4650": "æºè½ææº",
    "4651": "ç°é",
    "4652": "å¤§å°",
    "4653": "ç¨å",
    "4654": "çº¦ä¼",
    "4655": " \n ",
    "4656": "äº¬",
    "4657": "ä¸ºä»¥ä¸",
    "4658": "å¨",
    "4659": "ç±æ",
    "4660": "example",
    "4661": "æ°å¼",
    "4662": "è§æ¨¡",
    "4663": "åæ",
    "4664": "åå",
    "4665": "ç®æ åä¼",
    "4666": "çåç´ ",
    "4667": "ide",
    "4668": " 12",
    "4669": "è¿ä¸¤ä¸ª",
    "4670": "éº¦ç°",
    "4671": "éº¦ç°é",
    "4672": "éº¦ç°éçå®",
    "4673": "éº¦ç°éçå®",
    "4674": "éº¦ç°éçå®æ",
    "4675": "èå¤©æºå¨äºº",
    "4676": "ext",
    "4677": "è½¬å",
    "4678": "åæ°åº¦",
    "4679": "é",
    "4680": "äºè®¡ç®",
    "4681": "èå´å",
    "4682": "é¿å°",
    "4683": "ç±»ä¼¼",
    "4684": "rain",
    "4685": "è¶åæ°",
    "4686": "èå£«",
    "4687": "é²",
    "4688": "å©",
    "4689": "\"ï¼",
    "4690": "è±æ¶é´",
    "4691": "èè",
    "4692": "çå³ç³»",
    "4693": "ä¸å¥",
    "4694": "é¢å",
    "4695": "æ¯ä¸",
    "4696": "ç©",
    "4697": "å«æ",
    "4698": "åè¡¡",
    "4699": "æ¢¯",
    "4700": "æ¨éè¦",
    "4701": "æ",
    "4702": "æä»",
    "4703": "ian",
    "4704": " sum",
    "4705": "æ²¡å³ç³»",
    "4706": "æ¡",
    "4707": "ree",
    "4708": "å¹¶ç¨",
    "4709": "åè½»",
    "4710": "åå",
    "4711": "ork",
    "4712": "è£é¥°",
    "4713": "-ã",
    "4714": "ç",
    "4715": "éå¤ä½¿ç¨",
    "4716": "ç®æ³æ¥",
    "4717": "åé",
    "4718": "çåä¸ª",
    "4719": "çæä¸ç¯",
    "4720": "è¿½è¸ª",
    "4721": "æ»ä½",
    "4722": "æ£ç´¢",
    "4723": "å¥æª",
    "4724": "æµ·å¹³é¢ä¸å",
    "4725": "çè¨",
    "4726": "å¹´ä»£",
    "4727": "å¹¿æ³ç",
    "4728": "çç´",
    "4729": "éçå¨ç©",
    "4730": "çç­",
    "4731": " å¶å®",
    "4732": "åå",
    "4733": "SEO",
    "4734": "æµé",
    "4735": "å³é­",
    "4736": "æ¾ç½®",
    "4737": "ææ ",
    "4738": "å¾ä¹¦é¦",
    "4739": "ff",
    "4740": "æ¹åä»¥ä¸å¥å­",
    "4741": "ure",
    "4742": "æåµä¸",
    "4743": "ç²¾å",
    "4744": "æ¢æ¢",
    "4745": "çç¯å¢",
    "4746": "æ¤å­",
    "4747": "å®è¿å¯ä»¥",
    "4748": "çææ¬",
    "4749": "é¢è®¢",
    "4750": "æ»¡æåº¦",
    "4751": "äº¤è°",
    "4752": "\n           ",
    "4753": "çè¡¨",
    "4754": "ä¸¾å",
    "4755": "è¾©è®º",
    "4756": "å½å¥¹",
    "4757": "å¥æ³",
    "4758": "ææäºº",
    "4759": "ä¼åèè",
    "4760": "çé®",
    "4761": "è¯¢é®",
    "4762": "ä¸»é¢ç",
    "4763": "å",
    "4764": "å·²ç¥",
    "4765": "æ¯è¾åå¯¹æ¯",
    "4766": "ä¼¸",
    "4767": "åé¤",
    "4768": "æä¸",
    "4769": "ä»¥ä¸ææ¬",
    "4770": "ååæ",
    "4771": "å¾ç",
    "4772": "å¼ºåº¦",
    "4773": "å¹¶æ ¹æ®",
    "4774": "åç¡®ç",
    "4775": "çä»»ä½",
    "4776": "äººå·¥ç¥ç»ç½ç»",
    "4777": "åä¸º",
    "4778": "ans",
    "4779": "å©",
    "4780": "name",
    "4781": "ail",
    "4782": "æ¢",
    "4783": "æ¢å¤",
    "4784": "èä¸",
    "4785": "è®¯",
    "4786": "è¾¾å·",
    "4787": "å¤å¶",
    "4788": "æ²æ",
    "4789": "å¹½",
    "4790": "è³",
    "4791": "å°çä¸",
    "4792": "è¦ç",
    "4793": "åè§",
    "4794": "å",
    "4795": "è",
    "4796": "åæ",
    "4797": "åä¸ç¯å³äº",
    "4798": "é£è¹",
    "4799": "è¥é ",
    "4800": "32",
    "4801": "çç",
    "4802": "ä»ª",
    "4803": "å°æ¬",
    "4804": "è¿æ®µ",
    "4805": "ç²",
    "4806": "å«",
    "4807": "æ¯ä»¥",
    "4808": "æ´é«æ",
    "4809": "äººå¿",
    "4810": "å¾å½¢",
    "4811": "çæ¶",
    "4812": "ck",
    "4813": "ç¦",
    "4814": "åæ ·",
    "4815": "çæ¤",
    "4816": "å¯ä»¥ä»",
    "4817": "iPhone",
    "4818": "å¹¶å¯¹",
    "4819": "ä¸ç¯å³äº",
    "4820": "å³¡",
    "4821": "çæ",
    "4822": "å¼¦",
    "4823": "åå­æ¯",
    "4824": "AM",
    "4825": "åºå",
    "4826": "èä¼",
    "4827": "æå·²ç»",
    "4828": "çç¤¾ä¼",
    "4829": "æ¶æ",
    "4830": "ç¾æ´²",
    "4831": "é»å",
    "4832": "ææ³",
    "4833": "å¢¨è¥¿",
    "4834": "å¢¨è¥¿å¥",
    "4835": "æ¹",
    "4836": "æ§å«",
    "4837": "è°è®º",
    "4838": "ount",
    "4839": "å¯ä»¥è¢«",
    "4840": "å£°æ",
    "4841": "»å»",
    "4842": "é¦",
    "4843": "å¢",
    "4844": "æ¥å¸¸çæ´»",
    "4845": "çåå",
    "4846": "ä¿®æ­£",
    "4847": "åå",
    "4848": " å¼å",
    "4849": "ä¹é´çåºå«",
    "4850": "äººæ°",
    "4851": "å¬å¼",
    "4852": "çåå ",
    "4853": "é¢å¤ç",
    "4854": "éº¦ç°éçå®æè",
    "4855": "å¯å",
    "4856": "åæ¢ç",
    "4857": "ask",
    "4858": "ci",
    "4859": "ç´",
    "4860": "å­¦ä¹ å",
    "4861": "ææ­£å¨",
    "4862": "çå«ä¹",
    "4863": "æ¿è¯º",
    "4864": "æ°æ®ç§å­¦",
    "4865": "ç®å",
    "4866": " æ±¤å",
    "4867": "é·",
    "4868": "å¯å·",
    "4869": "é¦è",
    "4870": "è¬",
    "4871": "çç¶æ¯",
    "4872": "ä¸å¾ä¸",
    "4873": "çå½¢å¼",
    "4874": "åé",
    "4875": " ä½ å¦ä½",
    "4876": "ç©",
    "4877": "åè£¹",
    "4878": "ç©¿ç",
    "4879": "nstag",
    "4880": "nstagram",
    "4881": "wit",
    "4882": "æè£",
    "4883": "å·¥èµ",
    "4884": "äº¤æ¢",
    "4885": "å",
    "4886": "å¯ä»¥ç¨æ¥",
    "4887": "çé£",
    "4888": " el",
    "4889": "å­¤ç¬",
    "4890": "é¥¼å¹²",
    "4891": "è",
    "4892": "æé«ç",
    "4893": "ç»è",
    "4894": "¤æ",
    "4895": "çæ½å",
    "4896": "ç­ä¿¡",
    "4897": "ç¾ä¸",
    "4898": "ç¿",
    "4899": "è",
    "4900": "ä¸",
    "4901": "ç",
    "4902": "çç±³",
    "4903": "éè¿°å¥",
    "4904": "æ¸´æ",
    "4905": "å«",
    "4906": "æ²®",
    "4907": "æ²®ä¸§",
    "4908": "ä½ å¯ä»¥",
    "4909": "mith",
    "4910": "å¥åº·é¥®é£",
    "4911": "ä¹å¨",
    "4912": "æ¬",
    "4913": "æ¾å¼",
    "4914": "ç¶æ¯",
    "4915": "å¥",
    "4916": "ªæ¯",
    "4917": "é¦",
    "4918": "ç°è±¡",
    "4919": "å",
    "4920": "æµ´",
    "4921": "æ¥åå°",
    "4922": "ç§æ¤",
    "4923": "å¯ä»¥åå°",
    "4924": "åç",
    "4925": "åæ",
    "4926": "èæ¬",
    "4927": "çæ¸¸æ",
    "4928": "port",
    "4929": "arg",
    "4930": "æ´ä¸º",
    "4931": "æç«¯",
    "4932": "è±å¯¸",
    "4933": "åå­",
    "4934": "çéæ©",
    "4935": "è¾¹ç¼",
    "4936": "å¾å¿«å°±",
    "4937": "RO",
    "4938": "åªé",
    "4939": "ç¼è§£",
    "4940": "åç¤¾ä¼",
    "4941": "ä¸ç³»å",
    "4942": "å½±åå",
    "4943": "æ",
    "4944": "èµ ",
    "4945": "äººè¸è¯å«",
    "4946": "ç¸åç",
    "4947": "æ¨å¹¿",
    "4948": "å¤æ­",
    "4949": " has",
    "4950": "day",
    "4951": "å¤±ä¸ç",
    "4952": "ä¾åº",
    "4953": "è¯­æ",
    "4954": "è·¨",
    "4955": "very",
    "4956": "çç",
    "4957": "å°å¾",
    "4958": "con",
    "4959": "èç±»",
    "4960": "ææåæ",
    "4961": "åæ°",
    "4962": "è´é¢",
    "4963": "];",
    "4964": "array",
    "4965": "++)",
    "4966": " >",
    "4967": "24",
    "4968": "è¿è¾",
    "4969": "å®åºè¯¥",
    "4970": "å¤§äº",
    "4971": "ç»è",
    "4972": "ç´¢å¼",
    "4973": "æ¨æ",
    "4974": "ç§é¡¾",
    "4975": " con",
    "4976": "te",
    "4977": "å¤´è",
    "4978": "æå¥½",
    "4979": "ç¹å®ç",
    "4980": "ç²å³",
    "4981": "ç´¯",
    "4982": "å¨æ",
    "4983": "æ²³æµ",
    "4984": "çåå®¢æç« ",
    "4985": "æ",
    "4986": "ä½ä¸",
    "4987": "å¤§å®¶",
    "4988": "æ¯",
    "4989": "è¿å¶",
    "4990": "ç¦è",
    "4991": "ææº",
    "4992": "å¹¶éè¿",
    "4993": "çº¤",
    "4994": "ä¾¿å®",
    "4995": "é£ä¹",
    "4996": "åé å",
    "4997": "è¢«è§ä¸º",
    "4998": "è¿è¥",
    "4999": "æ¨",
    "5000": "æµ",
    "5001": "éè¿ä½¿ç¨",
    "5002": "åå ¡",
    "5003": "ä¼ è¯´",
    "5004": "Ch",
    "5005": "åå¤«",
    "5006": "åå°",
    "5007": "çæ",
    "5008": "é¥¥",
    "5009": "ime",
    "5010": "å",
    "5011": "è·æ­¥",
    "5012": "ç¸å",
    "5013": "çä¸è¥¿",
    "5014": "ä¿³",
    "5015": "ä¿³å¥",
    "5016": "å¤©ç©ºä¸­",
    "5017": "å·¦",
    "5018": "çç¡",
    "5019": "çç¡ç ",
    "5020": "é©¬å",
    "5021": "æ£",
    "5022": "è¯¥å¥å­",
    "5023": "ææ",
    "5024": "ææ¾",
    "5025": "æ«æ",
    "5026": "æµ",
    "5027": "éª",
    "5028": "éªæ¶",
    "5029": "å",
    "5030": "æé",
    "5031": "çæ¶",
    "5032": "ç¾å®³",
    "5033": "è½¬ç§»",
    "5034": "è®¸å¤äºº",
    "5035": "è®©ä»ä»¬",
    "5036": "å­",
    "5037": "æç",
    "5038": "é®",
    "5039": "ype",
    "5040": "é",
    "5041": "æ½®",
    "5042": "åºæ¿",
    "5043": "ææ",
    "5044": "æºå¨å­¦ä¹ æ¨¡å",
    "5045": "ç§»å¨åºç¨ç¨åº",
    "5046": "çæ­æ²",
    "5047": "çæ",
    "5048": "é£ä¸­",
    "5049": "æå§",
    "5050": "è®½",
    "5051": "æ·±å»",
    "5052": "å°ç",
    "5053": "è²å°",
    "5054": "ååä½ç¨",
    "5055": "æ­»å",
    "5056": "è",
    "5057": "å¿é",
    "5058": "å¶å",
    "5059": "å®£è¨",
    "5060": "è½¯ä»¶å¼å",
    "5061": "åª",
    "5062": "æ",
    "5063": "ä¸ä¸ªæ°",
    "5064": "æçºµ",
    "5065": "çæä¸ä¸ªåå«",
    "5066": "æé ä¸ä¸ª",
    "5067": "äºç¸",
    "5068": "æ³°",
    "5069": "çµ",
    "5070": "æå¾",
    "5071": "æ¼å¥",
    "5072": "æ¯ä¸ºäº",
    "5073": "æ¯ä¸é¨",
    "5074": "å",
    "5075": "åä¸è®¡å",
    "5076": "å¨å",
    "5077": "ç¬¼",
    "5078": "é",
    "5079": "ä»¥ä¸æ¯",
    "5080": "ææ¬æç",
    "5081": "æªæ¥ç",
    "5082": " col",
    "5083": "ä¼½",
    "5084": "ç©",
    "5085": "çåè¡æ¤",
    "5086": "çç",
    "5087": "æ¹¾",
    "5088": "æ¶å»",
    "5089": "çæ³¨",
    "5090": "witter",
    "5091": "ç½",
    "5092": "å",
    "5093": "AR",
    "5094": "æ´¾å¯¹",
    "5095": "çæ§è½",
    "5096": "éå¤§å½±å",
    "5097": "ç¾å½å®ªæ³",
    "5098": "ç¸",
    "5099": "é³",
    "5100": "æ¼å",
    "5101": "è®¤ç¥",
    "5102": "è°è",
    "5103": "çå¿",
    "5104": "å¡é ",
    "5105": "é¥",
    "5106": "ä¹å¾",
    "5107": "å¾è¡¨",
    "5108": "æ°ææ¯",
    "5109": "ata",
    "5110": "å¦ææ¨",
    "5111": "éåè¡å¨",
    "5112": "å©æ¶¦",
    "5113": "è½¯ä»¶å·¥ç¨å¸",
    "5114": "æ¶å",
    "5115": "åå¾è¶æ¥è¶",
    "5116": "å",
    "5117": "ææ¡",
    "5118": "æäº®",
    "5119": "89",
    "5120": "è¯å®",
    "5121": "å¼ºå",
    "5122": "ä»¤äººæå¹",
    "5123": "----------------",
    "5124": " end",
    "5125": "å å·",
    "5126": "è½æºæ¶è",
    "5127": "ru",
    "5128": "Mary",
    "5129": "å",
    "5130": "èªå¨åå",
    "5131": "è¯",
    "5132": "æ é",
    "5133": "è°è¯",
    "5134": " number",
    "5135": "æ¯å»",
    "5136": "æ¸",
    "5137": "çº¹",
    "5138": "åå¾",
    "5139": "å­¦ä¼",
    "5140": "è®°ä½",
    "5141": "ç®ç",
    "5142": "æè¯´æåç",
    "5143": "æèµ ",
    "5144": " or",
    "5145": "å®èª",
    "5146": "äººå",
    "5147": "çæè¿°",
    "5148": "No",
    "5149": " 2020",
    "5150": "åºè²ç",
    "5151": "çæ",
    "5152": "\n  ",
    "5153": "é¨ç½²",
    "5154": "ä»£è¯",
    "5155": "ä¿®è¾",
    "5156": "å¨è",
    "5157": "å¨è",
    "5158": "çæµ·æ´",
    "5159": "éç¹",
    "5160": "ands",
    "5161": " en",
    "5162": "åå¸ç",
    "5163": "ç·äºº",
    "5164": "è´´",
    "5165": "é",
    "5166": "ä¿ç",
    "5167": "æ³åºä¸ä¸ª",
    "5168": "ire",
    "5169": "è¯´è¯",
    "5170": "è¿è¡é¢æµ",
    "5171": "ice",
    "5172": "ace",
    "5173": " 200",
    "5174": "å°å¨",
    "5175": "èªææ¤ç",
    "5176": "çæ¼",
    "5177": "ä½å¥¹",
    "5178": "å¼¹",
    "5179": "åºè¯¥æ¯",
    "5180": "ç®åç",
    "5181": "çå­¦ç",
    "5182": "çæ´»ç",
    "5183": "ä¸¤ä¸ªäºº",
    "5184": "å¾å¥½",
    "5185": "ç»ç»å",
    "5186": " have",
    "5187": "ä»å¥",
    "5188": "åè¬è",
    "5189": "åæå",
    "5190": "åå©",
    "5191": "å°å",
    "5192": "çç«",
    "5193": "æç¤º",
    "5194": "æºå¸¦",
    "5195": "æç¥",
    "5196": "è½å¤å¿«é",
    "5197": "æµ¸",
    "5198": "å¯è½ä¼å¯¼è´",
    "5199": "éè®¯",
    "5200": " æé«",
    "5201": "ä¸ç",
    "5202": "æ·¡",
    "5203": "ä¹æ²»",
    "5204": "ç¹æ§",
    "5205": "åå­",
    "5206": "è",
    "5207": "å¸¸ç¨",
    "5208": "æ°å",
    "5209": "é½",
    "5210": "é¸ç±»",
    "5211": "å°",
    "5212": "çä¸",
    "5213": "ä¼¦æ¦",
    "5214": "èåç",
    "5215": "ject",
    "5216": "æ¹¿",
    "5217": "çä¸ç§",
    "5218": "ç¹è´¨",
    "5219": "çéåº¦",
    "5220": "è¯­æ³æ­£ç¡®",
    "5221": "æ³è¯­",
    "5222": "çå¤§å°",
    "5223": "çå®ä¹",
    "5224": "æ ¹æ®ä»¥ä¸",
    "5225": "å³",
    "5226": "çæ´",
    "5227": "é",
    "5228": "çæ£®",
    "5229": "çæ£®æ",
    "5230": "åºç¨äº",
    "5231": "å±å¹",
    "5232": "çæ±",
    "5233": "ä»æ¯",
    "5234": "çå¨",
    "5235": "è¹",
    "5236": "çéè¦ç»æé¨å",
    "5237": " ä¸ª",
    "5238": "å½ç",
    "5239": "æä»¤",
    "5240": "ä½¿æä»¬",
    "5241": "ä½¿å¶æä¸º",
    "5242": "ä½æ°",
    "5243": "ååºå³ç­",
    "5244": "æ¯ä»¥å¾",
    "5245": "æ¼éµ",
    "5246": "é¢æµåæ",
    "5247": "ä½ å¨",
    "5248": "è¿",
    "5249": "è·¯ä¸",
    "5250": "ild",
    "5251": "åä¸",
    "5252": "å½å®¶ç",
    "5253": "çæ¤",
    "5254": "çæ¤ç©",
    "5255": "é",
    "5256": "æé®",
    "5257": "å¸æ·",
    "5258": "TP",
    "5259": "æ",
    "5260": "èµäº",
    "5261": "çè¯",
    "5262": "æç ´",
    "5263": "æ»ç",
    "5264": "æ»çæ¥è¯´",
    "5265": "æåªäº",
    "5266": "reet",
    "5267": "å¤ä»½",
    "5268": "å°ä»¥ä¸åè¯",
    "5269": "çç½",
    "5270": "åé",
    "5271": "çå¹³åå¼",
    "5272": "çèæ¯",
    "5273": "AB",
    "5274": "è¾£",
    "5275": " API",
    "5276": "ãï¼",
    "5277": "é¸£",
    "5278": "è¿é¨çµå½±",
    "5279": "å£ç½©",
    "5280": "çæç¨",
    "5281": "äº¤äºå¼",
    "5282": " year",
    "5283": "å®æ´",
    "5284": "å°±ä¼",
    "5285": "ä»¥æé«",
    "5286": "ä¸¤ä¸ªå¥å­",
    "5287": "ike",
    "5288": "çç¼",
    "5289": "æ´å¿«å°",
    "5290": "åè¿",
    "5291": "æä¸ä¸ª",
    "5292": "å¢",
    "5293": "æ´ªæ°´",
    "5294": "åªä¸ª",
    "5295": "æç¥é",
    "5296": "éå°äº",
    "5297": "çä¹¦",
    "5298": "é¢è®¡",
    "5299": "åä¸",
    "5300": " â",
    "5301": "ev",
    "5302": "ph",
    "5303": " æä¾",
    "5304": "aaS",
    "5305": "æ´é«ç",
    "5306": "è¢«ç§°ä¸º",
    "5307": "éæ",
    "5308": " quick",
    "5309": "ä»ä¸",
    "5310": "ä½¿ä»ä»¬",
    "5311": "äº§åææå¡",
    "5312": "å¯ä»¥ä¸º",
    "5313": "é¾æ¥",
    "5314": "ä½¿å®ä»¬",
    "5315": "ç ",
    "5316": "ç ä¼",
    "5317": "ä¸ªä½",
    "5318": "è",
    "5319": "55",
    "5320": "tw",
    "5321": "è±",
    "5322": "ml",
    "5323": "head",
    "5324": " get",
    "5325": "You",
    "5326": "è®¢å",
    "5327": " Jav",
    "5328": "è¯ä»·",
    "5329": "å",
    "5330": "åéäºº",
    "5331": "å¹²æ°",
    "5332": "çº½çº¦å¸",
    "5333": "ebook",
    "5334": "ç",
    "5335": "çæ¿æ²»",
    "5336": "æè®",
    "5337": "æè®¶",
    "5338": "é¸å¥¶",
    "5339": "',",
    "5340": "ä¸¤ä¸ªæ°å­",
    "5341": "å¸",
    "5342": "éåº",
    "5343": "çè¯æ­",
    "5344": "ï¼[",
    "5345": "è´¢å¯",
    "5346": "å¾é¾",
    "5347": "ææ",
    "5348": "å¨æ­¤",
    "5349": " cat",
    "5350": "©ç½",
    "5351": "ä¿æèç³»",
    "5352": "äº²ç±ç",
    "5353": "æè°¢æ¨",
    "5354": "è¿ä½¿å¾",
    "5355": "é´å½±",
    "5356": "å¿è",
    "5357": "å¤±æ",
    "5358": " \n  ",
    "5359": "number",
    "5360": "å£å³",
    "5361": "å¤§æ°ä¸­",
    "5362": "â",
    "5363": "è£",
    "5364": "èçº¦è½æº",
    "5365": "éå°",
    "5366": "ç³",
    "5367": "è¿æ¥å°",
    "5368": "é«çº§",
    "5369": "è¾ç±³",
    "5370": "å¢éåä½",
    "5371": "éº",
    "5372": "ä½å®¶",
    "5373": "zA",
    "5374": "çè§£å",
    "5375": "é¦é¥¼",
    "5376": "æª",
    "5377": "ææ³¢",
    "5378": "ææ³¢é£",
    "5379": "ææ³¢é£å¥",
    "5380": "æ§é",
    "5381": "æ§éå±±",
    "5382": "ç«",
    "5383": "ç«ç",
    "5384": "ç«ç°",
    "5385": "Person",
    "5386": "é¨æ°´",
    "5387": "ç°",
    "5388": "ææ¦",
    "5389": "å¦ä¸ç§",
    "5390": "çæä¸ä»½",
    "5391": " play",
    "5392": "è",
    "5393": "æ¾ç¤ºå±",
    "5394": "ç«¹",
    "5395": "çå¹´è½»",
    "5396": "ä¼",
    "5397": "SELE",
    "5398": "SELECT",
    "5399": "ROM",
    "5400": "è®²è¿°äº",
    "5401": "çæ¶å",
    "5402": "å³å¯",
    "5403": "æ",
    "5404": "è¿ç»­",
    "5405": "å®èªå",
    "5406": "æå¨",
    "5407": "åä¸¾ä¸ä¸ª",
    "5408": "æ½å¨å®¢æ·",
    "5409": "gs",
    "5410": "æ",
    "5411": "DP",
    "5412": "å²¸",
    "5413": "æ°å´",
    "5414": "çç¬",
    "5415": " all",
    "5416": "aw",
    "5417": "appy",
    "5418": "ize",
    "5419": " ne",
    "5420": "ath",
    "5421": " so",
    "5422": "æå°éå¸¸",
    "5423": "å½æ",
    "5424": "arm",
    "5425": "ä¸åº§",
    "5426": "æ·±å¤",
    "5427": "å¸å±",
    "5428": "æ·±æ·±",
    "5429": "æå¤",
    "5430": "ä¸ç¥",
    "5431": "çæ¶å»",
    "5432": "æ¨ç",
    "5433": "çä¸ä¸ªä¾å­",
    "5434": "å¾å°äº",
    "5435": "erse",
    "5436": "æè§",
    "5437": "ä¸ä¸æ",
    "5438": "è¦ç´ ",
    "5439": "æå¡å¨",
    "5440": "79",
    "5441": "alth",
    "5442": "å¬è¯´",
    "5443": "åºæ¶é´",
    "5444": "èªè±ª",
    "5445": "ä¸åçæ¹å¼",
    "5446": "é",
    "5447": "æ¼è®²",
    "5448": "æ¢è®¨",
    "5449": "å·æææ",
    "5450": "ååå",
    "5451": "è¿é¡¹",
    "5452": "çæ å¿",
    "5453": "ä¸è§å½¢çé¢ç§¯",
    "5454": "æ¥æè¿°",
    "5455": "ææ",
    "5456": "æ¨å°",
    "5457": "å¶å®ä¸ä¸ª",
    "5458": " went",
    "5459": " sp",
    "5460": "ç",
    "5461": "rue",
    "5462": "çº¤ç»´",
    "5463": "å¤©ç¶",
    "5464": "å¹¶å¼å§",
    "5465": "åæ¬¡",
    "5466": "çä¼ç¹",
    "5467": "æå",
    "5468": "å°ç»",
    "5469": "ä¹å",
    "5470": "æ¼",
    "5471": "æ¯åºäº",
    "5472": "å±äº",
    "5473": "ious",
    "5474": "å±æ°",
    "5475": "ï¼ï¼",
    "5476": "å¢å äº",
    "5477": "æå¯è½",
    "5478": "æ¡¥",
    "5479": "è¸",
    "5480": "å¹½é»",
    "5481": "ï¼\"",
    "5482": "ææ³",
    "5483": "æ",
    "5484": "çç",
    "5485": "ç¤ç®±é¢ç­",
    "5486": "å¹²å",
    "5487": "ä¿¡å¿",
    "5488": "ç¸å½",
    "5489": "ãã",
    "5490": "æ½å",
    "5491": "æå¾",
    "5492": "ç­æ",
    "5493": "å¤èç",
    "5494": "æ©è²",
    "5495": "è®¨è®ºäº",
    "5496": "åä¸¾ä¸ç§",
    "5497": "äºä»ä¹",
    "5498": "æå",
    "5499": "è¾¹é¿",
    "5500": "éå",
    "5501": "åè¶³",
    "5502": "èµäº§",
    "5503": "ç»å®ä»¥ä¸",
    "5504": " print",
    "5505": "æ",
    "5506": "æ®",
    "5507": " bl",
    "5508": "ä»£ç",
    "5509": "æ»ä¹",
    "5510": "«è¨",
    "5511": "è¸",
    "5512": "è²",
    "5513": "åå¥½ç",
    "5514": " Ch",
    "5515": "çç",
    "5516": "çç¶",
    "5517": "å¹´è½»ç",
    "5518": "ç",
    "5519": "éé±",
    "5520": "èªç¶ç¾å®³",
    "5521": "ä¸ç¾¤",
    "5522": "é¹",
    "5523": "å³¡è°·",
    "5524": "%ã",
    "5525": "æ¥ç",
    "5526": "ç¾é¾",
    "5527": "å¯¹æä»¬",
    "5528": "è·",
    "5529": "çç",
    "5530": "è¡¨ç°åº",
    "5531": "èµ¶",
    "5532": "éå¸¸ç¨äº",
    "5533": "çå»ºè®®",
    "5534": "è¿åº",
    "5535": "lowing",
    "5536": "çç±»å",
    "5537": "æå",
    "5538": "æ¯äº",
    "5539": "ææ°åº¦",
    "5540": "ach",
    "5541": "å´ç»",
    "5542": "èé»å",
    "5543": "è®½åº",
    "5544": "å£",
    "5545": "éµ",
    "5546": "èºæ¯å®¶",
    "5547": "è·è",
    "5548": "ç¬è¡",
    "5549": "ç¬è¡å¨ç©",
    "5550": "ä¸",
    "5551": "å¨ç¾å½",
    "5552": "æ»å»",
    "5553": "æµ",
    "5554": "æ",
    "5555": "åä¸",
    "5556": "è£",
    "5557": "å°¿",
    "5558": "ä»¥æä¾",
    "5559": "æ¯ä¸",
    "5560": "å¨è¿å»",
    "5561": " out",
    "5562": "æµ®",
    "5563": "æ°æ®ç»æ",
    "5564": "ç¾å½æ»ç»",
    "5565": "å°¤",
    "5566": "å®¶å­",
    "5567": "çµå£«",
    "5568": "å±ç¤ºäº",
    "5569": "è¡¨é¢",
    "5570": "åºå«å¨äº",
    "5571": "éªç",
    "5572": "æªæ­¢",
    "5573": "æ æ",
    "5574": "æå¡ç",
    "5575": "ç¨æ·ä½éª",
    "5576": "æ¥è½",
    "5577": "pro",
    "5578": "ä¸é¨",
    "5579": "è±¹",
    "5580": "åå°äº",
    "5581": "ä¸¤è",
    "5582": "ox",
    "5583": "éæ¶",
    "5584": "ä¸»äºº",
    "5585": "å°ä¼",
    "5586": "å¯ä»¥å¿«é",
    "5587": "é­æ¹",
    "5588": "é",
    "5589": "çå¤æ",
    "5590": "è¿å°",
    "5591": "ä»å·",
    "5592": "å·²æä¸º",
    "5593": "è¢«è®¤ä¸ºæ¯",
    "5594": "è¿é¦è¯",
    "5595": "æè®¤ä¸º",
    "5596": "è¾",
    "5597": "è¾å°",
    "5598": "ä¸å®¶äºº",
    "5599": " range",
    "5600": " </",
    "5601": "ody",
    "5602": "éè¦ä½ç¨",
    "5603": "aScript",
    "5604": "å¥",
    "5605": "å¤é¡¹",
    "5606": "åææ¯",
    "5607": "åäº",
    "5608": "ç§äº®",
    "5609": "çæ¥",
    "5610": "acebook",
    "5611": "Instagram",
    "5612": "æ©å¤§",
    "5613": "å¤º",
    "5614": "æ©",
    "5615": "å¼¥",
    "5616": "æµ·æ¥",
    "5617": "ä¼å¯¼è´",
    "5618": "æåæ",
    "5619": "å¸¦ç",
    "5620": "è¯ºè´",
    "5621": "äºå¥¹",
    "5622": "é",
    "5623": "å®æ¶",
    "5624": "çå®ç¾",
    "5625": "ç¿ç©è´¨",
    "5626": "è¶è¶",
    "5627": " ä»",
    "5628": "çè¯­æ°",
    "5629": "è®¡ç®æºç³»ç»",
    "5630": "Jav",
    "5631": "å ç¶",
    "5632": "å ç¶çæ¯",
    "5633": "ç«å±±",
    "5634": "éç½®",
    "5635": "å¿ä¸å¯",
    "5636": "ä¸ä¸ªå¤§",
    "5637": "ç¸",
    "5638": "ç¢³ææ¾",
    "5639": "é",
    "5640": "æ",
    "5641": "è¾ä½",
    "5642": "ood",
    "5643": "ç¼ç¨è¯­è¨",
    "5644": "æ°¸ä¸",
    "5645": "çæ",
    "5646": "åå",
    "5647": "çæ°å´",
    "5648": "æä¸ª",
    "5649": "ä½¿ç¨ç»å®ç",
    "5650": "å¼å¥",
    "5651": "éè¦çæ¯",
    "5652": "æ§",
    "5653": "å",
    "5654": "æ¡",
    "5655": "è",
    "5656": " æª",
    "5657": " æª¬",
    "5658": "æ½è±¡èºæ¯",
    "5659": "ææ³¢é£å¥æ°",
    "5660": "èæ",
    "5661": "åº§ä½",
    "5662": "æ­»äº¡",
    "5663": "é¢æ¡",
    "5664": "ç®",
    "5665": "ç»´ç",
    "5666": "ç»´çª",
    "5667": "æ¥å¸¸çæ´»ä¸­",
    "5668": "ä¿®å¤",
    "5669": "ä¸è´",
    "5670": "åçµ",
    "5671": "ä»¥åå°",
    "5672": "å¯åçè½æºç",
    "5673": "å®ä½¿ç¨",
    "5674": "çè¾åº",
    "5675": "åç¦»",
    "5676": "è¯¥ç®æ³",
    "5677": "è¿ç¦»",
    "5678": "ä»»å¡ä¸­",
    "5679": "æå´è¶£",
    "5680": "ä¸ªæ§åç",
    "5681": "ä»¥éåº",
    "5682": "æ¬ºè¯",
    "5683": "çææ¬",
    "5684": "æ¼",
    "5685": "è",
    "5686": "è®©å®",
    "5687": "å å¼º",
    "5688": "çæ¸©åº¦",
    "5689": "è¹æå",
    "5690": "çç¬",
    "5691": "å³ä½¿å¨",
    "5692": "ä¼ç§",
    "5693": "çæ¸å",
    "5694": "ç®­",
    "5695": "ä½å¨",
    "5696": "åå«",
    "5697": "les",
    "5698": "çè¨æ¯",
    "5699": "è¿ä¸ªæäº",
    "5700": "èè¯",
    "5701": "æä¸",
    "5702": "ana",
    "5703": "å»ºé ",
    "5704": "æ ·æ¬",
    "5705": "åä¸æ®µ",
    "5706": "åºå",
    "5707": "lass",
    "5708": "[]",
    "5709": "å°æ¥",
    "5710": "å¬å­£",
    "5711": "æ¨è¿å¯ä»¥",
    "5712": "çæ³ç",
    "5713": "å¨è¯­æ",
    "5714": "é£æ¯",
    "5715": "åç°èªå·±",
    "5716": "æ¢æ¢å°",
    "5717": "æ³¨æå°",
    "5718": "åäº",
    "5719": "æ´å¥½å°äºè§£",
    "5720": "ä½ è½",
    "5721": "çåä¹è¯",
    "5722": "å®æ¯ä¸ç§",
    "5723": "éç¨äº",
    "5724": " array",
    "5725": "æ¹å¼æ¯",
    "5726": "Web",
    "5727": "ç¨æ·æ°æ®",
    "5728": "å®å¨æ§",
    "5729": "å¦å",
    "5730": "æ´ä½å¥åº·å",
    "5731": "ææª",
    "5732": "èº«å¿",
    "5733": "èº«ä½å",
    "5734": "ä¸å",
    "5735": "å­æ®µ",
    "5736": " ä¸º",
    "5737": "è¿ç¯æç« ",
    "5738": "å¨æä»¬",
    "5739": "å¯¹å¶",
    "5740": "ä¸ºä¸å®¶",
    "5741": "çè®¾è®¡",
    "5742": "åå®",
    "5743": "åªæ¯",
    "5744": "å¦å¤",
    "5745": "ç½ä¸",
    "5746": "ä¸ä¸ªå°",
    "5747": "çç²¾",
    "5748": "æ¶¨",
    "5749": "æèµè",
    "5750": "èå",
    "5751": "ç¾",
    "5752": "æ³³",
    "5753": "å¸å¼äººç",
    "5754": "å¯ä»¥æé«",
    "5755": "æçå",
    "5756": "ç®è¦",
    "5757": "AIç³»ç»",
    "5758": "å®å¨å",
    "5759": "ç¨æ·å",
    "5760": "å³å¨å",
    "5761": "æå¿",
    "5762": "è¿è¡æåº",
    "5763": "åå±ä¸­",
    "5764": "æ±",
    "5765": "åºå",
    "5766": "æ°¢",
    "5767": "é ",
    "5768": "é",
    "5769": "æè½",
    "5770": "ä¸ºæ¨",
    "5771": "ç³",
    "5772": "ç¼",
    "5773": "æ¿å±ç©ç§",
    "5774": "é¢",
    "5775": "æ¹å½¢",
    "5776": "ç",
    "5777": "çç¤",
    "5778": "é",
    "5779": "æç»´",
    "5780": "çæ¿",
    "5781": "é¥¿",
    "5782": "æ¬¢ä¹",
    "5783": "å®é",
    "5784": "åæ»¡æ´»åç",
    "5785": "ä¸ä½¿ç¨",
    "5786": "éçäºº",
    "5787": "çäººç",
    "5788": "ä¸è¯",
    "5789": "æ¯ä¸åª",
    "5790": "é½å¯ä»¥",
    "5791": "é¶é£",
    "5792": "å¤è§",
    "5793": "çæ¿",
    "5794": "çä¸å¤©",
    "5795": "è§ä¸è§å½¢",
    "5796": "ç§å­",
    "5797": "æè«",
    "5798": "ating",
    "5799": "èµ°ç",
    "5800": "å¹",
    "5801": "æå·¥",
    "5802": "éè¦æ§",
    "5803": "äººå£«",
    "5804": "æºç¥¨",
    "5805": "éè´§",
    "5806": "æ°æ®ææ",
    "5807": "å®æä»»å¡",
    "5808": "æå°æº",
    "5809": "é¶å®",
    "5810": "å°å¢",
    "5811": "çææ",
    "5812": "å¬ä¸»",
    "5813": "æ¢é©",
    "5814": "æ æ¯å°",
    "5815": "ä½å®",
    "5816": "oogle",
    "5817": "è½¬å",
    "5818": "æ¥å°",
    "5819": "çç»æµ",
    "5820": "çææ°",
    "5821": "çº²",
    "5822": "è¯ç©",
    "5823": "çæ",
    "5824": "ä½¿ç¨æ·",
    "5825": "å¾å¥½ç",
    "5826": "å®ææ¶",
    "5827": "æ¥æ¶",
    "5828": "åé©",
    "5829": "ug",
    "5830": "è°é¢",
    "5831": "æ¶",
    "5832": "est",
    "5833": "å±æ¬¡",
    "5834": "å½¢è±¡",
    "5835": "åå§",
    "5836": "å°è±¡",
    "5837": "å½è¿",
    "5838": "å¤§æ°æ®",
    "5839": "æ¼ç¤º",
    "5840": "æ¥æ±",
    "5841": "\"\"",
    "5842": "))",
    "5843": "nums",
    "5844": "å½",
    "5845": "è·",
    "5846": "å¶åº¦",
    "5847": "è§å®",
    "5848": "å¸è",
    "5849": "ä¼è´¨",
    "5850": "åè¾¨",
    "5851": "å¹¶è½å¤",
    "5852": "2021",
    "5853": "çº ",
    "5854": "é©¬æ¯",
    "5855": "ä¼¯ç¹",
    "5856": "åå»ºä¸ä¸ªåå«",
    "5857": "æ²¸",
    "5858": "æå¤©",
    "5859": "ç»å®æ°å­",
    "5860": "éæ",
    "5861": "å¬å¹³",
    "5862": "obot",
    "5863": "ll",
    "5864": "â",
    "5865": "to",
    "5866": "è¯¦ç»ä¿¡æ¯",
    "5867": "åä¸",
    "5868": "å¶ä¸­åæ¬",
    "5869": "ä»¥å¸®å©",
    "5870": "å¯é ç",
    "5871": "åå²",
    "5872": "åºç",
    "5873": " å å¥",
    "5874": "çåå­",
    "5875": "æ¯å¦",
    "5876": "æä¸¤ä¸ª",
    "5877": "äºè®®",
    "5878": "ful",
    "5879": "æ£®æç ä¼",
    "5880": "çä¸ªäºº",
    "5881": "è´",
    "5882": "è´è",
    "5883": "è´è¶",
    "5884": "å¼ç¨",
    "5885": "ççè§£",
    "5886": "å²",
    "5887": "é¢",
    "5888": "alse",
    "5889": "html",
    "5890": "tit",
    "5891": "title",
    "5892": "è¡ç®¡",
    "5893": "ays",
    "5894": "leng",
    "5895": "so",
    "5896": "é¸å¿",
    "5897": "äººä½",
    "5898": "äº¤ä»",
    "5899": "å¾å¬",
    "5900": "çæ³¨æ",
    "5901": "åè°",
    "5902": "Facebook",
    "5903": "Twitter",
    "5904": "ç§",
    "5905": "æ°æ¸©",
    "5906": "è¡",
    "5907": "æ®",
    "5908": "æ®æ¼",
    "5909": "ç½å",
    "5910": "å®ä¹",
    "5911": "ç»è¥",
    "5912": "æç",
    "5913": "ä¸­æ",
    "5914": "èè½",
    "5915": "ççç©",
    "5916": "åå²ä¸",
    "5917": "é¢åå¯¹è±¡",
    "5918": "ä»»ä½æ¶å",
    "5919": "çµå",
    "5920": "å¨ä»",
    "5921": "çæ¯æ",
    "5922": "å¾å¤§",
    "5923": "è¢«ç¨æ¥",
    "5924": "å¯å«",
    "5925": "ç¥å",
    "5926": "æå",
    "5927": "æ³",
    "5928": "wn",
    "5929": "çç½ç«",
    "5930": "eek",
    "5931": "å®¢æ",
    "5932": "æ",
    "5933": "åå±",
    "5934": "å§",
    "5935": "ç§æ",
    "5936": "åç¼©",
    "5937": "å°±å¯ä»¥",
    "5938": "ç±»ç",
    "5939": "çæ",
    "5940": "çä¸å",
    "5941": "çæå©",
    "5942": "èº«ä½å¥åº·",
    "5943": "ä¹å®¢",
    "5944": "ç",
    "5945": "çä¼½",
    "5946": "å¥¹å¨",
    "5947": "å°ºç ",
    "5948": "ä¹å",
    "5949": "å¯¹å¾",
    "5950": " fin",
    "5951": "æ®é",
    "5952": "ç¤ç",
    "5953": "         ",
    "5954": "ä¸é¢",
    "5955": "èæ¡",
    "5956": "æ¬§ç",
    "5957": "ç´",
    "5958": "ä¸ä»¶",
    "5959": "ç³å°¿",
    "5960": "ç³å°¿ç",
    "5961": "]ã",
    "5962": "å",
    "5963": "ordP",
    "5964": "ordPress",
    "5965": "lp",
    "5966": "ç©å½¢",
    "5967": "æå",
    "5968": "å°å¦ä¸ä¸ª",
    "5969": "è±ç",
    "5970": "å¯åº¦",
    "5971": "è®®é¢",
    "5972": "å³é®è¯",
    "5973": "åå±",
    "5974": "å¯å¨",
    "5975": "è¹",
    "5976": "è",
    "5977": "angu",
    "5978": "anguage",
    "5979": " æ¶é",
    "5980": "å¶é ä¸",
    "5981": "çç¢",
    "5982": "è¶³è¿¹",
    "5983": "å¬å±äº¤éå·¥å·",
    "5984": " å¯¹",
    "5985": "æé",
    "5986": "çä¾å­æ¯",
    "5987": "èµæ",
    "5988": "çé¡¹ç®",
    "5989": "å¹²é¢",
    "5990": "è¥¿ç­çè¯­",
    "5991": " len",
    "5992": "çå¤©æ°",
    "5993": "çç©å¤æ ·æ§",
    "5994": "çç",
    "5995": "è",
    "5996": "è",
    "5997": "èµ·ä¼",
    "5998": "QL",
    "5999": "ä»¥æ»¡è¶³",
    "6000": "çç¤¾äº¤",
    "6001": "æå",
    "6002": "æåº",
    "6003": "æ",
    "6004": "å°±ä¸æºä¼",
    "6005": "åæ¬¢è¿ç",
    "6006": "çé¢ç§¯",
    "6007": "æ¥é",
    "6008": " po",
    "6009": "è§è¿",
    "6010": "è¶³å¤ç",
    "6011": "GDP",
    "6012": "è",
    "6013": "ææ°",
    "6014": "è",
    "6015": "æ¢µ",
    "6016": "æå",
    "6017": "åç",
    "6018": "æ´»å",
    "6019": " her",
    "6020": "col",
    "6021": "ep",
    "6022": "æå¿é¡»",
    "6023": "å°æ ",
    "6024": "ä»¿ä½",
    "6025": "å¤",
    "6026": "æ¬",
    "6027": "ç¸äºä½ç¨",
    "6028": "æçµè¯",
    "6029": "çå¼ºå¤§",
    "6030": "åç»",
    "6031": "æ°æ®ä¸­å­¦ä¹ ",
    "6032": "å",
    "6033": "PA",
    "6034": "æ¡",
    "6035": "çæå¤§",
    "6036": "72",
    "6037": "HER",
    "6038": "HERE",
    "6039": " 100",
    "6040": "ææ",
    "6041": " å¦æ",
    "6042": "çæç»ª",
    "6043": "elf",
    "6044": "ell",
    "6045": "be",
    "6046": "æè¿ç",
    "6047": "ond",
    "6048": "ä»¤äººå´å¥",
    "6049": "ä¼",
    "6050": "å¥¢",
    "6051": "å¿½",
    "6052": "ç®ä»",
    "6053": "å¬å­é",
    "6054": "çé®å¥",
    "6055": " è¾åº",
    "6056": "ä¸è¶è¿",
    "6057": "åæ",
    "6058": "ç¸ä¼¼ä¹å¤",
    "6059": "å¸®å©æ¨",
    "6060": "é¢é²",
    "6061": "åºå»",
    "6062": "æä¸ºäº",
    "6063": "å¸¸å¸¸",
    "6064": "åº",
    "6065": "å¯è§",
    "6066": "æ",
    "6067": "èæç°å®",
    "6068": "éè¿å°",
    "6069": "æå¤",
    "6070": "å¯æ©å±",
    "6071": "ä¼ æ",
    "6072": "å¨çº¿å¹³å°",
    "6073": "ä»ä»¬å¯ä»¥",
    "6074": "è¿æå©äº",
    "6075": "çå¾å",
    "6076": "çæ¡",
    "6077": "åçé¡¿å·",
    "6078": "æ¡",
    "6079": "ANN",
    "6080": "ç¼ ",
    "6081": "é",
    "6082": "éå°",
    "6083": "é¹¿",
    "6084": "çé¦",
    "6085": "å°¾å·´",
    "6086": "æ ",
    "6087": "1000",
    "6088": "ç¨ä½",
    "6089": "ä¹",
    "6090": "æ³¨å",
    "6091": "çè§è²",
    "6092": "act",
    "6093": "ä¸æ",
    "6094": "é¥¥é¥¿",
    "6095": " ht",
    "6096": "the",
    "6097": "ã#",
    "6098": " time",
    "6099": " you",
    "6100": "que",
    "6101": "å®å®é£è¹",
    "6102": "çç",
    "6103": "é¥",
    "6104": "é¥è¿",
    "6105": "lice",
    "6106": "çæ¿",
    "6107": "ble",
    "6108": "æå»",
    "6109": "è",
    "6110": "èç®",
    "6111": "å¯ç",
    "6112": "ç»ä½ ",
    "6113": "çæ»å",
    "6114": "ated",
    "6115": "æ¤°",
    "6116": "æå¹´",
    "6117": "ä»£ä»·",
    "6118": "æ",
    "6119": "ä¹ è¯­",
    "6120": "åä¸å°",
    "6121": "äººé",
    "6122": "è",
    "6123": " 15",
    "6124": "å°æ¯",
    "6125": "çæå",
    "6126": " 16",
    "6127": "åä¼ä¸",
    "6128": "ä¸é¨",
    "6129": "çè½¯ä»¶",
    "6130": " ç¨",
    "6131": "è²",
    "6132": "è¡¨è¿°",
    "6133": "çæè§",
    "6134": "åé«",
    "6135": "å¯è½å¯¹",
    "6136": "æè¡è",
    "6137": "è¿ä½",
    "6138": "æ··ä¹±",
    "6139": "çå¼",
    "6140": "ä¸ä¸ªæ°å­",
    "6141": "ç",
    "6142": "çç¶",
    "6143": "ææ",
    "6144": "67",
    "6145": "å¤§æ",
    "6146": "æ¨",
    "6147": "ç«å",
    "6148": "åæ°",
    "6149": "çç",
    "6150": "çç­è¯­",
    "6151": "ä¸åç±»åç",
    "6152": "åè¡è¯",
    "6153": "å»",
    "6154": "çå¯¹è¯",
    "6155": "å¤",
    "6156": "è¤",
    "6157": "éé¢",
    "6158": " years",
    "6159": "å³å¨",
    "6160": "å¯è½å­å¨",
    "6161": "æ¶å¤±",
    "6162": "æ¬è´¨",
    "6163": "è§å°",
    "6164": "æ½",
    "6165": "åè¾¨ç",
    "6166": "æ°æ®å¯è§å",
    "6167": "å¸å¼å",
    "6168": "åçä»ä¹",
    "6169": "ç¡¬å¸",
    "6170": "éé",
    "6171": "åå¸å¼",
    "6172": "é»æä¸­",
    "6173": "æåå",
    "6174": " walk",
    "6175": "æ²¿ç",
    "6176": "çº³å¾·",
    "6177": "é¾",
    "6178": "ç¼æ¢",
    "6179": "å®å¾",
    "6180": "42",
    "6181": "æªæ­¢æ¥æ",
    "6182": "æä½",
    "6183": "éµå®",
    "6184": "å¬æ­£",
    "6185": " ä»",
    "6186": "é¢ç³",
    "6187": "cess",
    "6188": "èªç©º",
    "6189": " she",
    "6190": "ç­¹",
    "6191": "çæ",
    "6192": "æä»¬å¯ä»¥",
    "6193": "ped",
    "6194": "é¦æ",
    "6195": "ä»¥è·å¾",
    "6196": "èå¥",
    "6197": "ç«å¨",
    "6198": "ç£",
    "6199": "åæ³",
    "6200": "é½è½",
    "6201": "æ­",
    "6202": "çä¸",
    "6203": "çç©ºæ°",
    "6204": "çç¥ç§",
    "6205": "å­¦æ¯",
    "6206": "çæ ¸",
    "6207": "è¿æ¡",
    "6208": "çè·¯",
    "6209": "body",
    "6210": "çåè¡æ¤ç²",
    "6211": "éé»è²",
    "6212": "ool",
    "6213": "çå",
    "6214": "å",
    "6215": "æ­£åå",
    "6216": "çº¯",
    "6217": "è¿ä¸ªèä½",
    "6218": " ä½ è®¤ä¸º",
    "6219": "æäº®ç",
    "6220": "æ´é£",
    "6221": "é",
    "6222": "lt",
    "6223": "ET",
    "6224": "çè®¡ç®æº",
    "6225": "é¢æ¥",
    "6226": "ä½©",
    "6227": " else",
    "6228": "è®¤è¯",
    "6229": "æ å°½",
    "6230": "å°¤å¶",
    "6231": "63",
    "6232": "è",
    "6233": "è¿åºè¯¥",
    "6234": "æµ·æ",
    "6235": "å°è¿äº",
    "6236": "ä¿®è¾ææ³",
    "6237": "56",
    "6238": "æéå¸¸",
    "6239": "å¥",
    "6240": "ææ",
    "6241": "ä»å¹´",
    "6242": "ç£",
    "6243": "æè¯",
    "6244": "ç¾å¥½",
    "6245": "å¯ç¨æ§",
    "6246": "è¯¥æ¨¡å",
    "6247": "è",
    "6248": "èè",
    "6249": "èèª",
    "6250": "ç ç©¶è¡¨æ",
    "6251": "é©¬æ",
    "6252": "å»ååº",
    "6253": "ç±½",
    "6254": "ç ç©",
    "6255": "ç ç©æ",
    "6256": "ç ç©æç",
    "6257": "ç ç©æçå³°",
    "6258": "å¦ä½å½±å",
    "6259": "è¾¹å½¢",
    "6260": "ç",
    "6261": " name",
    "6262": "è¬èå",
    "6263": "èå¿",
    "6264": " blue",
    "6265": "ky",
    "6266": "ould",
    "6267": "èå°",
    "6268": "æµè§å¨",
    "6269": "å¨é¿",
    "6270": " Smith",
    "6271": "èè",
    "6272": "åæ°å",
    "6273": "æ¶¯",
    "6274": "ç®å",
    "6275": "å¼äººæ³¨",
    "6276": "ç",
    "6277": "çç¸",
    "6278": "å¤ªç©ºæ¢ç´¢",
    "6279": "è¿ä¸ªé¡¹ç®",
    "6280": "å¸æº",
    "6281": "è°·æ­",
    "6282": "çæ¦ç",
    "6283": "alax",
    "6284": "alaxy",
    "6285": "çæåº¦",
    "6286": "è¿å±±",
    "6287": "è¿å±±è½¦",
    "6288": "è¡¨æ¼",
    "6289": "95",
    "6290": "æåä»¬",
    "6291": "æ¯å å·",
    "6292": "çé£è°±",
    "6293": "åè",
    "6294": "å¸®å©äººä»¬",
    "6295": "å­¦ä¹ æ°",
    "6296": "ance",
    "6297": "ä¸ç¡®å®",
    "6298": "å¯è¯",
    "6299": "å¦¹",
    "6300": "æªæ¯",
    "6301": "ä¹ç¾",
    "6302": "è¯",
    "6303": "ä»ä¸ä¸ª",
    "6304": "åºç",
    "6305": "ç¦",
    "6306": "éä¼",
    "6307": "ä¿®æ­£æ¡",
    "6308": "cel",
    "6309": "è§åº¦",
    "6310": "æ°ä¸º",
    "6311": "è±çé±",
    "6312": "Â²",
    "6313": " gr",
    "6314": "æ³æ¡",
    "6315": "ä¸å°",
    "6316": "ç®å­",
    "6317": "ç",
    "6318": " éå¸¸",
    "6319": "åå©",
    "6320": "ä¿é",
    "6321": "å½»åºæ¹å",
    "6322": " å¢å ",
    "6323": "å¦å¤ªé³è½",
    "6324": "çæ¹",
    "6325": "è¿å¯ä»¥å¸®å©",
    "6326": "èªç¶èµæº",
    "6327": "å¯ä»¥å°",
    "6328": "è¿­",
    "6329": "å°è¢«",
    "6330": "ä»»å¡ç",
    "6331": "è¿äºæ°æ®",
    "6332": "ä¸ºç¨æ·",
    "6333": "import",
    "6334": "ä»¥ä¸æç« ",
    "6335": "çæ°å",
    "6336": "ç®æ",
    "6337": "ç½è²",
    "6338": "è§¦æ¸",
    "6339": "é®ç",
    "6340": "ä¹è½",
    "6341": "å¸¸è§",
    "6342": "æ é",
    "6343": " FROM",
    "6344": "å¾",
    "6345": "ä¸å®¢æ·",
    "6346": "åè¯æä»¬",
    "6347": "å®æå©äº",
    "6348": "ç»æµå¢é¿",
    "6349": "ååºä¸ä¸ª",
    "6350": "ä»¥ä¸æ®µè½",
    "6351": "ççµ",
    "6352": "è®¢é",
    "6353": "çäººç©",
    "6354": " stat",
    "6355": " his",
    "6356": " res",
    "6357": "che",
    "6358": "åçº¿",
    "6359": "å®",
    "6360": "å»ºè®¾",
    "6361": "åæµ·",
    "6362": "ç»ç»",
    "6363": "èå¥",
    "6364": "çç¬è¯",
    "6365": "åä»ä¹",
    "6366": "My",
    "6367": "rown",
    "6368": "It",
    "6369": "èµ°äº",
    "6370": "è¿åº§",
    "6371": "ä»é£",
    "6372": "å¿ä¸­",
    "6373": "ä»å°",
    "6374": "æ°¸è¿ä¸ä¼å¿è®°",
    "6375": "å¦ä½ä½¿ç¨",
    "6376": "æ¥ç¨",
    "6377": "å¯ä»¥å¸¦æ¥",
    "6378": "å®¢æ·æ»¡æåº¦",
    "6379": "æå¨",
    "6380": "æé®",
    "6381": "çè§è§",
    "6382": "åå¾",
    "6383": "å¹¶è¿å",
    "6384": "çåä¸è",
    "6385": "ial",
    "6386": "ball",
    "6387": "ove",
    "6388": "å¤´èé£æ´",
    "6389": "äººä»¬å¯ä»¥",
    "6390": "éè¿°",
    "6391": "ä¸ç¥ææª",
    "6392": "ä¹",
    "6393": "ç»ææ¶",
    "6394": "ç¸å³æ§",
    "6395": "äºé¡¹",
    "6396": "çå½¢ç¶",
    "6397": "çæ¨æ",
    "6398": "ä¸æ­åå",
    "6399": "å è¥",
    "6400": "<|endoftext|>",
    "6401": "<|padding|>",
    "6402": "<|user|>",
    "6403": "<|assistant|>",
    "6404": "<|end|>"
  },
  "merges": {
    "228,184": 256,
    "231,154": 257,
    "257,132": 258,
    "227,128": 259,
    "239,188": 260,
    "259,130": 261,
    "260,140": 262,
    "228,187": 263,
    "228,186": 264,
    "229,143": 265,
    "230,156": 266,
    "229,136": 267,
    "229,174": 268,
    "231,148": 269,
    "229,133": 270,
    "232,191": 271,
    "230,136": 272,
    "228,189": 273,
    "256,128": 274,
    "229,164": 275,
    "229,138": 276,
    "229,146": 277,
    "277,140": 278,
    "229,156": 279,
    "232,175": 280,
    "256,170": 281,
    "230,152": 282,
    "231,187": 283,
    "230,150": 284,
    "232,174": 285,
    "229,144": 286,
    "229,173": 287,
    "229,176": 288,
    "228,185": 289,
    "282,175": 290,
    "279,168": 291,
    "263,165": 292,
    "230,149": 293,
    "229,186": 294,
    "229,185": 295,
    "259,129": 296,
    "269,168": 297,
    "32,32": 298,
    "229,155": 299,
    "233,135": 300,
    "233,128": 301,
    "131,189": 302,
    "230,157": 303,
    "266,137": 304,
    "264,186": 305,
    "229,134": 306,
    "230,151": 307,
    "265,175": 308,
    "274,281": 309,
    "229,188": 310,
    "232,167": 311,
    "229,140": 312,
    "229,135": 313,
    "231,137": 314,
    "228,188": 315,
    "232,302": 316,
    "258,230": 317,
    "232,161": 318,
    "229,183": 319,
    "256,186": 320,
    "229,184": 321,
    "229,175": 322,
    "231,167": 323,
    "264,134": 324,
    "230,137": 325,
    "256,173": 326,
    "269,159": 327,
    "263,172": 328,
    "229,190": 329,
    "231,155": 330,
    "263,150": 331,
    "229,165": 332,
    "229,141": 333,
    "229,189": 334,
    "233,151": 335,
    "272,145": 336,
    "271,153": 337,
    "230,143": 338,
    "264,142": 339,
    "272,144": 340,
    "230,128": 341,
    "230,173": 342,
    "293,176": 343,
    "232,135": 344,
    "233,162": 345,
    "232,128": 346,
    "230,158": 347,
    "233,157": 348,
    "228,191": 349,
    "231,142": 350,
    "256,141": 351,
    "228,190": 352,
    "230,179": 353,
    "229,147": 354,
    "273,191": 355,
    "260,154": 356,
    "229,191": 357,
    "230,160": 358,
    "230,139": 359,
    "230,148": 360,
    "287,144": 361,
    "295,182": 362,
    "232,166": 363,
    "230,155": 364,
    "276,168": 365,
    "363,129": 366,
    "267,176": 367,
    "313,186": 368,
    "230,176": 369,
    "230,138": 370,
    "232,180": 371,
    "303,165": 372,
    "275,167": 373,
    "232,190": 374,
    "231,144": 375,
    "314,169": 376,
    "268,131": 377,
    "230,181": 378,
    "268,154": 379,
    "166,130": 380,
    "308,292": 381,
    "230,132": 382,
    "230,141": 383,
    "284,185": 384,
    "288,134": 385,
    "307,182": 386,
    "230,142": 387,
    "279,176": 388,
    "318,140": 389,
    "231,174": 390,
    "256,139": 391,
    "267,134": 392,
    "364,180": 393,
    "344,170": 394,
    "323,141": 395,
    "338,144": 396,
    "322,185": 397,
    "229,145": 398,
    "271,135": 399,
    "229,380": 400,
    "231,186": 401,
    "230,180": 402,
    "232,181": 403,
    "230,175": 404,
    "287,166": 405,
    "266,186": 406,
    "232,189": 407,
    "230,131": 408,
    "273,156": 409,
    "266,128": 410,
    "276,155": 411,
    "353,149": 412,
    "230,140": 413,
    "355,297": 414,
    "229,142": 415,
    "267,155": 416,
    "256,138": 417,
    "312,150": 418,
    "231,168": 419,
    "231,189": 420,
    "233,153": 421,
    "319,165": 422,
    "383,174": 423,
    "301,154": 424,
    "233,163": 425,
    "272,150": 426,
    "270,179": 427,
    "341,167": 428,
    "265,145": 429,
    "231,177": 430,
    "270,182": 431,
    "348,162": 432,
    "229,187": 433,
    "272,183": 434,
    "294,148": 435,
    "311,163": 436,
    "232,137": 437,
    "285,161": 438,
    "265,165": 439,
    "419,139": 440,
    "433,186": 441,
    "105,110": 442,
    "231,173": 443,
    "375,134": 444,
    "229,177": 445,
    "300,141": 446,
    "231,161": 447,
    "230,178": 448,
    "231,179": 449,
    "298,298": 450,
    "231,171": 451,
    "276,160": 452,
    "230,153": 453,
    "315,154": 454,
    "271,155": 455,
    "275,154": 456,
    "226,128": 457,
    "335,180": 458,
    "229,129": 459,
    "268,182": 460,
    "233,161": 461,
    "310,143": 462,
    "230,130": 463,
    "284,135": 464,
    "299,189": 465,
    "318,168": 466,
    "349,157": 467,
    "350,176": 468,
    "284,176": 469,
    "294,166": 470,
    "343,423": 471,
    "233,156": 472,
    "260,159": 473,
    "233,152": 474,
    "258,231": 475,
    "354,129": 476,
    "430,187": 477,
    "352,155": 478,
    "321,184": 479,
    "256,154": 480,
    "231,157": 481,
    "276,161": 482,
    "233,171": 483,
    "447,174": 484,
    "232,182": 485,
    "483,152": 486,
    "283,153": 487,
    "273,147": 488,
    "231,180": 489,
    "283,143": 490,
    "345,152": 491,
    "280,173": 492,
    "230,184": 493,
    "229,162": 494,
    "104,101": 495,
    "346,140": 496,
    "396,478": 497,
    "332,189": 498,
    "266,172": 499,
    "229,159": 500,
    "232,176": 501,
    "231,149": 502,
    "268,162": 503,
    "230,177": 504,
    "312,133": 505,
    "231,159": 506,
    "289,139": 507,
    "286,140": 508,
    "231,130": 509,
    "271,176": 510,
    "231,190": 511,
    "300,143": 512,
    "329,151": 513,
    "449,187": 514,
    "264,155": 515,
    "336,328": 516,
    "231,132": 517,
    "280,141": 518,
    "335,174": 519,
    "306,153": 520,
    "265,152": 521,
    "472,128": 522,
    "256,142": 523,
    "331,328": 524,
    "231,164": 525,
    "270,165": 526,
    "310,128": 527,
    "32,116": 528,
    "273,160": 529,
    "231,169": 530,
    "267,151": 531,
    "229,137": 532,
    "390,151": 533,
    "325,128": 534,
    "230,172": 535,
    "292,391": 536,
    "437,178": 537,
    "264,139": 538,
    "229,128": 539,
    "263,142": 540,
    "263,182": 541,
    "481,128": 542,
    "402,187": 543,
    "270,172": 544,
    "264,167": 545,
    "295,180": 546,
    "517,182": 547,
    "230,129": 548,
    "231,188": 549,
    "256,187": 550,
    "276,169": 551,
    "269,181": 552,
    "275,169": 553,
    "263,187": 554,
    "342,164": 555,
    "314,185": 556,
    "233,154": 557,
    "382,143": 558,
    "347,156": 559,
    "273,149": 560,
    "334,177": 561,
    "463,168": 562,
    "382,159": 563,
    "267,182": 564,
    "287,151": 565,
    "439,361": 566,
    "230,159": 567,
    "233,148": 568,
    "306,179": 569,
    "275,150": 570,
    "330,184": 571,
    "280,165": 572,
    "285,190": 573,
    "509,185": 574,
    "232,162": 575,
    "268,158": 576,
    "229,153": 577,
    "288,143": 578,
    "511,142": 579,
    "333,149": 580,
    "349,161": 581,
    "233,155": 582,
    "232,138": 583,
    "577,168": 584,
    "233,129": 585,
    "229,150": 586,
    "270,183": 587,
    "289,136": 588,
    "232,129": 589,
    "101,114": 590,
    "231,156": 591,
    "32,97": 592,
    "332,185": 593,
    "260,137": 594,
    "286,142": 595,
    "231,131": 596,
    "270,168": 597,
    "420,145": 598,
    "416,441": 599,
    "369,148": 600,
    "231,172": 601,
    "256,164": 602,
    "299,160": 603,
    "503,434": 604,
    "352,139": 605,
    "308,316": 606,
    "283,159": 607,
    "425,159": 608,
    "330,174": 609,
    "232,130": 610,
    "256,137": 611,
    "229,158": 612,
    "267,169": 613,
    "413,129": 614,
    "286,136": 615,
    "338,143": 616,
    "295,179": 617,
    "266,175": 618,
    "232,144": 619,
    "263,128": 620,
    "233,149": 621,
    "370,128": 622,
    "620,588": 623,
    "289,160": 624,
    "283,147": 625,
    "260,136": 626,
    "404,148": 627,
    "288,145": 628,
    "271,152": 629,
    "232,183": 630,
    "357,131": 631,
    "283,132": 632,
    "229,157": 633,
    "233,170": 634,
    "575,171": 635,
    "342,163": 636,
    "346,133": 637,
    "265,138": 638,
    "274,395": 639,
    "359,172": 640,
    "231,160": 641,
    "325,190": 642,
    "232,139": 643,
    "114,101": 644,
    "337,281": 645,
    "233,166": 646,
    "408,133": 647,
    "612,139": 648,
    "230,186": 649,
    "275,132": 650,
    "424,399": 651,
    "358,135": 652,
    "150,502": 653,
    "616,510": 654,
    "267,171": 655,
    "334,147": 656,
    "334,162": 657,
    "111,110": 658,
    "286,141": 659,
    "298,32": 660,
    "230,183": 661,
    "273,141": 662,
    "354,141": 663,
    "360,185": 664,
    "282,142": 665,
    "266,141": 666,
    "519,491": 667,
    "230,187": 668,
    "505,640": 669,
    "649,144": 670,
    "233,131": 671,
    "115,116": 672,
    "621,191": 673,
    "369,180": 674,
    "300,140": 675,
    "375,131": 676,
    "230,182": 677,
    "455,389": 678,
    "233,133": 679,
    "233,130": 680,
    "97,110": 681,
    "280,134": 682,
    "405,624": 683,
    "329,136": 684,
    "264,164": 685,
    "32,49": 686,
    "378,139": 687,
    "532,141": 688,
    "231,150": 689,
    "230,161": 690,
    "232,177": 691,
    "487,379": 692,
    "275,159": 693,
    "229,163": 694,
    "403,183": 695,
    "327,340": 696,
    "671,168": 697,
    "548,175": 698,
    "297,339": 699,
    "233,302": 700,
    "446,366": 701,
    "301,160": 702,
    "266,159": 703,
    "522,366": 704,
    "263,163": 705,
    "108,101": 706,
    "293,136": 707,
    "231,165": 708,
    "525,186": 709,
    "48,48": 710,
    "561,663": 711,
    "97,114": 712,
    "229,167": 713,
    "386,458": 714,
    "321,174": 715,
    "345,132": 716,
    "111,114": 717,
    "273,134": 718,
    "232,142": 719,
    "307,165": 720,
    "394,319": 721,
    "721,177": 722,
    "307,160": 723,
    "306,133": 724,
    "265,151": 725,
    "494,158": 726,
    "194,183": 727,
    "374,147": 728,
    "715,551": 729,
    "268,137": 730,
    "461,185": 731,
    "230,163": 732,
    "285,186": 733,
    "294,143": 734,
    "316,693": 735,
    "45,45": 736,
    "453,186": 737,
    "280,180": 738,
    "443,137": 739,
    "232,153": 740,
    "408,179": 741,
    "401,191": 742,
    "348,158": 743,
    "301,137": 744,
    "269,177": 745,
    "622,618": 746,
    "514,607": 747,
    "310,186": 748,
    "489,160": 749,
    "97,116": 750,
    "313,143": 751,
    "374,190": 752,
    "438,533": 753,
    "256,653": 754,
    "754,140": 755,
    "666,482": 756,
    "301,130": 757,
    "233,169": 758,
    "276,159": 759,
    "442,103": 760,
    "406,584": 761,
    "357,171": 762,
    "289,159": 763,
    "299,158": 764,
    "280,157": 765,
    "422,409": 766,
    "459,165": 767,
    "351,508": 768,
    "378,129": 769,
    "101,110": 770,
    "403,132": 771,
    "445,149": 772,
    "350,175": 773,
    "232,143": 774,
    "425,142": 775,
    "233,165": 776,
    "384,462": 777,
    "549,150": 778,
    "530,186": 779,
    "268,185": 780,
    "285,184": 781,
    "377,328": 782,
    "232,131": 783,
    "168,161": 784,
    "431,331": 785,
    "404,143": 786,
    "457,156": 787,
    "229,149": 788,
    "457,157": 789,
    "231,129": 790,
    "231,178": 791,
    "297,434": 792,
    "415,187": 793,
    "400,560": 794,
    "407,166": 795,
    "32,115": 796,
    "310,149": 797,
    "233,187": 798,
    "231,139": 799,
    "232,168": 800,
    "284,175": 801,
    "555,570": 802,
    "32,61": 803,
    "347,132": 804,
    "325,139": 805,
    "737,316": 806,
    "371,168": 807,
    "287,152": 808,
    "800,128": 809,
    "315,160": 810,
    "668,161": 811,
    "279,186": 812,
    "286,145": 813,
    "293,133": 814,
    "387,165": 815,
    "311,146": 816,
    "232,132": 817,
    "322,188": 818,
    "327,543": 819,
    "275,141": 820,
    "231,151": 821,
    "602,281": 822,
    "32,98": 823,
    "751,628": 824,
    "300,138": 825,
    "504,130": 826,
    "506,165": 827,
    "384,412": 828,
    "427,339": 829,
    "634,140": 830,
    "275,135": 831,
    "494,131": 832,
    "500,186": 833,
    "284,153": 834,
    "233,146": 835,
    "299,190": 836,
    "232,136": 837,
    "311,134": 838,
    "305,422": 839,
    "358,188": 840,
    "231,136": 841,
    "814,538": 842,
    "232,141": 843,
    "501,131": 844,
    "315,152": 845,
    "545,476": 846,
    "489,162": 847,
    "292,638": 848,
    "585,147": 849,
    "32,50": 850,
    "326,258": 851,
    "230,784": 852,
    "360,190": 853,
    "321,130": 854,
    "289,137": 855,
    "32,119": 856,
    "401,166": 857,
    "288,177": 858,
    "293,153": 859,
    "268,140": 860,
    "436,569": 861,
    "342,165": 862,
    "285,169": 863,
    "573,438": 864,
    "528,495": 865,
    "231,166": 866,
    "233,159": 867,
    "285,174": 868,
    "343,565": 869,
    "567,165": 870,
    "390,161": 871,
    "313,134": 872,
    "312,186": 873,
    "554,482": 874,
    "581,698": 875,
    "311,130": 876,
    "280,149": 877,
    "229,131": 878,
    "285,176": 879,
    "365,376": 880,
    "265,150": 881,
    "878,143": 882,
    "32,105": 883,
    "300,145": 884,
    "436,825": 885,
    "507,458": 886,
    "421,169": 887,
    "378,183": 888,
    "230,174": 889,
    "265,139": 890,
    "839,806": 891,
    "97,108": 892,
    "398,152": 893,
    "337,515": 894,
    "582,134": 895,
    "330,180": 896,
    "32,99": 897,
    "690,136": 898,
    "360,175": 899,
    "599,309": 900,
    "230,154": 901,
    "691,161": 902,
    "583,130": 903,
    "10,660": 904,
    "319,178": 905,
    "260,129": 906,
    "360,182": 907,
    "344,180": 908,
    "49,48": 909,
    "32,45": 910,
    "587,304": 911,
    "282,159": 912,
    "321,166": 913,
    "294,183": 914,
    "589,148": 915,
    "270,137": 916,
    "258,305": 917,
    "231,138": 918,
    "301,159": 919,
    "591,139": 920,
    "232,186": 921,
    "264,146": 922,
    "111,117": 923,
    "265,184": 924,
    "358,183": 925,
    "290,309": 926,
    "580,518": 927,
    "605,400": 928,
    "451,160": 929,
    "347,144": 930,
    "713,139": 931,
    "230,188": 932,
    "730,597": 933,
    "459,154": 934,
    "231,162": 935,
    "646,150": 936,
    "105,116": 937,
    "270,131": 938,
    "357,133": 939,
    "289,144": 940,
    "767,914": 941,
    "554,560": 942,
    "392,930": 943,
    "619,165": 944,
    "344,179": 945,
    "603,320": 946,
    "264,148": 947,
    "272,152": 948,
    "773,832": 949,
    "726,452": 950,
    "232,140": 951,
    "719,183": 952,
    "265,130": 953,
    "370,164": 954,
    "288,148": 955,
    "451,139": 956,
    "525,190": 957,
    "286,132": 958,
    "485,138": 959,
    "293,180": 960,
    "341,187": 961,
    "484,467": 962,
    "539,188": 963,
    "533,412": 964,
    "289,166": 965,
    "435,297": 966,
    "921,171": 967,
    "492,809": 968,
    "424,479": 969,
    "282,147": 970,
    "407,172": 971,
    "680,163": 972,
    "311,129": 973,
    "312,187": 974,
    "285,164": 975,
    "579,465": 976,
    "267,153": 977,
    "32,124": 978,
    "387,146": 979,
    "682,655": 980,
    "788,134": 981,
    "231,140": 982,
    "435,572": 983,
    "774,156": 984,
    "350,135": 985,
    "464,929": 986,
    "231,133": 987,
    "493,184": 988,
    "440,734": 989,
    "319,158": 990,
    "394,547": 991,
    "387,168": 992,
    "286,171": 993,
    "398,189": 994,
    "275,170": 995,
    "493,169": 996,
    "539,153": 997,
    "467,614": 998,
    "32,109": 999,
    "708,158": 1000,
    "290,639": 1001,
    "231,191": 1002,
    "743,479": 1003,
    "407,187": 1004,
    "322,134": 1005,
    "267,146": 1006,
    "465,460": 1007,
    "550,366": 1008,
    "323,145": 1009,
    "232,163": 1010,
    "506,173": 1011,
    "650,444": 1012,
    "390,128": 1013,
    "265,163": 1014,
    "270,133": 1015,
    "407,175": 1016,
    "101,100": 1017,
    "266,170": 1018,
    "281,305": 1019,
    "280,132": 1020,
    "263,183": 1021,
    "543,365": 1022,
    "371,185": 1023,
    "371,173": 1024,
    "360,191": 1025,
    "416,702": 1026,
    "265,170": 1027,
    "867,179": 1028,
    "271,144": 1029,
    "323,175": 1030,
    "358,185": 1031,
    "273,142": 1032,
    "290,274": 1033,
    "557,190": 1034,
    "415,159": 1035,
    "359,169": 1036,
    "259,138": 1037,
    "259,139": 1038,
    "521,418": 1039,
    "231,175": 1040,
    "544,924": 1041,
    "283,156": 1042,
    "97,115": 1043,
    "601,172": 1044,
    "744,1036": 1045,
    "586,156": 1046,
    "315,129": 1047,
    "230,164": 1048,
    "598,1042": 1049,
    "325,147": 1050,
    "359,137": 1051,
    "280,183": 1052,
    "450,450": 1053,
    "32,102": 1054,
    "347,129": 1055,
    "50,48": 1056,
    "270,139": 1057,
    "353,168": 1058,
    "464,499": 1059,
    "231,153": 1060,
    "448,161": 1061,
    "530,182": 1062,
    "232,145": 1063,
    "303,161": 1064,
    "256,148": 1065,
    "889,181": 1066,
    "229,148": 1067,
    "1047,480": 1068,
    "609,652": 1069,
    "821,133": 1070,
    "316,670": 1071,
    "256,190": 1072,
    "84,495": 1073,
    "535,162": 1074,
    "164,144": 1075,
    "283,136": 1076,
    "451,153": 1077,
    "531,466": 1078,
    "232,165": 1079,
    "1079,191": 1080,
    "233,1075": 1081,
    "611,281": 1082,
    "148,1062": 1083,
    "346,131": 1084,
    "753,406": 1085,
    "728,526": 1086,
    "111,109": 1087,
    "307,133": 1088,
    "586,132": 1089,
    "117,109": 1090,
    "429,468": 1091,
    "534,304": 1092,
    "568,128": 1093,
    "49,57": 1094,
    "781,456": 1095,
    "630,175": 1096,
    "266,155": 1097,
    "641,129": 1098,
    "818,908": 1099,
    "340,759": 1100,
    "661,177": 1101,
    "305,328": 1102,
    "642,367": 1103,
    "373,258": 1104,
    "689,151": 1105,
    "500,142": 1106,
    "303,131": 1107,
    "32,112": 1108,
    "311,137": 1109,
    "399,440": 1110,
    "264,171": 1111,
    "105,99": 1112,
    "290,623": 1113,
    "265,141": 1114,
    "398,179": 1115,
    "596,173": 1116,
    "266,136": 1117,
    "535,161": 1118,
    "230,146": 1119,
    "841,177": 1120,
    "230,144": 1121,
    "233,184": 1122,
    "420,174": 1123,
    "306,181": 1124,
    "286,184": 1125,
    "493,133": 1126,
    "498,258": 1127,
    "583,177": 1128,
    "229,139": 1129,
    "413,135": 1130,
    "1040,135": 1131,
    "477,648": 1132,
    "527,931": 1133,
    "474,179": 1134,
    "394,365": 1135,
    "398,138": 1136,
    "677,136": 1137,
    "345,134": 1138,
    "314,135": 1139,
    "347,151": 1140,
    "374,131": 1141,
    "271,156": 1142,
    "283,180": 1143,
    "233,147": 1144,
    "97,109": 1145,
    "643,177": 1146,
    "322,187": 1147,
    "317,131": 1148,
    "321,131": 1149,
    "396,486": 1150,
    "443,150": 1151,
    "291,742": 1152,
    "267,135": 1153,
    "679,141": 1154,
    "1061,304": 1155,
    "415,134": 1156,
    "641,1083": 1157,
    "484,379": 1158,
    "229,161": 1159,
    "299,173": 1160,
    "270,177": 1161,
    "32,34": 1162,
    "453,175": 1163,
    "1016,541": 1164,
    "438,1006": 1165,
    "101,115": 1166,
    "232,155": 1167,
    "275,180": 1168,
    "860,340": 1169,
    "303,130": 1170,
    "613,297": 1171,
    "716,687": 1172,
    "263,189": 1173,
    "114,111": 1174,
    "524,258": 1175,
    "274,515": 1176,
    "732,128": 1177,
    "306,141": 1178,
    "527,429": 1179,
    "387,162": 1180,
    "485,179": 1181,
    "317,132": 1182,
    "288,189": 1183,
    "264,154": 1184,
    "229,130": 1185,
    "392,477": 1186,
    "905,490": 1187,
    "32,111": 1188,
    "610,178": 1189,
    "758,172": 1190,
    "354,170": 1191,
    "230,191": 1192,
    "369,145": 1193,
    "270,136": 1194,
    "520,274": 1195,
    "528,111": 1196,
    "316,411": 1197,
    "545,327": 1198,
    "886,258": 1199,
    "731,609": 1200,
    "571,427": 1201,
    "32,110": 1202,
    "341,157": 1203,
    "557,143": 1204,
    "265,176": 1205,
    "289,176": 1206,
    "448,187": 1207,
    "256,189": 1208,
    "552,561": 1209,
    "266,139": 1210,
    "761,305": 1211,
    "605,361": 1212,
    "952,513": 1213,
    "189,156": 1214,
    "32,100": 1215,
    "398,168": 1216,
    "1210,890": 1217,
    "694,171": 1218,
    "280,187": 1219,
    "295,191": 1220,
    "370,149": 1221,
    "272,143": 1222,
    "736,736": 1223,
    "547,595": 1224,
    "403,176": 1225,
    "378,142": 1226,
    "918,182": 1227,
    "32,104": 1228,
    "563,367": 1229,
    "303,175": 1230,
    "283,134": 1231,
    "299,155": 1232,
    "341,129": 1233,
    "448,185": 1234,
    "474,159": 1235,
    "597,676": 1236,
    "32,65": 1237,
    "490,1226": 1238,
    "305,477": 1239,
    "329,183": 1240,
    "601,166": 1241,
    "444,436": 1242,
    "256,147": 1243,
    "866,187": 1244,
    "330,138": 1245,
    "97,99": 1246,
    "562,258": 1247,
    "271,145": 1248,
    "299,180": 1249,
    "598,1077": 1250,
    "1031,423": 1251,
    "101,108": 1252,
    "400,559": 1253,
    "405,327": 1254,
    "383,162": 1255,
    "799,172": 1256,
    "283,173": 1257,
    "500,159": 1258,
    "117,116": 1259,
    "421,141": 1260,
    "294,151": 1261,
    "32,442": 1262,
    "323,187": 1263,
    "332,135": 1264,
    "299,162": 1265,
    "340,320": 1266,
    "284,173": 1267,
    "1185,168": 1268,
    "313,160": 1269,
    "531,368": 1270,
    "385,536": 1271,
    "342,140": 1272,
    "694,176": 1273,
    "230,145": 1274,
    "619,189": 1275,
    "229,168": 1276,
    "275,177": 1277,
    "317,138": 1278,
    "105,115": 1279,
    "110,100": 1280,
    "589,140": 1281,
    "1167,139": 1282,
    "1024,1206": 1283,
    "636,291": 1284,
    "722,258": 1285,
    "264,140": 1286,
    "467,954": 1287,
    "485,163": 1288,
    "95,95": 1289,
    "958,395": 1290,
    "271,158": 1291,
    "445,177": 1292,
    "1015,811": 1293,
    "340,499": 1294,
    "359,165": 1295,
    "358,145": 1296,
    "420,151": 1297,
    "230,133": 1298,
    "852,648": 1299,
    "304,707": 1300,
    "384,432": 1301,
    "576,468": 1302,
    "469,258": 1303,
    "1192,128": 1304,
    "276,191": 1305,
    "280,151": 1306,
    "285,191": 1307,
    "258,711": 1308,
    "327,376": 1309,
    "550,491": 1310,
    "505,993": 1311,
    "32,51": 1312,
    "274,695": 1313,
    "108,111": 1314,
    "697,392": 1315,
    "32,644": 1316,
    "816,537": 1317,
    "974,1105": 1318,
    "1106,854": 1319,
    "311,132": 1320,
    "303,144": 1321,
    "761,683": 1322,
    "282,190": 1323,
    "258,777": 1324,
    "664,1089": 1325,
    "696,309": 1326,
    "759,316": 1327,
    "384,898": 1328,
    "32,10": 1329,
    "352,191": 1330,
    "633,135": 1331,
    "938,749": 1332,
    "303,190": 1333,
    "798,132": 1334,
    "1010,133": 1335,
    "393,456": 1336,
    "643,185": 1337,
    "1337,559": 1338,
    "32,52": 1339,
    "430,179": 1340,
    "117,114": 1341,
    "859,1189": 1342,
    "966,989": 1343,
    "591,159": 1344,
    "427,514": 1345,
    "728,368": 1346,
    "229,170": 1347,
    "520,309": 1348,
    "820,1170": 1349,
    "284,189": 1350,
    "374,185": 1351,
    "333,179": 1352,
    "724,780": 1353,
    "402,139": 1354,
    "260,155": 1355,
    "596,164": 1356,
    "410,1076": 1357,
    "317,160": 1358,
    "1147,642": 1359,
    "357,181": 1360,
    "413,137": 1361,
    "333,176": 1362,
    "233,190": 1363,
    "487,368": 1364,
    "899,614": 1365,
    "625,559": 1366,
    "441,868": 1367,
    "872,484": 1368,
    "987,167": 1369,
    "264,137": 1370,
    "422,587": 1371,
    "600,997": 1372,
    "569,1151": 1373,
    "370,165": 1374,
    "101,116": 1375,
    "263,164": 1376,
    "374,145": 1377,
    "504,189": 1378,
    "32,83": 1379,
    "790,171": 1380,
    "632,340": 1381,
    "324,274": 1382,
    "258,274": 1383,
    "415,139": 1384,
    "485,133": 1385,
    "97,121": 1386,
    "231,170": 1387,
    "1180,847": 1388,
    "1009,405": 1389,
    "276,177": 1390,
    "315,151": 1391,
    "771,670": 1392,
    "231,143": 1393,
    "265,183": 1394,
    "1347,146": 1395,
    "229,178": 1396,
    "286,172": 1397,
    "740,154": 1398,
    "445,130": 1399,
    "283,135": 1400,
    "531,1072": 1401,
    "1046,1074": 1402,
    "516,258": 1403,
    "97,100": 1404,
    "1307,519": 1405,
    "1295,304": 1406,
    "791,190": 1407,
    "410,595": 1408,
    "439,765": 1409,
    "359,159": 1410,
    "466,752": 1411,
    "429,772": 1412,
    "791,137": 1413,
    "387,167": 1414,
    "323,176": 1415,
    "265,166": 1416,
    "376,476": 1417,
    "345,145": 1418,
    "105,108": 1419,
    "280,129": 1420,
    "629,381": 1421,
    "988,1222": 1422,
    "1188,102": 1423,
    "1148,133": 1424,
    "230,162": 1425,
    "521,513": 1426,
    "762,919": 1427,
    "295,178": 1428,
    "336,258": 1429,
    "664,521": 1430,
    "300,135": 1431,
    "740,145": 1432,
    "270,180": 1433,
    "65,73": 1434,
    "625,804": 1435,
    "1060,189": 1436,
    "258,842": 1437,
    "299,176": 1438,
    "286,166": 1439,
    "329,129": 1440,
    "488,830": 1441,
    "947,281": 1442,
    "632,1400": 1443,
    "230,169": 1444,
    "461,187": 1445,
    "1265,1235": 1446,
    "331,258": 1447,
    "321,136": 1448,
    "568,153": 1449,
    "443,653": 1450,
    "1450,165": 1451,
    "995,1134": 1452,
    "278,785": 1453,
    "552,361": 1454,
    "798,145": 1455,
    "843,137": 1456,
    "233,188": 1457,
    "1378,795": 1458,
    "421,144": 1459,
    "332,179": 1460,
    "323,152": 1461,
    "1395,488": 1462,
    "786,281": 1463,
    "270,129": 1464,
    "233,186": 1465,
    "393,452": 1466,
    "568,174": 1467,
    "315,176": 1468,
    "406,454": 1469,
    "232,147": 1470,
    "397,339": 1471,
    "105,658": 1472,
    "265,178": 1473,
    "932,148": 1474,
    "1464,781": 1475,
    "551,339": 1476,
    "332,182": 1477,
    "233,178": 1478,
    "522,826": 1479,
    "324,309": 1480,
    "404,141": 1481,
    "1214,291": 1482,
    "275,156": 1483,
    "32,40": 1484,
    "317,128": 1485,
    "421,164": 1486,
    "230,380": 1487,
    "939,1445": 1488,
    "112,112": 1489,
    "544,1160": 1490,
    "330,145": 1491,
    "1135,418": 1492,
    "453,154": 1493,
    "871,444": 1494,
    "634,164": 1495,
    "362,1065": 1496,
    "304,1476": 1497,
    "329,174": 1498,
    "608,376": 1499,
    "335,168": 1500,
    "105,100": 1501,
    "269,187": 1502,
    "288,188": 1503,
    "428,258": 1504,
    "817,145": 1505,
    "457,148": 1506,
    "770,116": 1507,
    "317,176": 1508,
    "329,128": 1509,
    "285,178": 1510,
    "535,190": 1511,
    "957,685": 1512,
    "443,148": 1513,
    "975,320": 1514,
    "322,140": 1515,
    "808,1268": 1516,
    "327,545": 1517,
    "396,368": 1518,
    "276,170": 1519,
    "1519,411": 1520,
    "692,258": 1521,
    "567,144": 1522,
    "116,104": 1523,
    "425,158": 1524,
    "1063,151": 1525,
    "333,135": 1526,
    "337,395": 1527,
    "305,258": 1528,
    "680,174": 1529,
    "732,174": 1530,
    "534,522": 1531,
    "776,174": 1532,
    "280,175": 1533,
    "745,339": 1534,
    "775,887": 1535,
    "258,1212": 1536,
    "389,320": 1537,
    "261,34": 1538,
    "232,184": 1539,
    "768,258": 1540,
    "557,144": 1541,
    "32,67": 1542,
    "1030,1055": 1543,
    "342,162": 1544,
    "388,676": 1545,
    "312,153": 1546,
    "32,291": 1547,
    "294,156": 1548,
    "32,80": 1549,
    "270,187": 1550,
    "346,129": 1551,
    "408,138": 1552,
    "944,1093": 1553,
    "1029,365": 1554,
    "355,431": 1555,
    "371,162": 1556,
    "1372,1039": 1557,
    "636,484": 1558,
    "627,1141": 1559,
    "590,115": 1560,
    "32,672": 1561,
    "273,143": 1562,
    "1387,129": 1563,
    "231,134": 1564,
    "232,148": 1565,
    "258,828": 1566,
    "861,1328": 1567,
    "229,160": 1568,
    "606,454": 1569,
    "304,427": 1570,
    "833,339": 1571,
    "808,291": 1572,
    "506,179": 1573,
    "1529,541": 1574,
    "452,526": 1575,
    "866,143": 1576,
    "402,178": 1577,
    "573,831": 1578,
    "230,147": 1579,
    "381,729": 1580,
    "536,566": 1581,
    "883,115": 1582,
    "461,190": 1583,
    "367,324": 1584,
    "647,1124": 1585,
    "1025,1548": 1586,
    "279,159": 1587,
    "32,53": 1588,
    "630,159": 1589,
    "646,153": 1590,
    "348,153": 1591,
    "564,379": 1592,
    "321,140": 1593,
    "258,410": 1594,
    "450,660": 1595,
    "145,948": 1596,
    "549,186": 1597,
    "1138,1258": 1598,
    "268,179": 1599,
    "1291,815": 1600,
    "32,43": 1601,
    "274,553": 1602,
    "441,956": 1603,
    "507,274": 1604,
    "324,436": 1605,
    "913,372": 1606,
    "329,133": 1607,
    "608,476": 1608,
    "661,183": 1609,
    "350,169": 1610,
    "345,156": 1611,
    "529,258": 1612,
    "901,150": 1613,
    "49,50": 1614,
    "306,176": 1615,
    "1122,161": 1616,
    "411,512": 1617,
    "294,149": 1618,
    "1177,687": 1619,
    "32,103": 1620,
    "1611,537": 1621,
    "370,138": 1622,
    "272,191": 1623,
    "701,258": 1624,
    "459,135": 1625,
    "232,156": 1626,
    "333,143": 1627,
    "1048,141": 1628,
    "538,541": 1629,
    "300,142": 1630,
    "474,133": 1631,
    "101,99": 1632,
    "371,159": 1633,
    "258,309": 1634,
    "1018,372": 1635,
    "232,151": 1636,
    "448,153": 1637,
    "306,183": 1638,
    "705,1098": 1639,
    "306,146": 1640,
    "333,161": 1641,
    "569,379": 1642,
    "835,159": 1643,
    "283,131": 1644,
    "872,831": 1645,
    "594,262": 1646,
    "1221,771": 1647,
    "429,327": 1648,
    "553,779": 1649,
    "915,514": 1650,
    "837,170": 1651,
    "854,812": 1652,
    "453,174": 1653,
    "369,184": 1654,
    "264,174": 1655,
    "270,141": 1656,
    "285,168": 1657,
    "677,137": 1658,
    "953,523": 1659,
    "556,379": 1660,
    "1084,1432": 1661,
    "399,793": 1662,
    "333,129": 1663,
    "364,178": 1664,
    "437,175": 1665,
    "511,164": 1666,
    "310,160": 1667,
    "258,471": 1668,
    "486,707": 1669,
    "508,386": 1670,
    "263,138": 1671,
    "317,173": 1672,
    "349,174": 1673,
    "1125,797": 1674,
    "333,177": 1675,
    "308,1178": 1676,
    "1676,327": 1677,
    "334,146": 1678,
    "103,101": 1679,
    "232,146": 1680,
    "118,101": 1681,
    "431,326": 1682,
    "633,151": 1683,
    "310,130": 1684,
    "1398,1410": 1685,
    "1465,166": 1686,
    "268,164": 1687,
    "349,131": 1688,
    "232,158": 1689,
    "1321,834": 1690,
    "319,167": 1691,
    "320,623": 1692,
    "474,191": 1693,
    "32,87": 1694,
    "421,133": 1695,
    "32,108": 1696,
    "111,108": 1697,
    "319,168": 1698,
    "498,650": 1699,
    "1658,638": 1700,
    "862,1495": 1701,
    "317,137": 1702,
    "353,162": 1703,
    "1470,157": 1704,
    "329,139": 1705,
    "915,598": 1706,
    "778,1377": 1707,
    "1449,1533": 1708,
    "416,558": 1709,
    "287,169": 1710,
    "1276,129": 1711,
    "604,756": 1712,
    "294,147": 1713,
    "446,469": 1714,
    "371,163": 1715,
    "333,142": 1716,
    "314,155": 1717,
    "306,156": 1718,
    "633,154": 1719,
    "617,1205": 1720,
    "411,258": 1721,
    "1002,176": 1722,
    "393,498": 1723,
    "318,161": 1724,
    "657,462": 1725,
    "325,167": 1726,
    "1191,515": 1727,
    "567,147": 1728,
    "304,1288": 1729,
    "857,1722": 1730,
    "530,191": 1731,
    "307,169": 1732,
    "535,167": 1733,
    "723,412": 1734,
    "556,1440": 1735,
    "982,171": 1736,
    "294,173": 1737,
    "540,496": 1738,
    "265,182": 1739,
    "280,137": 1740,
    "263,152": 1741,
    "592,1280": 1742,
    "827,849": 1743,
    "409,297": 1744,
    "32,60": 1745,
    "474,178": 1746,
    "117,115": 1747,
    "708,168": 1748,
    "273,179": 1749,
    "565,1241": 1750,
    "316,512": 1751,
    "101,120": 1752,
    "437,186": 1753,
    "609,258": 1754,
    "315,188": 1755,
    "427,1467": 1756,
    "442,116": 1757,
    "114,105": 1758,
    "334,149": 1759,
    "280,154": 1760,
    "401,162": 1761,
    "1565,172": 1762,
    "1762,984": 1763,
    "1021,840": 1764,
    "333,154": 1765,
    "230,1482": 1766,
    "1183,871": 1767,
    "319,180": 1768,
    "1129,135": 1769,
    "610,137": 1770,
    "32,529": 1771,
    "231,135": 1772,
    "1478,156": 1773,
    "388,384": 1774,
    "156,847": 1775,
    "564,409": 1776,
    "1020,1468": 1777,
    "1278,128": 1778,
    "116,1341": 1779,
    "280,190": 1780,
    "1263,365": 1781,
    "691,134": 1782,
    "1677,1071": 1783,
    "304,309": 1784,
    "757,656": 1785,
    "159,424": 1786,
    "1376,305": 1787,
    "290,1439": 1788,
    "32,71": 1789,
    "996,470": 1790,
    "467,767": 1791,
    "1260,1032": 1792,
    "317,148": 1793,
    "1689,141": 1794,
    "118,590": 1795,
    "404,146": 1796,
    "258,701": 1797,
    "805,406": 1798,
    "594,261": 1799,
    "769,389": 1800,
    "991,968": 1801,
    "280,162": 1802,
    "957,454": 1803,
    "256,156": 1804,
    "333,151": 1805,
    "32,73": 1806,
    "1182,143": 1807,
    "356,34": 1808,
    "460,1737": 1809,
    "348,160": 1810,
    "379,855": 1811,
    "1631,1219": 1812,
    "117,108": 1813,
    "258,1008": 1814,
    "464,418": 1815,
    "258,566": 1816,
    "617,1331": 1817,
    "351,1267": 1818,
    "233,134": 1819,
    "934,368": 1820,
    "401,167": 1821,
    "413,1596": 1822,
    "780,970": 1823,
    "232,133": 1824,
    "288,138": 1825,
    "922,1706": 1826,
    "231,147": 1827,
    "1726,389": 1828,
    "687,877": 1829,
    "836,882": 1830,
    "971,1255": 1831,
    "343,512": 1832,
    "271,189": 1833,
    "392,1643": 1834,
    "592,114": 1835,
    "315,145": 1836,
    "603,555": 1837,
    "449,150": 1838,
    "416,409": 1839,
    "229,132": 1840,
    "1640,887": 1841,
    "286,131": 1842,
    "357,151": 1843,
    "528,104": 1844,
    "264,145": 1845,
    "1156,1473": 1846,
    "776,188": 1847,
    "582,168": 1848,
    "1414,564": 1849,
    "1318,1791": 1850,
    "266,168": 1851,
    "838,1418": 1852,
    "286,151": 1853,
    "1204,542": 1854,
    "317,142": 1855,
    "381,651": 1856,
    "303,159": 1857,
    "233,185": 1858,
    "1840,191": 1859,
    "951,182": 1860,
    "959,372": 1861,
    "1861,959": 1862,
    "1119,176": 1863,
    "1323,709": 1864,
    "303,191": 1865,
    "1121,1775": 1866,
    "1512,1462": 1867,
    "274,896": 1868,
    "1011,492": 1869,
    "263,141": 1870,
    "394,336": 1871,
    "939,366": 1872,
    "329,170": 1873,
    "810,607": 1874,
    "501,162": 1875,
    "710,48": 1876,
    "490,830": 1877,
    "1000,490": 1878,
    "410,1248": 1879,
    "274,662": 1880,
    "111,116": 1881,
    "335,187": 1882,
    "1067,174": 1883,
    "772,709": 1884,
    "466,709": 1885,
    "351,308": 1886,
    "1530,1140": 1887,
    "53,48": 1888,
    "935,179": 1889,
    "647,563": 1890,
    "317,184": 1891,
    "32,70": 1892,
    "1454,1574": 1893,
    "115,101": 1894,
    "294,167": 1895,
    "317,380": 1896,
    "967,488": 1897,
    "1384,411": 1898,
    "611,816": 1899,
    "611,395": 1900,
    "532,167": 1901,
    "807,512": 1902,
    "504,161": 1903,
    "502,140": 1904,
    "1539,170": 1905,
    "783,140": 1906,
    "1628,376": 1907,
    "229,166": 1908,
    "409,320": 1909,
    "981,480": 1910,
    "327,994": 1911,
    "901,151": 1912,
    "335,170": 1913,
    "258,1110": 1914,
    "1779,110": 1915,
    "112,1259": 1916,
    "1899,657": 1917,
    "661,187": 1918,
    "283,167": 1919,
    "1609,615": 1920,
    "389,480": 1921,
    "696,274": 1922,
    "856,1043": 1923,
    "391,432": 1924,
    "552,1505": 1925,
    "330,150": 1926,
    "468,291": 1927,
    "32,77": 1928,
    "1021,963": 1929,
    "497,324": 1930,
    "101,102": 1931,
    "544,1161": 1932,
    "1186,320": 1933,
    "981,1261": 1934,
    "642,368": 1935,
    "593,258": 1936,
    "1054,717": 1937,
    "502,153": 1938,
    "755,417": 1939,
    "1088,389": 1940,
    "951,131": 1941,
    "305,1014": 1942,
    "230,185": 1943,
    "332,150": 1944,
    "111,111": 1945,
    "907,895": 1946,
    "757,435": 1947,
    "1002,187": 1948,
    "105,109": 1949,
    "41,58": 1950,
    "546,1004": 1951,
    "641,180": 1952,
    "415,133": 1953,
    "371,167": 1954,
    "1753,618": 1955,
    "844,870": 1956,
    "946,377": 1957,
    "381,414": 1958,
    "289,142": 1959,
    "369,167": 1960,
    "1070,1796": 1961,
    "601,148": 1962,
    "233,173": 1963,
    "589,154": 1964,
    "1358,135": 1965,
    "1316,1915": 1966,
    "1657,733": 1967,
    "461,181": 1968,
    "110,1090": 1969,
    "783,156": 1970,
    "32,66": 1971,
    "256,135": 1972,
    "372,394": 1973,
    "1903,1728": 1974,
    "258,469": 1975,
    "330,152": 1976,
    "896,367": 1977,
    "838,1109": 1978,
    "901,180": 1979,
    "1298,162": 1980,
    "97,120": 1981,
    "256,178": 1982,
    "421,136": 1983,
    "1983,510": 1984,
    "779,600": 1985,
    "1457,147": 1986,
    "402,129": 1987,
    "843,144": 1988,
    "1393,173": 1989,
    "364,190": 1990,
    "10,32": 1991,
    "1195,1131": 1992,
    "757,615": 1993,
    "49,56": 1994,
    "256,150": 1995,
    "537,258": 1996,
    "1144,190": 1997,
    "384,440": 1998,
    "428,278": 1999,
    "372,670": 2000,
    "401,179": 2001,
    "1918,452": 2002,
    "265,164": 2003,
    "1556,482": 2004,
    "1363,153": 2005,
    "685,424": 2006,
    "1801,1012": 2007,
    "586,187": 2008,
    "357,160": 2009,
    "401,170": 2010,
    "1126,580": 2011,
    "1564,159": 2012,
    "662,1123": 2013,
    "827,682": 2014,
    "422,440": 2015,
    "823,101": 2016,
    "32,495": 2017,
    "267,187": 2018,
    "645,566": 2019,
    "501,136": 2020,
    "32,35": 2021,
    "852,462": 2022,
    "47,47": 2023,
    "256,180": 2024,
    "778,440": 2025,
    "353,155": 2026,
    "320,324": 2027,
    "256,165": 2028,
    "601,145": 2029,
    "475,164": 2030,
    "664,520": 2031,
    "1593,1097": 2032,
    "285,173": 2033,
    "263,139": 2034,
    "32,84": 2035,
    "114,97": 2036,
    "276,158": 2037,
    "1636,143": 2038,
    "354,136": 2039,
    "291,1313": 2040,
    "289,152": 2041,
    "1583,503": 2042,
    "104,116": 2043,
    "1013,580": 2044,
    "1431,881": 2045,
    "313,189": 2046,
    "992,1988": 2047,
    "700,290": 2048,
    "479,973": 2049,
    "108,121": 2050,
    "117,110": 2051,
    "591,129": 2052,
    "301,129": 2053,
    "507,688": 2054,
    "656,688": 2055,
    "1053,660": 2056,
    "392,1111": 2057,
    "270,184": 2058,
    "1919,1257": 2059,
    "585,191": 2060,
    "705,466": 2061,
    "1532,608": 2062,
    "317,153": 2063,
    "258,714": 2064,
    "707,985": 2065,
    "351,454": 2066,
    "845,418": 2067,
    "758,182": 2068,
    "311,166": 2069,
    "578,738": 2070,
    "276,179": 2071,
    "738,665": 2072,
    "565,1481": 2073,
    "1182,159": 2074,
    "811,558": 2075,
    "337,290": 2076,
    "293,163": 2077,
    "365,518": 2078,
    "1579,141": 2079,
    "602,395": 2080,
    "345,157": 2081,
    "1067,177": 2082,
    "231,145": 2083,
    "1035,603": 2084,
    "720,479": 2085,
    "390,177": 2086,
    "388,873": 2087,
    "258,766": 2088,
    "463,163": 2089,
    "758,190": 2090,
    "1444,153": 2091,
    "317,181": 2092,
    "373,613": 2093,
    "726,673": 2094,
    "603,749": 2095,
    "105,103": 2096,
    "1281,480": 2097,
    "387,170": 2098,
    "377,629": 2099,
    "385,431": 2100,
    "373,512": 2101,
    "679,177": 2102,
    "233,177": 2103,
    "2103,188": 2104,
    "1243,1058": 2105,
    "315,164": 2106,
    "557,156": 2107,
    "2046,343": 2108,
    "844,960": 2109,
    "190,1070": 2110,
    "1201,258": 2111,
    "1831,320": 2112,
    "98,590": 2113,
    "279,134": 2114,
    "549,147": 2115,
    "49,49": 2116,
    "306,178": 2117,
    "445,128": 2118,
    "329,132": 2119,
    "295,184": 2120,
    "625,1857": 2121,
    "695,372": 2122,
    "1159,145": 2123,
    "614,1257": 2124,
    "1220,2026": 2125,
    "432,1030": 2126,
    "459,143": 2127,
    "303,176": 2128,
    "1081,1953": 2129,
    "99,104": 2130,
    "833,447": 2131,
    "2131,128": 2132,
    "49,710": 2133,
    "1438,1034": 2134,
    "919,470": 2135,
    "451,158": 2136,
    "461,191": 2137,
    "270,176": 2138,
    "1122,159": 2139,
    "799,151": 2140,
    "538,576": 2141,
    "622,316": 2142,
    "1772,131": 2143,
    "790,181": 2144,
    "1111,725": 2145,
    "268,135": 2146,
    "850,48": 2147,
    "475,159": 2148,
    "1723,388": 2149,
    "1896,1360": 2150,
    "448,1786": 2151,
    "10,1595": 2152,
    "471,1713": 2153,
    "538,647": 2154,
    "504,164": 2155,
    "274,925": 2156,
    "918,175": 2157,
    "1750,1982": 2158,
    "585,135": 2159,
    "944,1550": 2160,
    "288,129": 2161,
    "348,169": 2162,
    "485,139": 2163,
    "313,187": 2164,
    "446,820": 2165,
    "936,1194": 2166,
    "32,48": 2167,
    "475,172": 2168,
    "837,146": 2169,
    "932,171": 2170,
    "804,441": 2171,
    "258,819": 2172,
    "657,780": 2173,
    "778,1348": 2174,
    "285,162": 2175,
    "99,1087": 2176,
    "681,100": 2177,
    "32,121": 2178,
    "107,101": 2179,
    "397,765": 2180,
    "288,157": 2181,
    "280,186": 2182,
    "445,158": 2183,
    "513,367": 2184,
    "667,258": 2185,
    "322,159": 2186,
    "468,576": 2187,
    "658,101": 2188,
    "835,177": 2189,
    "1671,553": 2190,
    "275,171": 2191,
    "350,139": 2192,
    "398,188": 2193,
    "32,278": 2194,
    "1007,1490": 2195,
    "281,428": 2196,
    "492,412": 2197,
    "961,625": 2198,
    "337,925": 2199,
    "1489,706": 2200,
    "1215,111": 2201,
    "49,53": 2202,
    "49,55": 2203,
    "258,373": 2204,
    "471,895": 2205,
    "1835,114": 2206,
    "351,290": 2207,
    "129,258": 2208,
    "394,745": 2209,
    "1522,515": 2210,
    "979,531": 2211,
    "377,258": 2212,
    "2163,1305": 2213,
    "1941,1249": 2214,
    "1048,146": 2215,
    "32,82": 2216,
    "317,180": 2217,
    "490,479": 2218,
    "689,2110": 2219,
    "1119,173": 2220,
    "1020,733": 2221,
    "283,157": 2222,
    "1963,148": 2223,
    "960,281": 2224,
    "615,409": 2225,
    "987,174": 2226,
    "1256,556": 2227,
    "389,365": 2228,
    "629,290": 2229,
    "117,101": 2230,
    "937,104": 2231,
    "378,170": 2232,
    "97,98": 2233,
    "548,182": 2234,
    "461,186": 2235,
    "643,166": 2236,
    "229,179": 2237,
    "449,149": 2238,
    "305,893": 2239,
    "402,155": 2240,
    "1688,455": 2241,
    "553,600": 2242,
    "748,373": 2243,
    "283,191": 2244,
    "1424,1124": 2245,
    "811,1181": 2246,
    "550,855": 2247,
    "370,152": 2248,
    "301,148": 2249,
    "364,191": 2250,
    "376,395": 2251,
    "486,258": 2252,
    "646,134": 2253,
    "1785,258": 2254,
    "271,183": 2255,
    "464,541": 2256,
    "979,734": 2257,
    "381,291": 2258,
    "1780,440": 2259,
    "379,703": 2260,
    "1274,132": 2261,
    "317,178": 2262,
    "1004,1333": 2263,
    "1362,470": 2264,
    "1334,537": 2265,
    "369,143": 2266,
    "725,367": 2267,
    "864,309": 2268,
    "636,462": 2269,
    "549,169": 2270,
    "308,1810": 2271,
    "1000,1461": 2272,
    "1136,1740": 2273,
    "922,365": 2274,
    "314,140": 2275,
    "114,760": 2276,
    "1137,1023": 2277,
    "460,305": 2278,
    "334,169": 2279,
    "332,139": 2280,
    "111,100": 2281,
    "304,274": 2282,
    "357,134": 2283,
    "870,642": 2284,
    "292,962": 2285,
    "750,1472": 2286,
    "319,174": 2287,
    "265,136": 2288,
    "619,168": 2289,
    "873,655": 2290,
    "358,184": 2291,
    "1223,1223": 2292,
    "266,151": 2293,
    "194,176": 2294,
    "355,513": 2295,
    "2090,2068": 2296,
    "652,491": 2297,
    "674,559": 2298,
    "2169,757": 2299,
    "684,762": 2300,
    "879,1759": 2301,
    "2009,1760": 2302,
    "556,574": 2303,
    "685,769": 2304,
    "32,56": 2305,
    "32,54": 2306,
    "101,109": 2307,
    "876,574": 2308,
    "466,468": 2309,
    "1306,1272": 2310,
    "578,386": 2311,
    "417,258": 2312,
    "858,882": 2313,
    "1819,146": 2314,
    "1589,1905": 2315,
    "2033,1644": 2316,
    "32,68": 2317,
    "1159,148": 2318,
    "468,705": 2319,
    "2136,1370": 2320,
    "783,161": 2321,
    "630,145": 2322,
    "359,140": 2323,
    "582,182": 2324,
    "332,165": 2325,
    "32,91": 2326,
    "286,175": 2327,
    "1906,1163": 2328,
    "1024,376": 2329,
    "410,373": 2330,
    "630,157": 2331,
    "466,665": 2332,
    "265,171": 2333,
    "291,309": 2334,
    "348,146": 2335,
    "475,190": 2336,
    "833,499": 2337,
    "1506,1506": 2338,
    "368,468": 2339,
    "258,1082": 2340,
    "778,520": 2341,
    "489,167": 2342,
    "443,190": 2343,
    "1058,558": 2344,
    "712,114": 2345,
    "1797,428": 2346,
    "362,291": 2347,
    "643,143": 2348,
    "845,574": 2349,
    "544,1193": 2350,
    "264,178": 2351,
    "1710,361": 2352,
    "432,2024": 2353,
    "1860,1546": 2354,
    "935,151": 2355,
    "564,702": 2356,
    "659,1415": 2357,
    "105,102": 2358,
    "269,156": 2359,
    "1220,1136": 2360,
    "870,1802": 2361,
    "689,145": 2362,
    "1063,177": 2363,
    "421,162": 2364,
    "2173,518": 2365,
    "1093,1883": 2366,
    "888,1354": 2367,
    "32,114": 2368,
    "571,922": 2369,
    "274,1118": 2370,
    "381,699": 2371,
    "387,136": 2372,
    "631,444": 2373,
    "621,135": 2374,
    "1513,898": 2375,
    "445,133": 2376,
    "401,189": 2377,
    "229,152": 2378,
    "1028,940": 2379,
    "274,1131": 2380,
    "591,160": 2381,
    "32,76": 2382,
    "314,153": 2383,
    "374,134": 2384,
    "352,157": 2385,
    "1452,316": 2386,
    "953,343": 2387,
    "292,1330": 2388,
    "1558,258": 2389,
    "418,258": 2390,
    "366,826": 2391,
    "540,688": 2392,
    "430,141": 2393,
    "386,997": 2394,
    "610,161": 2395,
    "571,508": 2396,
    "268,163": 2397,
    "1293,324": 2398,
    "1654,1142": 2399,
    "1870,547": 2400,
    "1023,297": 2401,
    "32,385": 2402,
    "367,752": 2403,
    "2181,877": 2404,
    "359,133": 2405,
    "726,748": 2406,
    "257,174": 2407,
    "372,738": 2408,
    "411,278": 2409,
    "274,936": 2410,
    "1825,446": 2411,
    "342,187": 2412,
    "376,444": 2413,
    "289,143": 2414,
    "373,405": 2415,
    "32,414": 2416,
    "979,853": 2417,
    "1986,1390": 2418,
    "1878,1049": 2419,
    "280,145": 2420,
    "679,184": 2421,
    "49,52": 2422,
    "920,367": 2423,
    "965,2393": 2424,
    "1510,510": 2425,
    "686,48": 2426,
    "659,518": 2427,
    "419,142": 2428,
    "110,111": 2429,
    "786,1019": 2430,
    "1134,916": 2431,
    "277,150": 2432,
    "573,1123": 2433,
    "32,74": 2434,
    "713,134": 2435,
    "893,422": 2436,
    "435,397": 2437,
    "1034,292": 2438,
    "1363,132": 2439,
    "410,1749": 2440,
    "258,1197": 2441,
    "690,163": 2442,
    "330,144": 2443,
    "481,161": 2444,
    "258,667": 2445,
    "558,855": 2446,
    "579,938": 2447,
    "582,170": 2448,
    "845,1305": 2449,
    "935,142": 2450,
    "97,118": 2451,
    "576,830": 2452,
    "1033,662": 2453,
    "1177,870": 2454,
    "674,617": 2455,
    "377,290": 2456,
    "477,655": 2457,
    "1232,281": 2458,
    "970,339": 2459,
    "2336,142": 2460,
    "490,1156": 2461,
    "835,136": 2462,
    "558,2093": 2463,
    "982,174": 2464,
    "269,154": 2465,
    "2465,945": 2466,
    "427,1058": 2467,
    "907,526": 2468,
    "521,1613": 2469,
    "596,136": 2470,
    "1419,108": 2471,
    "105,114": 2472,
    "579,1208": 2473,
    "1416,309": 2474,
    "945,427": 2475,
    "325,191": 2476,
    "1385,399": 2477,
    "442,1916": 2478,
    "689,171": 2479,
    "1025,1207": 2480,
    "414,258": 2481,
    "664,455": 2482,
    "556,655": 2483,
    "501,183": 2484,
    "1616,1282": 2485,
    "1121,133": 2486,
    "299,186": 2487,
    "571,581": 2488,
    "1050,1362": 2489,
    "258,604": 2490,
    "1243,480": 2491,
    "305,376": 2492,
    "1702,128": 2493,
    "402,190": 2494,
    "558,682": 2495,
    "288,132": 2496,
    "1948,2420": 2497,
    "317,175": 2498,
    "1962,879": 2499,
    "230,166": 2500,
    "547,496": 2501,
    "797,695": 2502,
    "1431,297": 2503,
    "376,807": 2504,
    "568,133": 2505,
    "271,142": 2506,
    "1066,1275": 2507,
    "108,100": 2508,
    "567,148": 2509,
    "325,141": 2510,
    "189,547": 2511,
    "1836,698": 2512,
    "475,136": 2513,
    "258,874": 2514,
    "371,181": 2515,
    "1320,977": 2516,
    "1145,101": 2517,
    "312,151": 2518,
    "231,163": 2519,
    "289,179": 2520,
    "301,144": 2521,
    "1525,659": 2522,
    "34,261": 2523,
    "111,112": 2524,
    "563,1875": 2525,
    "456,628": 2526,
    "551,805": 2527,
    "304,406": 2528,
    "32,79": 2529,
    "2105,339": 2530,
    "274,862": 2531,
    "333,180": 2532,
    "412,465": 2533,
    "967,1173": 2534,
    "232,149": 2535,
    "326,631": 2536,
    "961,290": 2537,
    "32,120": 2538,
    "1678,477": 2539,
    "267,186": 2540,
    "812,1163": 2541,
    "788,161": 2542,
    "308,297": 2543,
    "1044,1286": 2544,
    "2079,409": 2545,
    "32,562": 2546,
    "558,1115": 2547,
    "740,2511": 2548,
    "744,731": 2549,
    "448,137": 2550,
    "475,165": 2551,
    "1485,187": 2552,
    "748,1104": 2553,
    "315,166": 2554,
    "2486,2323": 2555,
    "232,150": 2556,
    "382,191": 2557,
    "837,185": 2558,
    "256,176": 2559,
    "723,733": 2560,
    "1873,773": 2561,
    "105,672": 2562,
    "453,176": 2563,
    "679,146": 2564,
    "267,154": 2565,
    "797,305": 2566,
    "263,133": 2567,
    "258,1366": 2568,
    "456,281": 2569,
    "1459,564": 2570,
    "397,902": 2571,
    "417,1526": 2572,
    "1425,166": 2573,
    "232,173": 2574,
    "514,531": 2575,
    "972,515": 2576,
    "713,147": 2577,
    "720,703": 2578,
    "1300,258": 2579,
    "32,123": 2580,
    "99,101": 2581,
    "111,644": 2582,
    "903,2052": 2583,
    "2432,2542": 2584,
    "291,645": 2585,
    "2098,1350": 2586,
    "307,143": 2587,
    "351,366": 2588,
    "2547,542": 2589,
    "447,172": 2590,
    "289,133": 2591,
    "258,875": 2592,
    "398,136": 2593,
    "416,469": 2594,
    "273,153": 2595,
    "317,140": 2596,
    "265,140": 2597,
    "1633,1715": 2598,
    "821,135": 2599,
    "293,162": 2600,
    "684,456": 2601,
    "451,165": 2602,
    "548,144": 2603,
    "258,1817": 2604,
    "764,1513": 2605,
    "111,104": 2606,
    "2493,304": 2607,
    "716,533": 2608,
    "769,440": 2609,
    "393,1127": 2610,
    "362,497": 2611,
    "370,189": 2612,
    "717,116": 2613,
    "274,1173": 2614,
    "269,176": 2615,
    "815,725": 2616,
    "1256,956": 2617,
    "1995,2010": 2618,
    "309,305": 2619,
    "476,2275": 2620,
    "657,1227": 2621,
    "32,72": 2622,
    "633,143": 2623,
    "267,157": 2624,
    "271,148": 2625,
    "960,488": 2626,
    "97,112": 2627,
    "403,155": 2628,
    "585,181": 2629,
    "448,179": 2630,
    "1336,258": 2631,
    "1132,258": 2632,
    "2060,1656": 2633,
    "472,178": 2634,
    "371,166": 2635,
    "258,268": 2636,
    "501,177": 2637,
    "1717,1477": 2638,
    "2146,268": 2639,
    "2639,153": 2640,
    "356,787": 2641,
    "2606,110": 2642,
    "1597,2414": 2643,
    "1107,613": 2644,
    "371,157": 2645,
    "1334,1234": 2646,
    "350,155": 2647,
    "1675,887": 2648,
    "1960,418": 2649,
    "258,1535": 2650,
    "379,564": 2651,
    "492,1028": 2652,
    "451,175": 2653,
    "719,142": 2654,
    "426,637": 2655,
    "843,175": 2656,
    "646,136": 2657,
    "429,1149": 2658,
    "1074,2506": 2659,
    "99,116": 2660,
    "347,182": 2661,
    "32,658": 2662,
    "935,141": 2663,
    "269,183": 2664,
    "1455,1912": 2665,
    "113,117": 2666,
    "2625,764": 2667,
    "2120,1576": 2668,
    "923,114": 2669,
    "341,149": 2670,
    "393,1823": 2671,
    "953,452": 2672,
    "662,339": 2673,
    "297,372": 2674,
    "346,144": 2675,
    "1148,179": 2676,
    "1273,1028": 2677,
    "1088,440": 2678,
    "1281,662": 2679,
    "293,145": 2680,
    "1198,324": 2681,
    "333,183": 2682,
    "604,258": 2683,
    "2155,1546": 2684,
    "1433,1288": 2685,
    "2089,637": 2686,
    "817,154": 2687,
    "232,134": 2688,
    "325,169": 2689,
    "1804,1080": 2690,
    "454,868": 2691,
    "1236,2469": 2692,
    "1424,563": 2693,
    "823,121": 2694,
    "333,136": 2695,
    "1269,281": 2696,
    "855,518": 2697,
    "343,405": 2698,
    "343,632": 2699,
    "333,138": 2700,
    "286,137": 2701,
    "786,553": 2702,
    "274,391": 2703,
    "274,460": 2704,
    "708,157": 2705,
    "393,762": 2706,
    "776,173": 2707,
    "2377,857": 2708,
    "1568,161": 2709,
    "539,146": 2710,
    "308,2124": 2711,
    "952,881": 2712,
    "1531,258": 2713,
    "258,986": 2714,
    "1100,258": 2715,
    "421,132": 2716,
    "873,1258": 2717,
    "497,309": 2718,
    "100,1931": 2719,
    "232,157": 2720,
    "679,170": 2721,
    "97,103": 2722,
    "318,163": 2723,
    "1508,180": 2724,
    "456,925": 2725,
    "617,432": 2726,
    "258,1442": 2727,
    "308,699": 2728,
    "1202,1090": 2729,
    "278,617": 2730,
    "258,578": 2731,
    "32,39": 2732,
    "402,158": 2733,
    "2574,166": 2734,
    "469,1773": 2735,
    "415,152": 2736,
    "2736,1340": 2737,
    "899,368": 2738,
    "486,470": 2739,
    "383,149": 2740,
    "578,258": 2741,
    "2034,283": 2742,
    "2742,141": 2743,
    "301,146": 2744,
    "763,290": 2745,
    "657,340": 2746,
    "358,161": 2747,
    "428,316": 2748,
    "258,639": 2749,
    "310,151": 2750,
    "1416,274": 2751,
    "419,179": 2752,
    "261,45": 2753,
    "1114,2657": 2754,
    "1126,2563": 2755,
    "974,405": 2756,
    "1769,600": 2757,
    "60,47": 2758,
    "105,118": 2759,
    "326,465": 2760,
    "1052,826": 2761,
    "1904,432": 2762,
    "280,166": 2763,
    "457,162": 2764,
    "422,480": 2765,
    "576,1350": 2766,
    "283,152": 2767,
    "810,2220": 2768,
    "32,42": 2769,
    "325,163": 2770,
    "947,395": 2771,
    "2577,659": 2772,
    "877,836": 2773,
    "409,476": 2774,
    "115,115": 2775,
    "446,520": 2776,
    "1698,1104": 2777,
    "1216,1249": 2778,
    "357,152": 2779,
    "2074,1109": 2780,
    "2235,734": 2781,
    "116,590": 2782,
    "455,772": 2783,
    "1487,1360": 2784,
    "2123,834": 2785,
    "2676,412": 2786,
    "365,411": 2787,
    "782,258": 2788,
    "681,116": 2789,
    "32,106": 2790,
    "258,1069": 2791,
    "50,49": 2792,
    "821,155": 2793,
    "589,138": 2794,
    "32,1230": 2795,
    "32,904": 2796,
    "539,190": 2797,
    "294,159": 2798,
    "382,137": 2799,
    "403,150": 2800,
    "596,167": 2801,
    "1207,1105": 2802,
    "1990,490": 2803,
    "275,143": 2804,
    "1680,156": 2805,
    "288,186": 2806,
    "317,143": 2807,
    "1765,503": 2808,
    "117,98": 2809,
    "923,116": 2810,
    "401,184": 2811,
    "2539,320": 2812,
    "287,163": 2813,
    "397,627": 2814,
    "1855,168": 2815,
    "101,119": 2816,
    "258,1699": 2817,
    "317,784": 2818,
    "2331,1244": 2819,
    "57,48": 2820,
    "32,258": 2821,
    "718,290": 2822,
    "351,316": 2823,
    "652,1843": 2824,
    "274,1064": 2825,
    "274,1027": 2826,
    "468,304": 2827,
    "474,182": 2828,
    "1625,573": 2829,
    "464,2442": 2830,
    "51,48": 2831,
    "692,309": 2832,
    "325,152": 2833,
    "608,2637": 2834,
    "587,831": 2835,
    "1769,2600": 2836,
    "890,501": 2837,
    "2837,138": 2838,
    "97,672": 2839,
    "284,151": 2840,
    "323,129": 2841,
    "272,180": 2842,
    "32,69": 2843,
    "470,278": 2844,
    "481,163": 2845,
    "1144,182": 2846,
    "1146,492": 2847,
    "114,1757": 2848,
    "445,143": 2849,
    "303,145": 2850,
    "2462,397": 2851,
    "267,164": 2852,
    "475,129": 2853,
    "108,1112": 2854,
    "1381,1315": 2855,
    "306,172": 2856,
    "1433,2280": 2857,
    "569,631": 2858,
    "563,1109": 2859,
    "101,98": 2860,
    "315,175": 2861,
    "837,158": 2862,
    "654,309": 2863,
    "456,395": 2864,
    "1009,622": 2865,
    "1623,458": 2866,
    "1457,160": 2867,
    "630,179": 2868,
    "717,100": 2869,
    "622,1691": 2870,
    "1503,1184": 2871,
    "307,139": 2872,
    "370,151": 2873,
    "1146,465": 2874,
    "1088,988": 2875,
    "353,161": 2876,
    "668,145": 2877,
    "1143,954": 2878,
    "337,675": 2879,
    "1289,1289": 2880,
    "274,632": 2881,
    "634,145": 2882,
    "790,190": 2883,
    "432,505": 2884,
    "271,170": 2885,
    "749,608": 2886,
    "623,290": 2887,
    "1626,156": 2888,
    "74,2642": 2889,
    "694,174": 2890,
    "937,121": 2891,
    "610,165": 2892,
    "1286,2649": 2893,
    "418,1573": 2894,
    "280,138": 2895,
    "884,1794": 2896,
    "706,110": 2897,
    "271,133": 2898,
    "2091,361": 2899,
    "307,167": 2900,
    "340,673": 2901,
    "301,143": 2902,
    "1444,132": 2903,
    "2903,2500": 2904,
    "2904,132": 2905,
    "817,184": 2906,
    "83,116": 2907,
    "410,1624": 2908,
    "790,175": 2909,
    "442,100": 2910,
    "712,116": 2911,
    "552,765": 2912,
    "307,168": 2913,
    "883,102": 2914,
    "283,170": 2915,
    "2475,701": 2916,
    "509,188": 2917,
    "1939,410": 2918,
    "789,261": 2919,
    "341,128": 2920,
    "459,156": 2921,
    "610,175": 2922,
    "896,815": 2923,
    "376,488": 2924,
    "420,170": 2925,
    "295,133": 2926,
    "1632,116": 2927,
    "608,297": 2928,
    "673,703": 2929,
    "750,101": 2930,
    "111,119": 2931,
    "2117,1563": 2932,
    "2162,994": 2933,
    "34,44": 2934,
    "758,177": 2935,
    "1965,491": 2936,
    "78,76": 2937,
    "2763,1231": 2938,
    "1304,1390": 2939,
    "740,171": 2940,
    "703,1097": 2941,
    "779,458": 2942,
    "2196,418": 2943,
    "2499,499": 2944,
    "2245,391": 2945,
    "256,157": 2946,
    "2248,2770": 2947,
    "951,132": 2948,
    "292,372": 2949,
    "258,1774": 2950,
    "668,169": 2951,
    "469,1882": 2952,
    "1050,527": 2953,
    "49,51": 2954,
    "748,2470": 2955,
    "592,108": 2956,
    "32,101": 2957,
    "354,165": 2958,
    "2107,2663": 2959,
    "700,304": 2960,
    "633,144": 2961,
    "346,128": 2962,
    "607,438": 2963,
    "738,368": 2964,
    "260,133": 2965,
    "720,499": 2966,
    "1361,1369": 2967,
    "1872,258": 2968,
    "2217,187": 2969,
    "568,187": 2970,
    "573,379": 2971,
    "359,191": 2972,
    "1025,1151": 2973,
    "404,155": 2974,
    "1746,1544": 2975,
    "702,340": 2976,
    "1627,409": 2977,
    "546,2439": 2978,
    "50,53": 2979,
    "333,131": 2980,
    "333,171": 2981,
    "1146,675": 2982,
    "853,291": 2983,
    "1807,1203": 2984,
    "1944,1390": 2985,
    "291,339": 2986,
    "84,77": 2987,
    "748,844": 2988,
    "891,258": 2989,
    "1430,324": 2990,
    "1461,1005": 2991,
    "881,513": 2992,
    "474,187": 2993,
    "495,114": 2994,
    "948,1370": 2995,
    "2937,80": 2996,
    "770,100": 2997,
    "703,458": 2998,
    "463,166": 2999,
    "975,682": 3000,
    "304,623": 3001,
    "1364,309": 3002,
    "1491,2845": 3003,
    "1135,2296": 3004,
    "1271,566": 3005,
    "121,1523": 3006,
    "97,1679": 3007,
    "475,131": 3008,
    "2898,919": 3009,
    "1508,148": 3010,
    "1352,355": 3011,
    "445,139": 3012,
    "290,745": 3013,
    "170,2948": 3014,
    "1590,2535": 3015,
    "3015,137": 3016,
    "32,55": 3017,
    "97,442": 3018,
    "10,450": 3019,
    "540,1018": 3020,
    "231,185": 3021,
    "499,965": 3022,
    "1084,877": 3023,
    "318,151": 3024,
    "762,940": 3025,
    "265,185": 3026,
    "331,291": 3027,
    "1541,2008": 3028,
    "429,2053": 3029,
    "2913,291": 3030,
    "392,1154": 3031,
    "56,48": 3032,
    "274,1667": 3033,
    "288,190": 3034,
    "2148,173": 3035,
    "684,701": 3036,
    "290,291": 3037,
    "520,409": 3038,
    "663,435": 3039,
    "405,2747": 3040,
    "413,165": 3041,
    "575,139": 3042,
    "876,2186": 3043,
    "1005,1098": 3044,
    "104,2188": 3045,
    "373,578": 3046,
    "1035,361": 3047,
    "354,186": 3048,
    "3048,2520": 3049,
    "3049,880": 3050,
    "268,157": 3051,
    "1282,2238": 3052,
    "1108,1174": 3053,
    "294,134": 3054,
    "575,150": 3055,
    "810,752": 3056,
    "400,555": 3057,
    "446,373": 3058,
    "860,579": 3059,
    "32,1752": 3060,
    "532,175": 3061,
    "437,190": 3062,
    "1096,742": 3063,
    "949,326": 3064,
    "312,128": 3065,
    "526,1970": 3066,
    "2193,1125": 3067,
    "2015,1448": 3068,
    "1943,150": 3069,
    "957,873": 3070,
    "334,187": 3071,
    "2893,1889": 3072,
    "1262,116": 3073,
    "1487,640": 3074,
    "1026,309": 3075,
    "258,755": 3076,
    "497,258": 3077,
    "2030,190": 3078,
    "1354,2363": 3079,
    "373,2805": 3080,
    "1487,510": 3081,
    "49,54": 3082,
    "775,840": 3083,
    "1314,119": 3084,
    "627,400": 3085,
    "741,368": 3086,
    "685,922": 3087,
    "810,2744": 3088,
    "97,644": 3089,
    "2970,2917": 3090,
    "845,1194": 3091,
    "853,1333": 3092,
    "1389,460": 3093,
    "177,940": 3094,
    "314,136": 3095,
    "961,607": 3096,
    "317,179": 3097,
    "712,107": 3098,
    "798,152": 3099,
    "373,600": 3100,
    "409,637": 3101,
    "732,146": 3102,
    "2559,1515": 3103,
    "102,717": 3104,
    "455,862": 3105,
    "525,188": 3106,
    "1627,868": 3107,
    "256,129": 3108,
    "306,155": 3109,
    "746,258": 3110,
    "1945,107": 3111,
    "791,146": 3112,
    "182,1481": 3113,
    "2566,3066": 3114,
    "2143,834": 3115,
    "1718,480": 3116,
    "455,2531": 3117,
    "496,1065": 3118,
    "3006,658": 3119,
    "368,324": 3120,
    "1060,190": 3121,
    "330,155": 3122,
    "725,1391": 3123,
    "817,177": 3124,
    "725,2659": 3125,
    "1117,676": 3126,
    "500,185": 3127,
    "117,112": 3128,
    "1181,693": 3129,
    "1064,541": 3130,
    "2277,637": 3131,
    "418,405": 3132,
    "341,165": 3133,
    "1067,175": 3134,
    "3134,274": 3135,
    "1244,527": 3136,
    "1120,258": 3137,
    "2171,309": 3138,
    "362,320": 3139,
    "2969,365": 3140,
    "709,605": 3141,
    "281,927": 3142,
    "288,154": 3143,
    "323,146": 3144,
    "517,166": 3145,
    "290,1130": 3146,
    "2551,158": 3147,
    "1044,274": 3148,
    "628,258": 3149,
    "771,884": 3150,
    "2752,379": 3151,
    "774,140": 3152,
    "475,156": 3153,
    "306,160": 3154,
    "1101,526": 3155,
    "408,160": 3156,
    "1114,435": 3157,
    "233,158": 3158,
    "1859,2602": 3159,
    "1013,1987": 3160,
    "373,1800": 3161,
    "61,34": 3162,
    "615,757": 3163,
    "412,1705": 3164,
    "112,706": 3165,
    "1968,432": 3166,
    "101,712": 3167,
    "1396,129": 3168,
    "387,140": 3169,
    "912,912": 3170,
    "2081,570": 3171,
    "1101,470": 3172,
    "112,116": 3173,
    "1477,2721": 3174,
    "432,877": 3175,
    "65,2200": 3176,
    "932,160": 3177,
    "819,326": 3178,
    "1219,637": 3179,
    "351,704": 3180,
    "576,488": 3181,
    "1610,460": 3182,
    "1374,1136": 3183,
    "1108,108": 3184,
    "322,191": 3185,
    "301,138": 3186,
    "889,138": 3187,
    "304,1245": 3188,
    "656,388": 3189,
    "617,384": 3190,
    "681,1679": 3191,
    "278,309": 3192,
    "1094,54": 3193,
    "32,78": 3194,
    "72,101": 3195,
    "444,741": 3196,
    "258,1078": 3197,
    "981,476": 3198,
    "352,181": 3199,
    "892,108": 3200,
    "591,188": 3201,
    "273,155": 3202,
    "117,672": 3203,
    "625,733": 3204,
    "830,1420": 3205,
    "50,710": 3206,
    "689,178": 3207,
    "1599,2670": 3208,
    "576,1695": 3209,
    "2237,176": 3210,
    "846,258": 3211,
    "407,174": 3212,
    "1041,258": 3213,
    "993,855": 3214,
    "1778,316": 3215,
    "617,1724": 3216,
    "1159,171": 3217,
    "594,296": 3218,
    "283,149": 3219,
    "258,880": 3220,
    "963,513": 3221,
    "160,376": 3222,
    "112,115": 3223,
    "455,526": 3224,
    "352,167": 3225,
    "1704,537": 3226,
    "585,141": 3227,
    "293,172": 3228,
    "521,340": 3229,
    "304,2446": 3230,
    "432,397": 3231,
    "2144,543": 3232,
    "733,464": 3233,
    "539,159": 3234,
    "945,628": 3235,
    "493,144": 3236,
    "2266,470": 3237,
    "266,177": 3238,
    "859,2372": 3239,
    "330,159": 3240,
    "2063,175": 3241,
    "340,893": 3242,
    "1397,367": 3243,
    "744,1072": 3244,
    "941,258": 3245,
    "463,178": 3246,
    "402,151": 3247,
    "632,541": 3248,
    "2385,2800": 3249,
    "532,130": 3250,
    "312,185": 3251,
    "2895,1267": 3252,
    "685,970": 3253,
    "337,926": 3254,
    "459,182": 3255,
    "83,69": 3256,
    "556,3187": 3257,
    "738,666": 3258,
    "1060,187": 3259,
    "32,651": 3260,
    "327,673": 3261,
    "996,1613": 3262,
    "465,1695": 3263,
    "2028,446": 3264,
    "897,104": 3265,
    "154,492": 3266,
    "391,372": 3267,
    "494,153": 3268,
    "879,2283": 3269,
    "535,163": 3270,
    "301,187": 3271,
    "3271,1377": 3272,
    "396,2314": 3273,
    "652,879": 3274,
    "471,326": 3275,
    "32,36": 3276,
    "1659,637": 3277,
    "337,385": 3278,
    "673,470": 3279,
    "271,171": 3280,
    "52,48": 3281,
    "507,650": 3282,
    "776,176": 3283,
    "2287,1684": 3284,
    "1221,1748": 3285,
    "86,73": 3286,
    "992,365": 3287,
    "1142,440": 3288,
    "289,148": 3289,
    "1475,792": 3290,
    "258,1353": 3291,
    "1356,2086": 3292,
    "432,1413": 3293,
    "1672,163": 3294,
    "552,365": 3295,
    "1214,411": 3296,
    "258,278": 3297,
    "480,482": 3298,
    "337,274": 3299,
    "317,155": 3300,
    "1778,618": 3301,
    "311,136": 3302,
    "885,1692": 3303,
    "3238,1208": 3304,
    "3304,1739": 3305,
    "500,131": 3306,
    "1129,146": 3307,
    "341,142": 3308,
    "681,103": 3309,
    "792,2762": 3310,
    "52,53": 3311,
    "585,151": 3312,
    "795,2384": 3313,
    "730,1335": 3314,
    "1269,1959": 3315,
    "903,574": 3316,
    "571,1755": 3317,
    "301,128": 3318,
    "969,290": 3319,
    "504,129": 3320,
    "258,1621": 3321,
    "504,160": 3322,
    "719,147": 3323,
    "579,1115": 3324,
    "1833,826": 3325,
    "338,173": 3326,
    "371,171": 3327,
    "858,480": 3328,
    "1868,291": 3329,
    "313,128": 3330,
    "32,118": 3331,
    "41,59": 3332,
    "336,291": 3333,
    "504,135": 3334,
    "111,98": 3335,
    "278,393": 3336,
    "3021,129": 3337,
    "1844,750": 3338,
    "1715,554": 3339,
    "2510,316": 3340,
    "403,143": 3341,
    "304,542": 3342,
    "258,386": 3343,
    "258,1479": 3344,
    "638,431": 3345,
    "2629,1873": 3346,
    "837,172": 3347,
    "229,180": 3348,
    "812,534": 3349,
    "1755,1959": 3350,
    "1096,2119": 3351,
    "258,927": 3352,
    "362,2100": 3353,
    "315,138": 3354,
    "338,146": 3355,
    "318,165": 3356,
    "741,902": 3357,
    "619,157": 3358,
    "385,555": 3359,
    "3054,2705": 3360,
    "2987,76": 3361,
    "1368,428": 3362,
    "703,1607": 3363,
    "474,180": 3364,
    "264,136": 3365,
    "573,1350": 3366,
    "719,177": 3367,
    "97,107": 3368,
    "2244,537": 3369,
    "410,486": 3370,
    "1282,1436": 3371,
    "308,838": 3372,
    "3372,418": 3373,
    "1684,479": 3374,
    "2201,103": 3375,
    "332,143": 3376,
    "475,169": 3377,
    "1733,1577": 3378,
    "1331,3065": 3379,
    "652,2343": 3380,
    "1485,167": 3381,
    "383,159": 3382,
    "1491,1414": 3383,
    "317,163": 3384,
    "271,185": 3385,
    "600,488": 3386,
    "521,512": 3387,
[...]
