{
  "vocab": {
    "0": "\u0000",
    "1": "\u0001",
    "2": "\u0002",
    "3": "\u0003",
    "4": "\u0004",
    "5": "\u0005",
    "6": "\u0006",
    "7": "\u0007",
    "8": "\b",
    "9": "\t",
    "10": "\n",
    "11": "\u000b",
    "12": "\f",
    "13": "\r",
    "14": "\u000e",
    "15": "\u000f",
    "16": "\u0010",
    "17": "\u0011",
    "18": "\u0012",
    "19": "\u0013",
    "20": "\u0014",
    "21": "\u0015",
    "22": "\u0016",
    "23": "\u0017",
    "24": "\u0018",
    "25": "\u0019",
    "26": "\u001a",
    "27": "\u001b",
    "28": "\u001c",
    "29": "\u001d",
    "30": "\u001e",
    "31": "\u001f",
    "32": " ",
    "33": "!",
    "34": "\"",
    "35": "#",
    "36": "$",
    "37": "%",
    "38": "&",
    "39": "'",
    "40": "(",
    "41": ")",
    "42": "*",
    "43": "+",
    "44": ",",
    "45": "-",
    "46": ".",
    "47": "/",
    "48": "0",
    "49": "1",
    "50": "2",
    "51": "3",
    "52": "4",
    "53": "5",
    "54": "6",
    "55": "7",
    "56": "8",
    "57": "9",
    "58": ":",
    "59": ";",
    "60": "<",
    "61": "=",
    "62": ">",
    "63": "?",
    "64": "@",
    "65": "A",
    "66": "B",
    "67": "C",
    "68": "D",
    "69": "E",
    "70": "F",
    "71": "G",
    "72": "H",
    "73": "I",
    "74": "J",
    "75": "K",
    "76": "L",
    "77": "M",
    "78": "N",
    "79": "O",
    "80": "P",
    "81": "Q",
    "82": "R",
    "83": "S",
    "84": "T",
    "85": "U",
    "86": "V",
    "87": "W",
    "88": "X",
    "89": "Y",
    "90": "Z",
    "91": "[",
    "92": "\\",
    "93": "]",
    "94": "^",
    "95": "_",
    "96": "`",
    "97": "a",
    "98": "b",
    "99": "c",
    "100": "d",
    "101": "e",
    "102": "f",
    "103": "g",
    "104": "h",
    "105": "i",
    "106": "j",
    "107": "k",
    "108": "l",
    "109": "m",
    "110": "n",
    "111": "o",
    "112": "p",
    "113": "q",
    "114": "r",
    "115": "s",
    "116": "t",
    "117": "u",
    "118": "v",
    "119": "w",
    "120": "x",
    "121": "y",
    "122": "z",
    "123": "{",
    "124": "|",
    "125": "}",
    "126": "~",
    "127": "",
    "128": "",
    "129": "",
    "130": "",
    "131": "",
    "132": "",
    "133": "",
    "134": "",
    "135": "",
    "136": "",
    "137": "",
    "138": "",
    "139": "",
    "140": "",
    "141": "",
    "142": "",
    "143": "",
    "144": "",
    "145": "",
    "146": "",
    "147": "",
    "148": "",
    "149": "",
    "150": "",
    "151": "",
    "152": "",
    "153": "",
    "154": "",
    "155": "",
    "156": "",
    "157": "",
    "158": "",
    "159": "",
    "160": " ",
    "161": "¡",
    "162": "¢",
    "163": "£",
    "164": "¤",
    "165": "¥",
    "166": "¦",
    "167": "§",
    "168": "¨",
    "169": "©",
    "170": "ª",
    "171": "«",
    "172": "¬",
    "173": "­",
    "174": "®",
    "175": "¯",
    "176": "°",
    "177": "±",
    "178": "²",
    "179": "³",
    "180": "´",
    "181": "µ",
    "182": "¶",
    "183": "·",
    "184": "¸",
    "185": "¹",
    "186": "º",
    "187": "»",
    "188": "¼",
    "189": "½",
    "190": "¾",
    "191": "¿",
    "192": "À",
    "193": "Á",
    "194": "Â",
    "195": "Ã",
    "196": "Ä",
    "197": "Å",
    "198": "Æ",
    "199": "Ç",
    "200": "È",
    "201": "É",
    "202": "Ê",
    "203": "Ë",
    "204": "Ì",
    "205": "Í",
    "206": "Î",
    "207": "Ï",
    "208": "Ð",
    "209": "Ñ",
    "210": "Ò",
    "211": "Ó",
    "212": "Ô",
    "213": "Õ",
    "214": "Ö",
    "215": "×",
    "216": "Ø",
    "217": "Ù",
    "218": "Ú",
    "219": "Û",
    "220": "Ü",
    "221": "Ý",
    "222": "Þ",
    "223": "ß",
    "224": "à",
    "225": "á",
    "226": "â",
    "227": "ã",
    "228": "ä",
    "229": "å",
    "230": "æ",
    "231": "ç",
    "232": "è",
    "233": "é",
    "234": "ê",
    "235": "ë",
    "236": "ì",
    "237": "í",
    "238": "î",
    "239": "ï",
    "240": "ð",
    "241": "ñ",
    "242": "ò",
    "243": "ó",
    "244": "ô",
    "245": "õ",
    "246": "ö",
    "247": "÷",
    "248": "ø",
    "249": "ù",
    "250": "ú",
    "251": "û",
    "252": "ü",
    "253": "ý",
    "254": "þ",
    "255": "ÿ",
    "256": " t",
    "257": "he",
    "258": " a",
    "259": "ou",
    "260": " s",
    "261": " m",
    "262": "in",
    "263": " w",
    "264": "re",
    "265": "ha",
    "266": "nd",
    "267": " the",
    "268": " b",
    "269": "is",
    "270": "or",
    "271": " f",
    "272": "er",
    "273": "ll",
    "274": "it",
    "275": "on",
    "276": " d",
    "277": " c",
    "278": "es",
    "279": "en",
    "280": " n",
    "281": " l",
    "282": " y",
    "283": " th",
    "284": "ar",
    "285": " h",
    "286": " o",
    "287": " to",
    "288": " you",
    "289": " p",
    "290": "hat",
    "291": " I",
    "292": " he",
    "293": "ve",
    "294": "ot",
    "295": "st",
    "296": " and",
    "297": "ow",
    "298": "ing",
    "299": "an",
    "300": " of",
    "301": "om",
    "302": " g",
    "303": "at",
    "304": " be",
    "305": "se",
    "306": " my",
    "307": " in",
    "308": "ce",
    "309": " ha",
    "310": "le",
    "311": "ay",
    "312": "ld",
    "313": "ir",
    "314": "et",
    "315": "ed",
    "316": "ut",
    "317": " me",
    "318": "im",
    "319": "ith",
    "320": "'s",
    "321": " not",
    "322": "ch",
    "323": " that",
    "324": " is",
    "325": "gh",
    "326": "And",
    "327": " for",
    "328": "ke",
    "329": " u",
    "330": "our",
    "331": " we",
    "332": "oo",
    "333": "ill",
    "334": " e",
    "335": "her",
    "336": " with",
    "337": "ent",
    "338": " it",
    "339": " your",
    "340": "ad",
    "341": "ri",
    "342": " thou",
    "343": " st",
    "344": "'d",
    "345": " k",
    "346": "ome",
    "347": " his",
    "348": "ght",
    "349": "EN",
    "350": "ord",
    "351": "id",
    "352": "as",
    "353": "The",
    "354": " re",
    "355": " have",
    "356": "IN",
    "357": "ly",
    "358": "ra",
    "359": " li",
    "360": " him",
    "361": "ur",
    "362": " this",
    "363": "al",
    "364": "IO",
    "365": " so",
    "366": " as",
    "367": " de",
    "368": " on",
    "369": "ore",
    "370": "ro",
    "371": "AR",
    "372": "hi",
    "373": "ould",
    "374": "ood",
    "375": "ck",
    "376": "ain",
    "377": "ver",
    "378": "est",
    "379": " thy",
    "380": " sha",
    "381": "ess",
    "382": "ea",
    "383": " do",
    "384": " will",
    "385": "am",
    "386": " no",
    "387": " but",
    "388": "us",
    "389": "and",
    "390": "US",
    "391": "if",
    "392": " se",
    "393": "ge",
    "394": "Th",
    "395": " all",
    "396": " su",
    "397": "ake",
    "398": "To",
    "399": " her",
    "400": "ru",
    "401": "ion",
    "402": "th",
    "403": " an",
    "404": "ter",
    "405": "ard",
    "406": " lo",
    "407": "han",
    "408": "ell",
    "409": "ear",
    "410": " sp",
    "411": " thee",
    "412": " our",
    "413": " fa",
    "414": " shall",
    "415": " by",
    "416": "UC",
    "417": "il",
    "418": " are",
    "419": "ING",
    "420": " C",
    "421": " ne",
    "422": "rom",
    "423": "ho",
    "424": " kn",
    "425": "AN",
    "426": " R",
    "427": "That",
    "428": " v",
    "429": "ER",
    "430": "ast",
    "431": "OR",
    "432": "ct",
    "433": "ous",
    "434": " what",
    "435": "ight",
    "436": " sh",
    "437": "ul",
    "438": " '",
    "439": "ET",
    "440": "ant",
    "441": "ES",
    "442": " up",
    "443": "sel",
    "444": "qu",
    "445": "But",
    "446": "art",
    "447": " good",
    "448": "row",
    "449": "ath",
    "450": "ine",
    "451": " lord",
    "452": "hich",
    "453": "nt",
    "454": "ust",
    "455": "'ll",
    "456": "one",
    "457": " pr",
    "458": " com",
    "459": " at",
    "460": " man",
    "461": " M",
    "462": "What",
    "463": " whe",
    "464": " E",
    "465": "KING",
    "466": " am",
    "467": "end",
    "468": "ic",
    "469": " con",
    "470": "ble",
    "471": "ry",
    "472": "ong",
    "473": "ie",
    "474": "ive",
    "475": " from",
    "476": " bl",
    "477": "ven",
    "478": " G",
    "479": "For",
    "480": " she",
    "481": "em",
    "482": " go",
    "483": "are",
    "484": " more",
    "485": " them",
    "486": "out",
    "487": "IC",
    "488": " was",
    "489": "au",
    "490": "other",
    "491": "oth",
    "492": "He",
    "493": " sir",
    "494": "ol",
    "495": " now",
    "496": " L",
    "497": " hat",
    "498": " if",
    "499": "ost",
    "500": "LO",
    "501": "ind",
    "502": " there",
    "503": " know",
    "504": " would",
    "505": " can",
    "506": "ers",
    "507": "IUS",
    "508": "ep",
    "509": "self",
    "510": "ARD",
    "511": "ather",
    "512": "fe",
    "513": "ond",
    "514": "res",
    "515": "ate",
    "516": " say",
    "517": " here",
    "518": " love",
    "519": " their",
    "520": " sw",
    "521": " br",
    "522": "pp",
    "523": " or",
    "524": "all",
    "525": "--",
    "526": " S",
    "527": " than",
    "528": " king",
    "529": " then",
    "530": " us",
    "531": " O",
    "532": " they",
    "533": " B",
    "534": " ar",
    "535": "od",
    "536": "My",
    "537": " let",
    "538": " un",
    "539": "ig",
    "540": " wor",
    "541": "ure",
    "542": "ink",
    "543": " H",
    "544": "ort",
    "545": "hy",
    "546": "ame",
    "547": " V",
    "548": "fore",
    "549": "As",
    "550": " may",
    "551": "el",
    "552": " come",
    "553": " qu",
    "554": "ook",
    "555": "Whe",
    "556": "ish",
    "557": "LI",
    "558": " well",
    "559": "KE",
    "560": "ves",
    "561": " j",
    "562": " one",
    "563": " hath",
    "564": "irst",
    "565": "You",
    "566": " make",
    "567": "reat",
    "568": "gain",
    "569": "ak",
    "570": " must",
    "571": "ound",
    "572": "ng",
    "573": " gra",
    "574": " were",
    "575": " ho",
    "576": "ci",
    "577": " see",
    "578": " like",
    "579": "ue",
    "580": "eak",
    "581": " should",
    "582": "TIO",
    "583": "ity",
    "584": " pro",
    "585": " mad",
    "586": " sa",
    "587": " P",
    "588": "um",
    "589": " pl",
    "590": " father",
    "591": "RO",
    "592": "AU",
    "593": " had",
    "594": " did",
    "595": "pe",
    "596": "ime",
    "597": " upon",
    "598": "ice",
    "599": " too",
    "600": "ON",
    "601": "ence",
    "602": " W",
    "603": "ward",
    "604": "ist",
    "605": " death",
    "606": "own",
    "607": " en",
    "608": "ose",
    "609": "man",
    "610": "un",
    "611": "ful",
    "612": "IS",
    "613": "nce",
    "614": " speak",
    "615": " r",
    "616": " po",
    "617": "de",
    "618": "entle",
    "619": " out",
    "620": "io",
    "621": " which",
    "622": "pt",
    "623": "ICH",
    "624": " fri",
    "625": "OL",
    "626": " again",
    "627": "DU",
    "628": "DUKE",
    "629": " how",
    "630": "EL",
    "631": " A",
    "632": " heart",
    "633": " tru",
    "634": "ick",
    "635": " hand",
    "636": " yet",
    "637": "Thou",
    "638": "CA",
    "639": "very",
    "640": "ICHARD",
    "641": "ENTIO",
    "642": "With",
    "643": "ign",
    "644": "ance",
    "645": " some",
    "646": " who",
    "647": "Which",
    "648": "If",
    "649": " when",
    "650": "ies",
    "651": " mar",
    "652": "ire",
    "653": " hon",
    "654": " mine",
    "655": "orn",
    "656": "har",
    "657": " off",
    "658": "ince",
    "659": "INC",
    "660": "ack",
    "661": "In",
    "662": " Y",
    "663": " dis",
    "664": " son",
    "665": " al",
    "666": "'t",
    "667": "We",
    "668": "wn",
    "669": " hea",
    "670": "uch",
    "671": "First",
    "672": "oy",
    "673": " hear",
    "674": " time",
    "675": "ec",
    "676": " such",
    "677": "AB",
    "678": "ness",
    "679": " brother",
    "680": "LA",
    "681": "Of",
    "682": " blood",
    "683": "ither",
    "684": " ab",
    "685": " these",
    "686": "Why",
    "687": "UE",
    "688": "No",
    "689": " give",
    "690": " fo",
    "691": " day",
    "692": " ear",
    "693": " RICHARD",
    "694": " II",
    "695": "ise",
    "696": " ex",
    "697": " ro",
    "698": "This",
    "699": " life",
    "700": "EST",
    "701": " tell",
    "702": "eet",
    "703": " think",
    "704": "So",
    "705": " look",
    "706": "UCH",
    "707": " word",
    "708": " where",
    "709": " ey",
    "710": "oul",
    "711": "ther",
    "712": "age",
    "713": "ag",
    "714": "een",
    "715": " friend",
    "716": " take",
    "717": "GLO",
    "718": "GLOUC",
    "719": "GLOUCEST",
    "720": "GLOUCESTER",
    "721": "ef",
    "722": "erv",
    "723": "ady",
    "724": "rown",
    "725": "ings",
    "726": " des",
    "727": "not",
    "728": "ave",
    "729": "urse",
    "730": " gentle",
    "731": " ri",
    "732": "How",
    "733": "RY",
    "734": "ase",
    "735": "way",
    "736": "QUE",
    "737": "QUEEN",
    "738": "INCENTIO",
    "739": " lea",
    "740": "tis",
    "741": " OF",
    "742": " art",
    "743": " most",
    "744": "Where",
    "745": " honour",
    "746": " much",
    "747": "LAN",
    "748": " sl",
    "749": " war",
    "750": " fl",
    "751": "urn",
    "752": " made",
    "753": "ment",
    "754": "Now",
    "755": " hast",
    "756": " fear",
    "757": " tw",
    "758": " T",
    "759": " bet",
    "760": "aught",
    "761": "ENRY",
    "762": "Is",
    "763": "ff",
    "764": "ber",
    "765": " God",
    "766": "LE",
    "767": "ved",
    "768": "ough",
    "769": " bre",
    "770": "cc",
    "771": " never",
    "772": "ower",
    "773": " VINCENTIO",
    "774": "Be",
    "775": "ap",
    "776": "igh",
    "777": " great",
    "778": " fair",
    "779": " K",
    "780": " cou",
    "781": " men",
    "782": "itt",
    "783": "Who",
    "784": "ee",
    "785": " Rome",
    "786": " new",
    "787": "aster",
    "788": "orrow",
    "789": "uke",
    "790": "iz",
    "791": "old",
    "792": "ORK",
    "793": " part",
    "794": "ation",
    "795": "INIUS",
    "796": "ide",
    "797": "ree",
    "798": "ss",
    "799": "Or",
    "800": " call",
    "801": " any",
    "802": "ple",
    "803": " heaven",
    "804": " ad",
    "805": " comm",
    "806": " cannot",
    "807": "Your",
    "808": "It",
    "809": " stand",
    "810": " true",
    "811": " been",
    "812": "ears",
    "813": " name",
    "814": "DW",
    "815": "DWARD",
    "816": " cl",
    "817": " pre",
    "818": " sweet",
    "819": " pray",
    "820": ",--",
    "821": " doth",
    "822": "hing",
    "823": " noble",
    "824": "UM",
    "825": "PET",
    "826": " own",
    "827": "MEN",
    "828": " ple",
    "829": "ass",
    "830": "TH",
    "831": "LUC",
    "832": "ouse",
    "833": " per",
    "834": " D",
    "835": "Come",
    "836": "There",
    "837": "Ay",
    "838": "ull",
    "839": " done",
    "840": "ife",
    "841": " wr",
    "842": " tr",
    "843": "aw",
    "844": " way",
    "845": " other",
    "846": " head",
    "847": " mean",
    "848": "li",
    "849": "When",
    "850": "red",
    "851": " nor",
    "852": "dward",
    "853": " sc",
    "854": " pres",
    "855": " soul",
    "856": "ROM",
    "857": "ROME",
    "858": "ROMEO",
    "859": "MENEN",
    "860": "MENENIUS",
    "861": " bear",
    "862": " world",
    "863": "ace",
    "864": "aint",
    "865": " night",
    "866": "ving",
    "867": " Cl",
    "868": "ause",
    "869": "ger",
    "870": " before",
    "871": " both",
    "872": " queen",
    "873": "per",
    "874": "Then",
    "875": "aughter",
    "876": " chi",
    "877": " mo",
    "878": "Here",
    "879": "PETR",
    "880": "PETRUCH",
    "881": "PETRUCHIO",
    "882": " very",
    "883": "able",
    "884": "OM",
    "885": " dead",
    "886": "TES",
    "887": " ra",
    "888": "ite",
    "889": "By",
    "890": "to",
    "891": "the",
    "892": "Than",
    "893": " ke",
    "894": "les",
    "895": "ab",
    "896": " down",
    "897": " F",
    "898": " cont",
    "899": " app",
    "900": " myself",
    "901": " arm",
    "902": " rem",
    "903": " wh",
    "904": " Lord",
    "905": "HA",
    "906": "GR",
    "907": " thus",
    "908": "ilt",
    "909": "ORIO",
    "910": "ORIOLAN",
    "911": "ORIOLANUS",
    "912": "Sec",
    "913": "Second",
    "914": " leave",
    "915": "CORIOLANUS",
    "916": " being",
    "917": "ction",
    "918": "lo",
    "919": " Edward",
    "920": " unt",
    "921": "sw",
    "922": " grace",
    "923": "Nor",
    "924": "ress",
    "925": " eyes",
    "926": "less",
    "927": " beg",
    "928": " mother",
    "929": "land",
    "930": "led",
    "931": "BA",
    "932": "ran",
    "933": " old",
    "934": " ma",
    "935": " im",
    "936": " EDWARD",
    "937": "INA",
    "938": "itiz",
    "939": "itizen",
    "940": " Mar",
    "941": " ever",
    "942": "ps",
    "943": " long",
    "944": " live",
    "945": " child",
    "946": "Let",
    "947": " wife",
    "948": "me",
    "949": " away",
    "950": " rep",
    "951": "She",
    "952": " III",
    "953": " poor",
    "954": " friends",
    "955": " wom",
    "956": " might",
    "957": "come",
    "958": " af",
    "959": "for",
    "960": "wick",
    "961": " stay",
    "962": "nder",
    "963": "eace",
    "964": " die",
    "965": "oud",
    "966": "ks",
    "967": "atch",
    "968": " comes",
    "969": " ru",
    "970": " J",
    "971": " cons",
    "972": "arwick",
    "973": " many",
    "974": "ows",
    "975": " crown",
    "976": " pe",
    "977": " le",
    "978": "hall",
    "979": "Tis",
    "980": "ison",
    "981": " YORK",
    "982": " rest",
    "983": " thought",
    "984": "iss",
    "985": "uck",
    "986": " har",
    "987": " house",
    "988": "ISAB",
    "989": "ISABEL",
    "990": "ISABELLA",
    "991": " cour",
    "992": "erc",
    "993": "ian",
    "994": " ent",
    "995": " lie",
    "996": "RAN",
    "997": " set",
    "998": "che",
    "999": "atter",
    "1000": "ors",
    "1001": "well",
    "1002": " Warwick",
    "1003": "JU",
    "1004": "JULI",
    "1005": "JULIET",
    "1006": "LEON",
    "1007": "LEONTES",
    "1008": "Nay",
    "1009": "ittle",
    "1010": "int",
    "1011": " gone",
    "1012": " daughter",
    "1013": " better",
    "1014": "rant",
    "1015": "ought",
    "1016": " prince",
    "1017": "MI",
    "1018": " tong",
    "1019": "His",
    "1020": " nothing",
    "1021": "DY",
    "1022": "VOL",
    "1023": "ENC",
    "1024": "ENCE",
    "1025": "LADY",
    "1026": "ied",
    "1027": " keep",
    "1028": "BR",
    "1029": "TA",
    "1030": " wit",
    "1031": " res",
    "1032": "ious",
    "1033": "Well",
    "1034": "ces",
    "1035": "os",
    "1036": "Go",
    "1037": " news",
    "1038": "hard",
    "1039": " sle",
    "1040": "ft",
    "1041": "ont",
    "1042": "ier",
    "1043": "ret",
    "1044": " tri",
    "1045": "SIC",
    "1046": "SICINIUS",
    "1047": "ool",
    "1048": "une",
    "1049": " those",
    "1050": " gri",
    "1051": " against",
    "1052": " little",
    "1053": "Not",
    "1054": " lords",
    "1055": "akes",
    "1056": " best",
    "1057": " hence",
    "1058": " hour",
    "1059": "ardon",
    "1060": "ford",
    "1061": " acc",
    "1062": "ult",
    "1063": "sed",
    "1064": " foll",
    "1065": "lse",
    "1066": " face",
    "1067": "On",
    "1068": " end",
    "1069": "ud",
    "1070": "ark",
    "1071": "ew",
    "1072": " young",
    "1073": "ield",
    "1074": " kind",
    "1075": " thing",
    "1076": " still",
    "1077": "ork",
    "1078": " pri",
    "1079": "alk",
    "1080": " pur",
    "1081": " comp",
    "1082": "Thy",
    "1083": "ST",
    "1084": "LUCIO",
    "1085": "ale",
    "1086": "ins",
    "1087": " power",
    "1088": " put",
    "1089": "ert",
    "1090": " two",
    "1091": "ichard",
    "1092": " IV",
    "1093": " himself",
    "1094": " cha",
    "1095": " gu",
    "1096": " dear",
    "1097": " first",
    "1098": "iness",
    "1099": " peace",
    "1100": " else",
    "1101": "cl",
    "1102": "Pro",
    "1103": "ried",
    "1104": "cious",
    "1105": "hile",
    "1106": " unto",
    "1107": "Sir",
    "1108": "ail",
    "1109": " sub",
    "1110": "ason",
    "1111": " till",
    "1112": " sm",
    "1113": "ile",
    "1114": "ray",
    "1115": "uty",
    "1116": "ect",
    "1117": " count",
    "1118": " co",
    "1119": " back",
    "1120": " words",
    "1121": " hus",
    "1122": " bid",
    "1123": " therefore",
    "1124": " earth",
    "1125": " tra",
    "1126": " dre",
    "1127": "RI",
    "1128": " ELI",
    "1129": " ELIZ",
    "1130": " ELIZAB",
    "1131": " ELIZABET",
    "1132": " ELIZABETH",
    "1133": "ius",
    "1134": "ople",
    "1135": " could",
    "1136": "men",
    "1137": "Have",
    "1138": " tongue",
    "1139": " find",
    "1140": "band",
    "1141": "yal",
    "1142": "ty",
    "1143": " need",
    "1144": " thine",
    "1145": " lady",
    "1146": "orse",
    "1147": " York",
    "1148": "ren",
    "1149": " fell",
    "1150": " high",
    "1151": " forth",
    "1152": "get",
    "1153": "tw",
    "1154": " hope",
    "1155": "enry",
    "1156": "HENRY",
    "1157": " hel",
    "1158": "St",
    "1159": "eech",
    "1160": " home",
    "1161": " seem",
    "1162": " husband",
    "1163": "eth",
    "1164": "vere",
    "1165": "MER",
    "1166": " Romeo",
    "1167": " right",
    "1168": "CL",
    "1169": " duke",
    "1170": "uth",
    "1171": " though",
    "1172": " What",
    "1173": "rer",
    "1174": "fort",
    "1175": " ban",
    "1176": " VI",
    "1177": "GE",
    "1178": "WAR",
    "1179": "WARW",
    "1180": "WARWIC",
    "1181": "WARWICK",
    "1182": " people",
    "1183": " char",
    "1184": "ister",
    "1185": " bra",
    "1186": "ach",
    "1187": " mind",
    "1188": "hip",
    "1189": "UT",
    "1190": "ix",
    "1191": " che",
    "1192": " HENRY",
    "1193": " Citizen",
    "1194": "ds",
    "1195": "ged",
    "1196": "Nurse",
    "1197": "They",
    "1198": " tre",
    "1199": " Henry",
    "1200": "HAM",
    "1201": " show",
    "1202": "eed",
    "1203": " chan",
    "1204": " conf",
    "1205": " bri",
    "1206": " law",
    "1207": " hands",
    "1208": " Richard",
    "1209": "PU",
    "1210": "PUL",
    "1211": "PULET",
    "1212": "IAN",
    "1213": " why",
    "1214": " imp",
    "1215": " once",
    "1216": " said",
    "1217": " gl",
    "1218": "be",
    "1219": " cause",
    "1220": " master",
    "1221": "EY",
    "1222": " bod",
    "1223": "Shall",
    "1224": " joy",
    "1225": " none",
    "1226": "Good",
    "1227": "ervant",
    "1228": "ousin",
    "1229": "MIO",
    "1230": "All",
    "1231": " fort",
    "1232": "bt",
    "1233": " bring",
    "1234": "Yet",
    "1235": " every",
    "1236": "ates",
    "1237": "BRUT",
    "1238": "BRUTUS",
    "1239": " dou",
    "1240": "UCKING",
    "1241": "UCKINGHAM",
    "1242": "From",
    "1243": " pass",
    "1244": "ird",
    "1245": " light",
    "1246": "iet",
    "1247": " mist",
    "1248": "BUCKINGHAM",
    "1249": "ESS",
    "1250": " BOL",
    "1251": " BOLING",
    "1252": " BOLINGB",
    "1253": " BOLINGBRO",
    "1254": " BOLINGBROKE",
    "1255": "TRAN",
    "1256": "TRANIO",
    "1257": " nat",
    "1258": "Will",
    "1259": "swer",
    "1260": " thr",
    "1261": "lt",
    "1262": "Do",
    "1263": " royal",
    "1264": " wo",
    "1265": "vost",
    "1266": "its",
    "1267": " whose",
    "1268": " please",
    "1269": " came",
    "1270": "cle",
    "1271": " tears",
    "1272": " MAR",
    "1273": "ary",
    "1274": "PER",
    "1275": "TIS",
    "1276": "ory",
    "1277": "roke",
    "1278": "vy",
    "1279": "lf",
    "1280": " pardon",
    "1281": " An",
    "1282": " heard",
    "1283": "pose",
    "1284": " dev",
    "1285": " just",
    "1286": "arry",
    "1287": " bes",
    "1288": " present",
    "1289": " boy",
    "1290": " full",
    "1291": "Cl",
    "1292": " wrong",
    "1293": " happ",
    "1294": "NE",
    "1295": " MARG",
    "1296": " MARGAR",
    "1297": " MARGARET",
    "1298": " mis",
    "1299": " ere",
    "1300": " state",
    "1301": " since",
    "1302": "eel",
    "1303": " place",
    "1304": "ens",
    "1305": " last",
    "1306": " land",
    "1307": "MIL",
    "1308": "ATH",
    "1309": " kill",
    "1310": "sand",
    "1311": "mb",
    "1312": "ock",
    "1313": " meet",
    "1314": " after",
    "1315": " under",
    "1316": "ition",
    "1317": " care",
    "1318": " thousand",
    "1319": " hold",
    "1320": "esty",
    "1321": "cent",
    "1322": " sorrow",
    "1323": "ORD",
    "1324": "GRE",
    "1325": "ANGE",
    "1326": "ANGELO",
    "1327": "HOR",
    "1328": " help",
    "1329": "Our",
    "1330": " follow",
    "1331": " whom",
    "1332": "arence",
    "1333": "CU",
    "1334": "ARINA",
    "1335": "cius",
    "1336": " enem",
    "1337": "irt",
    "1338": "selves",
    "1339": " eye",
    "1340": " about",
    "1341": "ceive",
    "1342": " hither",
    "1343": " less",
    "1344": "day",
    "1345": " far",
    "1346": " weep",
    "1347": " shame",
    "1348": "KATH",
    "1349": "KATHARINA",
    "1350": " pat",
    "1351": "ons",
    "1352": " answer",
    "1353": " sun",
    "1354": "iol",
    "1355": " fool",
    "1356": " fal",
    "1357": "urde",
    "1358": "asure",
    "1359": "air",
    "1360": " fall",
    "1361": " maid",
    "1362": " ch",
    "1363": "ount",
    "1364": "thy",
    "1365": " bus",
    "1366": " hate",
    "1367": "Up",
    "1368": " gentleman",
    "1369": " gracious",
    "1370": "Un",
    "1371": " grief",
    "1372": " cousin",
    "1373": " King",
    "1374": "ESCA",
    "1375": "ESCAL",
    "1376": "ESCALUS",
    "1377": "ject",
    "1378": " makes",
    "1379": " stri",
    "1380": "ove",
    "1381": "imes",
    "1382": " into",
    "1383": "An",
    "1384": "ild",
    "1385": " stre",
    "1386": "iv",
    "1387": "Hath",
    "1388": " woman",
    "1389": " Eng",
    "1390": " hum",
    "1391": "ices",
    "1392": "ling",
    "1393": " coun",
    "1394": " court",
    "1395": " comfort",
    "1396": " turn",
    "1397": " sleep",
    "1398": " dost",
    "1399": "alt",
    "1400": "urderer",
    "1401": " Duke",
    "1402": "DUCH",
    "1403": "DUCHESS",
    "1404": " talk",
    "1405": " body",
    "1406": " bel",
    "1407": " over",
    "1408": "pher",
    "1409": "itor",
    "1410": "Lord",
    "1411": " Marcius",
    "1412": "deed",
    "1413": "ute",
    "1414": " bu",
    "1415": " gr",
    "1416": " wilt",
    "1417": "morrow",
    "1418": "gelo",
    "1419": "ieve",
    "1420": " fault",
    "1421": " att",
    "1422": "ience",
    "1423": " i",
    "1424": "IA",
    "1425": " bed",
    "1426": " play",
    "1427": " prove",
    "1428": "ised",
    "1429": " Clarence",
    "1430": "CAMIL",
    "1431": "CAMILLO",
    "1432": "ans",
    "1433": " deed",
    "1434": "ily",
    "1435": " inst",
    "1436": " ret",
    "1437": " wel",
    "1438": " thank",
    "1439": "ere",
    "1440": " sound",
    "1441": " dra",
    "1442": "ade",
    "1443": "omet",
    "1444": "God",
    "1445": " indeed",
    "1446": " ser",
    "1447": " sword",
    "1448": " fight",
    "1449": "hold",
    "1450": " false",
    "1451": " bo",
    "1452": " vo",
    "1453": "illain",
    "1454": " Angelo",
    "1455": "HORT",
    "1456": "HORTEN",
    "1457": "HORTENS",
    "1458": " even",
    "1459": " fellow",
    "1460": "Sh",
    "1461": " grave",
    "1462": "Upon",
    "1463": " another",
    "1464": " use",
    "1465": " adv",
    "1466": " sovere",
    "1467": "FRI",
    "1468": "FRIAR",
    "1469": "Provost",
    "1470": "HORTENSIO",
    "1471": " has",
    "1472": " cur",
    "1473": "ury",
    "1474": ",'",
    "1475": " fortune",
    "1476": "pect",
    "1477": "eal",
    "1478": " banish",
    "1479": "BAP",
    "1480": "BAPTIS",
    "1481": "BAPTISTA",
    "1482": " rather",
    "1483": " reven",
    "1484": " country",
    "1485": " matter",
    "1486": " want",
    "1487": "mp",
    "1488": " send",
    "1489": "ouch",
    "1490": "COM",
    "1491": "COMINIUS",
    "1492": " doubt",
    "1493": " ass",
    "1494": "pen",
    "1495": "fect",
    "1496": " prison",
    "1497": " merc",
    "1498": "AUT",
    "1499": "AUTOL",
    "1500": "AUTOLY",
    "1501": "AUTOLYC",
    "1502": "AUTOLYCUS",
    "1503": " virt",
    "1504": " only",
    "1505": "Even",
    "1506": ".'",
    "1507": " wish",
    "1508": "More",
    "1509": " lies",
    "1510": " truth",
    "1511": " years",
    "1512": "Are",
    "1513": "Third",
    "1514": " reason",
    "1515": "ARENCE",
    "1516": "Would",
    "1517": " breath",
    "1518": " arms",
    "1519": "ms",
    "1520": "of",
    "1521": "ior",
    "1522": " pers",
    "1523": " But",
    "1524": "any",
    "1525": " dan",
    "1526": "pherd",
    "1527": "rance",
    "1528": " dream",
    "1529": "CLARENCE",
    "1530": " business",
    "1531": " disc",
    "1532": "ener",
    "1533": "MAR",
    "1534": " sent",
    "1535": "dd",
    "1536": " gi",
    "1537": " stra",
    "1538": " shalt",
    "1539": "der",
    "1540": "NOR",
    "1541": "BEN",
    "1542": "BENVOL",
    "1543": "BENVOLIO",
    "1544": "Clown",
    "1545": " enough",
    "1546": " sen",
    "1547": "hed",
    "1548": "by",
    "1549": "At",
    "1550": " prom",
    "1551": " command",
    "1552": "Al",
    "1553": "erving",
    "1554": " holy",
    "1555": "GRUM",
    "1556": "GRUMIO",
    "1557": "PRO",
    "1558": "PROS",
    "1559": "PROSPER",
    "1560": "PROSPERO",
    "1561": " content",
    "1562": " proud",
    "1563": " cra",
    "1564": " sold",
    "1565": " lay",
    "1566": " hang",
    "1567": " stran",
    "1568": "ator",
    "1569": "ia",
    "1570": " swear",
    "1571": " pity",
    "1572": " fare",
    "1573": " wind",
    "1574": " spir",
    "1575": "ken",
    "1576": " sea",
    "1577": "ars",
    "1578": " bea",
    "1579": " Murderer",
    "1580": "MERCU",
    "1581": "MERCUTIO",
    "1582": "gainst",
    "1583": " nature",
    "1584": "ike",
    "1585": "eter",
    "1586": " remem",
    "1587": " dep",
    "1588": " welcome",
    "1589": " sec",
    "1590": " dare",
    "1591": " lives",
    "1592": " villain",
    "1593": " Kate",
    "1594": "LUCENTIO",
    "1595": " gods",
    "1596": " int",
    "1597": " get",
    "1598": "unt",
    "1599": " madam",
    "1600": "com",
    "1601": " saw",
    "1602": " Come",
    "1603": " within",
    "1604": " gre",
    "1605": "ester",
    "1606": " free",
    "1607": "Tw",
    "1608": " sovereign",
    "1609": " kiss",
    "1610": "ham",
    "1611": " tend",
    "1612": " happy",
    "1613": "LAND",
    "1614": "POM",
    "1615": "POMP",
    "1616": " serv",
    "1617": " city",
    "1618": "vers",
    "1619": " beseech",
    "1620": "Were",
    "1621": " somet",
    "1622": "hal",
    "1623": "apt",
    "1624": " sister",
    "1625": " foul",
    "1626": "PAU",
    "1627": "PAUL",
    "1628": "PAULINA",
    "1629": " yield",
    "1630": "ery",
    "1631": "att",
    "1632": " break",
    "1633": " means",
    "1634": "gether",
    "1635": "onder",
    "1636": " yours",
    "1637": " three",
    "1638": "use",
    "1639": "ient",
    "1640": "ague",
    "1641": " subject",
    "1642": " den",
    "1643": " oath",
    "1644": "YORK",
    "1645": "POMPEY",
    "1646": "GREMIO",
    "1647": " while",
    "1648": " aw",
    "1649": " things",
    "1650": " born",
    "1651": " mer",
    "1652": "VOLUM",
    "1653": "VOLUMN",
    "1654": "VOLUMNIA",
    "1655": "like",
    "1656": " bloody",
    "1657": " horse",
    "1658": "ches",
    "1659": "eft",
    "1660": " looks",
    "1661": "anc",
    "1662": "usic",
    "1663": " Nor",
    "1664": "yb",
    "1665": "ybalt",
    "1666": "PO",
    "1667": "POLI",
    "1668": "POLIX",
    "1669": "POLIXEN",
    "1670": "POLIXENES",
    "1671": "ANT",
    "1672": "rong",
    "1673": "up",
    "1674": " win",
    "1675": "ues",
    "1676": " fire",
    "1677": "enger",
    "1678": " yourself",
    "1679": " spo",
    "1680": " wound",
    "1681": " maj",
    "1682": "Her",
    "1683": " faith",
    "1684": " tem",
    "1685": " supp",
    "1686": " traitor",
    "1687": " Serving",
    "1688": " Servingman",
    "1689": "STING",
    "1690": "STINGS",
    "1691": "centio",
    "1692": "GON",
    "1693": " ob",
    "1694": " common",
    "1695": " mark",
    "1696": "essenger",
    "1697": " dru",
    "1698": " children",
    "1699": "Say",
    "1700": "ertain",
    "1701": " lam",
    "1702": "rem",
    "1703": " mistress",
    "1704": "HASTINGS",
    "1705": "broke",
    "1706": " LAU",
    "1707": " LAUR",
    "1708": " LAURENCE",
    "1709": " def",
    "1710": " val",
    "1711": "form",
    "1712": " beat",
    "1713": " cond",
    "1714": "Therefore",
    "1715": " requ",
    "1716": " majesty",
    "1717": "BY",
    "1718": " uncle",
    "1719": "BER",
    "1720": " aff",
    "1721": " late",
    "1722": " told",
    "1723": " sin",
    "1724": "Was",
    "1725": " days",
    "1726": " save",
    "1727": " met",
    "1728": " seen",
    "1729": " left",
    "1730": "Look",
    "1731": " soon",
    "1732": " tender",
    "1733": " England",
    "1734": "CLI",
    "1735": "CLIF",
    "1736": "CLIFF",
    "1737": " woe",
    "1738": "NORTH",
    "1739": "NORTHUM",
    "1740": "NORTHUMBER",
    "1741": "NORTHUMBERLAND",
    "1742": " gener",
    "1743": "Though",
    "1744": "ring",
    "1745": "ides",
    "1746": "ID",
    "1747": "Take",
    "1748": " return",
    "1749": " does",
    "1750": " farewell",
    "1751": "ever",
    "1752": " mercy",
    "1753": " sight",
    "1754": " mon",
    "1755": "idow",
    "1756": "pl",
    "1757": " purpose",
    "1758": " through",
    "1759": "bl",
    "1760": "hes",
    "1761": " sit",
    "1762": "unes",
    "1763": "dom",
    "1764": "ten",
    "1765": " warrant",
    "1766": " danger",
    "1767": " deep",
    "1768": " foot",
    "1769": "ac",
    "1770": " gold",
    "1771": "ters",
    "1772": " heavy",
    "1773": " sad",
    "1774": "rel",
    "1775": " marry",
    "1776": " AN",
    "1777": " ANNE",
    "1778": " Jul",
    "1779": "ict",
    "1780": "vent",
    "1781": "und",
    "1782": "ours",
    "1783": "ments",
    "1784": "Did",
    "1785": "mer",
    "1786": " deser",
    "1787": " cho",
    "1788": " together",
    "1789": "Give",
    "1790": "so",
    "1791": " ill",
    "1792": " grow",
    "1793": "earn",
    "1794": " nurse",
    "1795": " sure",
    "1796": "aim",
    "1797": " cold",
    "1798": "ifford",
    "1799": "Ah",
    "1800": "PR",
    "1801": "PRINC",
    "1802": "PRINCE",
    "1803": "CAPULET",
    "1804": "ignior",
    "1805": "ceed",
    "1806": "oriol",
    "1807": "arewell",
    "1808": " pluck",
    "1809": "az",
    "1810": " report",
    "1811": "ca",
    "1812": " spirit",
    "1813": " believe",
    "1814": " ask",
    "1815": " without",
    "1816": "ush",
    "1817": " times",
    "1818": "enty",
    "1819": "aid",
    "1820": " lost",
    "1821": "ross",
    "1822": "oint",
    "1823": " liege",
    "1824": "oling",
    "1825": "olingbroke",
    "1826": "One",
    "1827": " says",
    "1828": "outh",
    "1829": " strange",
    "1830": "ains",
    "1831": "sh",
    "1832": " air",
    "1833": "ets",
    "1834": "ift",
    "1835": " age",
    "1836": " wat",
    "1837": " loss",
    "1838": " thyself",
    "1839": " heir",
    "1840": "Whose",
    "1841": "xt",
    "1842": " Bolingbroke",
    "1843": " Mont",
    "1844": " suff",
    "1845": "Should",
    "1846": " cry",
    "1847": "aking",
    "1848": " ears",
    "1849": "Had",
    "1850": " entreat",
    "1851": " person",
    "1852": "no",
    "1853": " haste",
    "1854": "ced",
    "1855": "ial",
    "1856": " devil",
    "1857": "ner",
    "1858": " ground",
    "1859": " learn",
    "1860": " Clifford",
    "1861": " Juliet",
    "1862": "ALO",
    "1863": "night",
    "1864": "oman",
    "1865": "Like",
    "1866": " ag",
    "1867": " remember",
    "1868": " point",
    "1869": " justice",
    "1870": " disp",
    "1871": "Wh",
    "1872": " betw",
    "1873": " vis",
    "1874": " fast",
    "1875": " mur",
    "1876": "ined",
    "1877": " fly",
    "1878": " toward",
    "1879": "ixt",
    "1880": " straight",
    "1881": " past",
    "1882": "let",
    "1883": " slain",
    "1884": " France",
    "1885": " Lu",
    "1886": " friar",
    "1887": "aud",
    "1888": " strong",
    "1889": " curse",
    "1890": " instru",
    "1891": " trust",
    "1892": " worthy",
    "1893": " bold",
    "1894": "AUF",
    "1895": "AUFID",
    "1896": "AUFIDIUS",
    "1897": "These",
    "1898": " alone",
    "1899": "Some",
    "1900": " quick",
    "1901": " sil",
    "1902": "May",
    "1903": "ution",
    "1904": " desire",
    "1905": " service",
    "1906": " near",
    "1907": " ord",
    "1908": "entleman",
    "1909": " beauty",
    "1910": " CA",
    "1911": " CAPULET",
    "1912": "ina",
    "1913": "FL",
    "1914": "FLOR",
    "1915": "FLORI",
    "1916": "FLORIZ",
    "1917": "FLORIZEL",
    "1918": " enemy",
    "1919": " revenge",
    "1920": " general",
    "1921": " run",
    "1922": " ready",
    "1923": "gs",
    "1924": " brought",
    "1925": " found",
    "1926": "adam",
    "1927": "ning",
    "1928": "ship",
    "1929": "ithe",
    "1930": " hard",
    "1931": "ured",
    "1932": "with",
    "1933": " touch",
    "1934": " Is",
    "1935": " poss",
    "1936": "Tell",
    "1937": "Can",
    "1938": "VER",
    "1939": " Tybalt",
    "1940": "SE",
    "1941": "ION",
    "1942": "audio",
    "1943": "bs",
    "1944": "aunt",
    "1945": " inf",
    "1946": " grant",
    "1947": " Sen",
    "1948": " Senator",
    "1949": "!'",
    "1950": "inks",
    "1951": " lose",
    "1952": "ible",
    "1953": " thoughts",
    "1954": " charge",
    "1955": " knows",
    "1956": " woo",
    "1957": "umber",
    "1958": "Ha",
    "1959": " itself",
    "1960": "cept",
    "1961": "vo",
    "1962": " Here",
    "1963": " married",
    "1964": " canst",
    "1965": " duty",
    "1966": "amill",
    "1967": "Sp",
    "1968": "Against",
    "1969": " You",
    "1970": " deli",
    "1971": "Bec",
    "1972": "CIUS",
    "1973": " marri",
    "1974": " quar",
    "1975": " iss",
    "1976": " prof",
    "1977": "ched",
    "1978": " speed",
    "1979": " streng",
    "1980": "ithee",
    "1981": " stands",
    "1982": " hours",
    "1983": " morn",
    "1984": " twenty",
    "1985": " wear",
    "1986": " confess",
    "1987": " read",
    "1988": "eep",
    "1989": "lou",
    "1990": "louc",
    "1991": "ua",
    "1992": "RICHARD",
    "1993": "Shepherd",
    "1994": "SEBA",
    "1995": "SEBAST",
    "1996": "SEBASTIAN",
    "1997": " fur",
    "1998": "fection",
    "1999": " inc",
    "2000": " counsel",
    "2001": " fore",
    "2002": "oop",
    "2003": "gu",
    "2004": " half",
    "2005": " field",
    "2006": "Thus",
    "2007": " youth",
    "2008": " hell",
    "2009": " car",
    "2010": " mock",
    "2011": "ump",
    "2012": " post",
    "2013": " exec",
    "2014": " jud",
    "2015": " div",
    "2016": " N",
    "2017": " fearful",
    "2018": "ones",
    "2019": " Hast",
    "2020": "ucking",
    "2021": " Ri",
    "2022": "olk",
    "2023": "OW",
    "2024": "amillo",
    "2025": " resol",
    "2026": "itizens",
    "2027": " work",
    "2028": " min",
    "2029": " each",
    "2030": "most",
    "2031": " batt",
    "2032": "MARCIUS",
    "2033": "ols",
    "2034": "ads",
    "2035": "Com",
    "2036": " Coriol",
    "2037": "pare",
    "2038": " par",
    "2039": "Till",
    "2040": " behold",
    "2041": " hearts",
    "2042": " ter",
    "2043": " del",
    "2044": " wret",
    "2045": "cess",
    "2046": "ortal",
    "2047": " desp",
    "2048": " bos",
    "2049": " bosom",
    "2050": " rec",
    "2051": "loucester",
    "2052": "uckingham",
    "2053": " marriage",
    "2054": " Montague",
    "2055": " Claudio",
    "2056": "BION",
    "2057": "BIOND",
    "2058": "BIONDEL",
    "2059": "BIONDELLO",
    "2060": " The",
    "2061": " Cap",
    "2062": " ten",
    "2063": " attend",
    "2064": " tale",
    "2065": " ye",
    "2066": " seek",
    "2067": " strike",
    "2068": " company",
    "2069": " known",
    "2070": " short",
    "2071": "Madam",
    "2072": "Away",
    "2073": " open",
    "2074": "iers",
    "2075": "ges",
    "2076": " serve",
    "2077": " harm",
    "2078": " bound",
    "2079": "now",
    "2080": " dam",
    "2081": "ench",
    "2082": "alm",
    "2083": " tit",
    "2084": " cut",
    "2085": "rah",
    "2086": " highness",
    "2087": " Hastings",
    "2088": " murder",
    "2089": " guilt",
    "2090": " Buckingham",
    "2091": "folk",
    "2092": "MON",
    "2093": " side",
    "2094": " honest",
    "2095": "ander",
    "2096": "ished",
    "2097": " feel",
    "2098": "ents",
    "2099": " ve",
    "2100": "rest",
    "2101": " He",
    "2102": " trib",
    "2103": "Farewell",
    "2104": " strength",
    "2105": " draw",
    "2106": " dist",
    "2107": " something",
    "2108": " suit",
    "2109": " loving",
    "2110": " voices",
    "2111": " dish",
    "2112": "hood",
    "2113": " sat",
    "2114": " heavens",
    "2115": " whi",
    "2116": " watch",
    "2117": "chan",
    "2118": "OP",
    "2119": "HER",
    "2120": " AU",
    "2121": " AUMER",
    "2122": " AUMERLE",
    "2123": "ANTON",
    "2124": "ANTONIO",
    "2125": " enemies",
    "2126": " act",
    "2127": " cor",
    "2128": "See",
    "2129": "fid",
    "2130": " wonder",
    "2131": " stir",
    "2132": "ethinks",
    "2133": " wast",
    "2134": " gentlemen",
    "2135": "Pray",
    "2136": "ging",
    "2137": " sto",
    "2138": " sake",
    "2139": " cloud",
    "2140": " women",
    "2141": " widow",
    "2142": " Lanc",
    "2143": " Lancaster",
    "2144": " didst",
    "2145": " Gloucester",
    "2146": " bit",
    "2147": "Marry",
    "2148": " Gentleman",
    "2149": "GONZ",
    "2150": "GONZALO",
    "2151": " course",
    "2152": "race",
    "2153": "Unt",
    "2154": " pale",
    "2155": "rew",
    "2156": " sing",
    "2157": "bly",
    "2158": " gates",
    "2159": "ils",
    "2160": " souls",
    "2161": "ives",
    "2162": " pra",
    "2163": " brave",
    "2164": " thanks",
    "2165": " dr",
    "2166": " coming",
    "2167": "ceived",
    "2168": " chee",
    "2169": " enter",
    "2170": " pie",
    "2171": "oose",
    "2172": " withal",
    "2173": " title",
    "2174": " knew",
    "2175": " next",
    "2176": " close",
    "2177": " breat",
    "2178": " pleasure",
    "2179": " music",
    "2180": " Camillo",
    "2181": "ianca",
    "2182": " become",
    "2183": "ats",
    "2184": " suffer",
    "2185": " pret",
    "2186": "you",
    "2187": " deliver",
    "2188": " fit",
    "2189": "rust",
    "2190": " change",
    "2191": " gar",
    "2192": "oward",
    "2193": " abs",
    "2194": " jest",
    "2195": "fter",
    "2196": "els",
    "2197": "etch",
    "2198": " grie",
    "2199": " forg",
    "2200": "ne",
    "2201": "vour",
    "2202": " bur",
    "2203": " plain",
    "2204": " lips",
    "2205": " wa",
    "2206": " either",
    "2207": "claim",
    "2208": " ty",
    "2209": " weak",
    "2210": " Norfolk",
    "2211": "etru",
    "2212": "CLIFFORD",
    "2213": "HERMIO",
    "2214": "HERMIONE",
    "2215": "CLAU",
    "2216": "CLAUD",
    "2217": "CLAUDIO",
    "2218": "uff",
    "2219": "kes",
    "2220": "ready",
    "2221": " rich",
    "2222": " sick",
    "2223": " wall",
    "2224": " wis",
    "2225": "oof",
    "2226": "ufid",
    "2227": "ufidius",
    "2228": " along",
    "2229": " worse",
    "2230": " themselves",
    "2231": " breast",
    "2232": "twas",
    "2233": "cher",
    "2234": " patience",
    "2235": "irth",
    "2236": " took",
    "2237": " merry",
    "2238": "east",
    "2239": "twere",
    "2240": " sign",
    "2241": " same",
    "2242": " poison",
    "2243": " cast",
    "2244": " consul",
    "2245": " forget",
    "2246": " ven",
    "2247": "Most",
    "2248": " sk",
    "2249": "ses",
    "2250": " forb",
    "2251": " reg",
    "2252": " Th",
    "2253": " cheer",
    "2254": "urp",
    "2255": " order",
    "2256": " Pom",
    "2257": "LORD",
    "2258": "isf",
    "2259": "EDWARD",
    "2260": "ranio",
    "2261": " Bianca",
    "2262": "etruch",
    "2263": "etruchio",
    "2264": "MIRAN",
    "2265": "MIRAND",
    "2266": "MIRANDA",
    "2267": " further",
    "2268": "ally",
    "2269": " virtue",
    "2270": " already",
    "2271": " If",
    "2272": "ash",
    "2273": " battle",
    "2274": " mouth",
    "2275": "Messenger",
    "2276": "Being",
    "2277": "ries",
    "2278": " four",
    "2279": "rows",
    "2280": " issue",
    "2281": "chm",
    "2282": "lst",
    "2283": " given",
    "2284": " bad",
    "2285": " morning",
    "2286": "ions",
    "2287": " gave",
    "2288": " office",
    "2289": " self",
    "2290": " wed",
    "2291": " liber",
    "2292": "oin",
    "2293": " book",
    "2294": " move",
    "2295": " du",
    "2296": "vern",
    "2297": " Hereford",
    "2298": "OH",
    "2299": "OHN",
    "2300": "Servant",
    "2301": "SA",
    "2302": "SON",
    "2303": "Before",
    "2304": " pay",
    "2305": " soft",
    "2306": "used",
    "2307": " wise",
    "2308": "Make",
    "2309": " succ",
    "2310": " goes",
    "2311": "Since",
    "2312": " sworn",
    "2313": " between",
    "2314": " sons",
    "2315": "uous",
    "2316": " lad",
    "2317": "pes",
    "2318": " red",
    "2319": " foe",
    "2320": "dden",
    "2321": "oun",
    "2322": " burn",
    "2323": " dire",
    "2324": " feast",
    "2325": " ext",
    "2326": " ta",
    "2327": " consent",
    "2328": "anus",
    "2329": " begin",
    "2330": " request",
    "2331": " begg",
    "2332": " gro",
    "2333": "mber",
    "2334": "elcome",
    "2335": "icer",
    "2336": "esh",
    "2337": " ac",
    "2338": " black",
    "2339": " trou",
    "2340": " frown",
    "2341": "each",
    "2342": " quarrel",
    "2343": "she",
    "2344": " soldiers",
    "2345": "nk",
    "2346": " prop",
    "2347": " Tower",
    "2348": "orge",
    "2349": "rist",
    "2350": "chmond",
    "2351": " satisf",
    "2352": " Signior",
    "2353": " Lucentio",
    "2354": "ung",
    "2355": " bar",
    "2356": " For",
    "2357": "Re",
    "2358": "Because",
    "2359": "ires",
    "2360": "ends",
    "2361": " thri",
    "2362": " Aufidius",
    "2363": " cr",
    "2364": "Such",
    "2365": " thence",
    "2366": " exp",
    "2367": "IR",
    "2368": " bless",
    "2369": "Sw",
    "2370": "irm",
    "2371": " dro",
    "2372": " dangerous",
    "2373": "Call",
    "2374": "owers",
    "2375": " wounds",
    "2376": "Must",
    "2377": " priv",
    "2378": "ures",
    "2379": " worth",
    "2380": "bed",
    "2381": "stand",
    "2382": " dark",
    "2383": " servant",
    "2384": "awd",
    "2385": " loves",
    "2386": "ting",
    "2387": "empt",
    "2388": "Unless",
    "2389": " presence",
    "2390": "ots",
    "2391": "Alas",
    "2392": " case",
    "2393": "gare",
    "2394": "garet",
    "2395": " Ch",
    "2396": "CATES",
    "2397": "CATESBY",
    "2398": "aris",
    "2399": "NT",
    "2400": "AS",
    "2401": "hem",
    "2402": " und",
    "2403": " wars",
    "2404": " flatter",
    "2405": " ev",
    "2406": " sigh",
    "2407": " Vols",
    "2408": " emb",
    "2409": " visit",
    "2410": " got",
    "2411": " brief",
    "2412": " spoke",
    "2413": "oll",
    "2414": " ble",
    "2415": " neither",
    "2416": " inter",
    "2417": "that",
    "2418": "emn",
    "2419": " hot",
    "2420": "onour",
    "2421": "cient",
    "2422": " voice",
    "2423": " deny",
    "2424": " Sir",
    "2425": " sum",
    "2426": " water",
    "2427": " respect",
    "2428": " dread",
    "2429": " throne",
    "2430": " vict",
    "2431": " mighty",
    "2432": " Lond",
    "2433": " London",
    "2434": "LY",
    "2435": "ona",
    "2436": " bride",
    "2437": "aptist",
    "2438": " mal",
    "2439": " loved",
    "2440": " deeds",
    "2441": "ip",
    "2442": "Rome",
    "2443": "right",
    "2444": " fra",
    "2445": "iant",
    "2446": "ught",
    "2447": " town",
    "2448": " safe",
    "2449": " kings",
    "2450": "LIA",
    "2451": "bey",
    "2452": " buy",
    "2453": " hur",
    "2454": " sudden",
    "2455": " princely",
    "2456": "ired",
    "2457": " often",
    "2458": "Both",
    "2459": " chamber",
    "2460": " est",
    "2461": "Yes",
    "2462": " bab",
    "2463": " ancient",
    "2464": "Whom",
    "2465": " mortal",
    "2466": "ainted",
    "2467": " speech",
    "2468": "ided",
    "2469": "mand",
    "2470": " worship",
    "2471": " having",
    "2472": "Lest",
    "2473": " bow",
    "2474": "rt",
    "2475": " seems",
    "2476": " vow",
    "2477": "ern",
    "2478": " Ge",
    "2479": " George",
    "2480": "BRA",
    "2481": " Margaret",
    "2482": "VERS",
    "2483": " Richmond",
    "2484": " bitter",
    "2485": " Paris",
    "2486": "REY",
    "2487": "JOHN",
    "2488": "BAL",
    "2489": "BIAN",
    "2490": "BIANCA",
    "2491": " Baptist",
    "2492": "Speak",
    "2493": "sp",
    "2494": " seat",
    "2495": "ura",
    "2496": "antage",
    "2497": " lead",
    "2498": "king",
    "2499": " coward",
    "2500": " promise",
    "2501": " valiant",
    "2502": " success",
    "2503": " appear",
    "2504": "ls",
    "2505": " Lady",
    "2506": " This",
    "2507": " Pl",
    "2508": " Thou",
    "2509": " fetch",
    "2510": " sac",
    "2511": "cks",
    "2512": "otion",
    "2513": " col",
    "2514": "essed",
    "2515": "Welcome",
    "2516": "lish",
    "2517": " lim",
    "2518": "urch",
    "2519": " heads",
    "2520": " scorn",
    "2521": " rage",
    "2522": " patient",
    "2523": " cross",
    "2524": " lament",
    "2525": " witness",
    "2526": " knock",
    "2527": "oney",
    "2528": " fres",
    "2529": " prot",
    "2530": " Saint",
    "2531": " pen",
    "2532": "RIVERS",
    "2533": " kingdom",
    "2534": " GAU",
    "2535": " GAUNT",
    "2536": " Servant",
    "2537": " Isab",
    "2538": "ELB",
    "2539": "ELBOW",
    "2540": " Baptista",
    "2541": "nown",
    "2542": "su",
    "2543": " eat",
    "2544": " compl",
    "2545": "cy",
    "2546": "Their",
    "2547": "iff",
    "2548": " lack",
    "2549": " cap",
    "2550": " moon",
    "2551": " tribunes",
    "2552": "Ere",
    "2553": " throw",
    "2554": "Bes",
    "2555": " action",
    "2556": " prepare",
    "2557": " prayers",
    "2558": " prithee",
    "2559": " viol",
    "2560": " opp",
    "2561": "sper",
    "2562": " enc",
    "2563": "Hold",
    "2564": " slave",
    "2565": "ities",
    "2566": " wash",
    "2567": " My",
    "2568": "will",
    "2569": " ang",
    "2570": " least",
    "2571": " drink",
    "2572": " appro",
    "2573": "aken",
    "2574": " triump",
    "2575": " flesh",
    "2576": " ow",
    "2577": " cle",
    "2578": " ign",
    "2579": " gall",
    "2580": "ler",
    "2581": " bro",
    "2582": " creat",
    "2583": "itted",
    "2584": " forward",
    "2585": " offer",
    "2586": "antag",
    "2587": "then",
    "2588": " Christ",
    "2589": "xford",
    "2590": " prin",
    "2591": " kins",
    "2592": "TY",
    "2593": " bawd",
    "2594": "TAG",
    "2595": "TAGUE",
    "2596": "Romeo",
    "2597": " KING",
    "2598": " Tranio",
    "2599": "ortens",
    "2600": "ortensio",
    "2601": " Petruchio",
    "2602": " sur",
    "2603": "but",
    "2604": " faults",
    "2605": "asters",
    "2606": "ees",
    "2607": " mid",
    "2608": " id",
    "2609": " small",
    "2610": " reb",
    "2611": "ines",
    "2612": " almost",
    "2613": " defend",
    "2614": " thither",
    "2615": "feit",
    "2616": "vest",
    "2617": "umb",
    "2618": "als",
    "2619": "aked",
    "2620": " hide",
    "2621": " beast",
    "2622": "bit",
    "2623": " subjects",
    "2624": "alth",
    "2625": " dest",
    "2626": " scar",
    "2627": "oor",
    "2628": "ully",
    "2629": " presently",
    "2630": " fie",
    "2631": "raw",
    "2632": "sc",
    "2633": " possess",
    "2634": "rum",
    "2635": " nay",
    "2636": "joy",
    "2637": "Yea",
    "2638": " secret",
    "2639": "host",
    "2640": "ley",
    "2641": "thumber",
    "2642": "thumberland",
    "2643": " depart",
    "2644": "ohem",
    "2645": "pey",
    "2646": "athar",
    "2647": "atharina",
    "2648": "cience",
    "2649": "rue",
    "2650": "Con",
    "2651": " lab",
    "2652": "ingly",
    "2653": " trump",
    "2654": "ural",
    "2655": " ben",
    "2656": " ins",
    "2657": "hind",
    "2658": " perform",
    "2659": " chance",
    "2660": " whence",
    "2661": " hearing",
    "2662": "VIR",
    "2663": "VIRG",
    "2664": "VIRGI",
    "2665": "VIRGILIA",
    "2666": " tear",
    "2667": " fill",
    "2668": "inger",
    "2669": "Pl",
    "2670": " base",
    "2671": "Whi",
    "2672": " stru",
    "2673": "ying",
    "2674": " quickly",
    "2675": "though",
    "2676": " writ",
    "2677": "perate",
    "2678": " eas",
    "2679": "ledge",
    "2680": " form",
    "2681": " virtuous",
    "2682": "Stand",
    "2683": "Stay",
    "2684": " goodly",
    "2685": " fond",
    "2686": " birth",
    "2687": " pain",
    "2688": " bec",
    "2689": "rey",
    "2690": " living",
    "2691": "aul",
    "2692": " slaughter",
    "2693": " damn",
    "2694": " usurp",
    "2695": " wert",
    "2696": "AT",
    "2697": "arl",
    "2698": " GREY",
    "2699": "MONTAGUE",
    "2700": "ohemia",
    "2701": "PERD",
    "2702": "PERDI",
    "2703": "PERDITA",
    "2704": "IEL",
    "2705": " proceed",
    "2706": " pretty",
    "2707": " affection",
    "2708": " soldier",
    "2709": " awhile",
    "2710": " pu",
    "2711": "bb",
    "2712": " offence",
    "2713": " glad",
    "2714": " shad",
    "2715": " ut",
    "2716": " knee",
    "2717": "arn",
    "2718": " fier",
    "2719": "ze",
    "2720": " certain",
    "2721": "gg",
    "2722": " adm",
    "2723": " Coriolanus",
    "2724": "ustom",
    "2725": " angry",
    "2726": "your",
    "2727": " pleas",
    "2728": "over",
    "2729": " ay",
    "2730": " execution",
    "2731": " blows",
    "2732": " deserved",
    "2733": " inj",
    "2734": " ca",
    "2735": "ror",
    "2736": "eds",
    "2737": "force",
    "2738": "ony",
    "2739": "Think",
    "2740": " match",
    "2741": "read",
    "2742": " inno",
    "2743": "Peace",
    "2744": " lawful",
    "2745": " wild",
    "2746": " mild",
    "2747": "astard",
    "2748": " hadst",
    "2749": " weeping",
    "2750": " quiet",
    "2751": " ur",
    "2752": " kneel",
    "2753": "oss",
    "2754": "ding",
    "2755": " St",
    "2756": "iest",
    "2757": " Paul",
    "2758": "isure",
    "2759": " slew",
    "2760": " pit",
    "2761": "SET",
    "2762": " tor",
    "2763": " guilty",
    "2764": "eem",
    "2765": "Doth",
    "2766": " Oxford",
    "2767": " Pompey",
    "2768": "MARIAN",
    "2769": "MARIANA",
    "2770": "SLY",
    "2771": "edant",
    "2772": " fam",
    "2773": " unk",
    "2774": "ighb",
    "2775": "med",
    "2776": " walk",
    "2777": " speaks",
    "2778": " sho",
    "2779": " worst",
    "2780": " nob",
    "2781": " em",
    "2782": " greater",
    "2783": "Mar",
    "2784": "vol",
    "2785": " mod",
    "2786": "zen",
    "2787": " neck",
    "2788": " ladies",
    "2789": " march",
    "2790": " blow",
    "2791": " shi",
    "2792": "ounter",
    "2793": "osition",
    "2794": " shows",
    "2795": " doom",
    "2796": " condemn",
    "2797": " wouldst",
    "2798": " letters",
    "2799": " offend",
    "2800": "Fa",
    "2801": " fled",
    "2802": "awn",
    "2803": " sense",
    "2804": "ual",
    "2805": " measure",
    "2806": " ap",
    "2807": " ourselves",
    "2808": " liberty",
    "2809": " trouble",
    "2810": "fully",
    "2811": "eness",
    "2812": " clouds",
    "2813": " dishonour",
    "2814": " treason",
    "2815": " forbid",
    "2816": "rupt",
    "2817": "urs",
    "2818": " favour",
    "2819": "gue",
    "2820": " banishment",
    "2821": " hap",
    "2822": " unc",
    "2823": " occ",
    "2824": " med",
    "2825": "ames",
    "2826": " forsw",
    "2827": "ked",
    "2828": "ointed",
    "2829": "dge",
    "2830": " reign",
    "2831": " leisure",
    "2832": "antagen",
    "2833": " breathe",
    "2834": " English",
    "2835": " govern",
    "2836": "Master",
    "2837": " year",
    "2838": "PAR",
    "2839": "PARIS",
    "2840": " Isabel",
    "2841": "adua",
    "2842": " Katharina",
    "2843": "remio",
    "2844": "rumio",
    "2845": "VINCENTIO",
    "2846": " dog",
    "2847": "ider",
    "2848": "aves",
    "2849": "rous",
    "2850": " remain",
    "2851": "ators",
    "2852": "house",
    "2853": " aside",
    "2854": " behind",
    "2855": "Too",
    "2856": " held",
    "2857": " dispatch",
    "2858": " letter",
    "2859": " needs",
    "2860": " sort",
    "2861": " womb",
    "2862": " cru",
    "2863": ":'",
    "2864": " obey",
    "2865": "undred",
    "2866": " list",
    "2867": " noise",
    "2868": "ued",
    "2869": " second",
    "2870": "Ab",
    "2871": "iles",
    "2872": " ref",
    "2873": " note",
    "2874": " prisoner",
    "2875": "set",
    "2876": "aring",
    "2877": "dle",
    "2878": " prosper",
    "2879": "ounds",
    "2880": " won",
    "2881": " lived",
    "2882": "Int",
    "2883": "While",
    "2884": " dry",
    "2885": "ster",
    "2886": " ignor",
    "2887": " piece",
    "2888": " laid",
    "2889": " choose",
    "2890": "Out",
    "2891": "ize",
    "2892": " lan",
    "2893": " rough",
    "2894": " temp",
    "2895": " church",
    "2896": " morrow",
    "2897": "ated",
    "2898": " above",
    "2899": "vel",
    "2900": " because",
    "2901": " join",
    "2902": " vain",
    "2903": " fresh",
    "2904": "rim",
    "2905": "antagenet",
    "2906": " golden",
    "2907": " longer",
    "2908": " Merc",
    "2909": "acle",
    "2910": " stor",
    "2911": " X",
    "2912": " Bohemia",
    "2913": " citizens",
    "2914": "uthor",
    "2915": "ular",
    "2916": " Let",
    "2917": "icious",
    "2918": "ontent",
    "2919": "itors",
    "2920": " yourselves",
    "2921": "under",
    "2922": " knees",
    "2923": " slander",
    "2924": " bell",
    "2925": " mut",
    "2926": "Unto",
    "2927": " pet",
    "2928": " low",
    "2929": "eath",
    "2930": "ang",
    "2931": "ume",
    "2932": " broke",
    "2933": " wisdom",
    "2934": "inius",
    "2935": "Sweet",
    "2936": " fine",
    "2937": " sch",
    "2938": "him",
    "2939": " exc",
    "2940": "ease",
    "2941": " Pr",
    "2942": "LAR",
    "2943": "LART",
    "2944": "LARTIUS",
    "2945": " hundred",
    "2946": "Hark",
    "2947": "Am",
    "2948": " big",
    "2949": " double",
    "2950": "ts",
    "2951": " threat",
    "2952": "!--",
    "2953": " shed",
    "2954": "lease",
    "2955": " ind",
    "2956": " ef",
    "2957": " effect",
    "2958": " tent",
    "2959": " steel",
    "2960": " forgot",
    "2961": " stain",
    "2962": " pride",
    "2963": "asion",
    "2964": "vey",
    "2965": " revere",
    "2966": " lau",
    "2967": " bend",
    "2968": " venge",
    "2969": " Now",
    "2970": " stood",
    "2971": " len",
    "2972": " oft",
    "2973": " precious",
    "2974": "erle",
    "2975": " conscience",
    "2976": "ieu",
    "2977": " towards",
    "2978": " five",
    "2979": " saf",
    "2980": " bears",
    "2981": "En",
    "2982": " obed",
    "2983": " bones",
    "2984": " swift",
    "2985": "posed",
    "2986": "Pr",
    "2987": "ban",
    "2988": " sentence",
    "2989": " conqu",
    "2990": "ety",
    "2991": "Su",
    "2992": " blessed",
    "2993": " entertain",
    "2994": "istress",
    "2995": "iled",
    "2996": "ott",
    "2997": " sole",
    "2998": " appare",
    "2999": "Sirrah",
    "3000": " grand",
    "3001": "ny",
    "3002": " victory",
    "3003": " glory",
    "3004": " saint",
    "3005": " sus",
    "3006": "DOR",
    "3007": "atesby",
    "3008": " drown",
    "3009": " steal",
    "3010": " desperate",
    "3011": "ceit",
    "3012": " woes",
    "3013": " kinsman",
    "3014": " lust",
    "3015": "ords",
    "3016": " drunk",
    "3017": " proclaim",
    "3018": " Northumberland",
    "3019": " Gaunt",
    "3020": " lands",
    "3021": " Capu",
    "3022": " Capulet",
    "3023": " Watch",
    "3024": " Watchman",
    "3025": " LE",
    "3026": " LEW",
    "3027": " LEWIS",
    "3028": " XI",
    "3029": " Padua",
    "3030": " Hortensio",
    "3031": " Gremio",
    "3032": "ARIEL",
    "3033": " Ca",
    "3034": " author",
    "3035": " guess",
    "3036": "ude",
    "3037": "ations",
    "3038": "ways",
    "3039": "which",
    "3040": " masters",
    "3041": " labour",
    "3042": "Bel",
    "3043": "ility",
    "3044": "vail",
    "3045": " eld",
    "3046": " fought",
    "3047": " honours",
    "3048": " army",
    "3049": " died",
    "3050": " hair",
    "3051": "comes",
    "3052": "head",
    "3053": "Within",
    "3054": " warm",
    "3055": " struck",
    "3056": " Ant",
    "3057": "cted",
    "3058": " doing",
    "3059": " Go",
    "3060": " deadly",
    "3061": "den",
    "3062": " cheeks",
    "3063": "estion",
    "3064": " manner",
    "3065": "Faith",
    "3066": " knowledge",
    "3067": "rent",
    "3068": " deter",
    "3069": " determ",
    "3070": " fe",
    "3071": " fat",
    "3072": ";'",
    "3073": " ran",
    "3074": "iful",
    "3075": " seal",
    "3076": " mount",
    "3077": "Could",
    "3078": "gment",
    "3079": " kept",
    "3080": " contin",
    "3081": " pun",
    "3082": "Hear",
    "3083": " contr",
    "3084": " despair",
    "3085": " capt",
    "3086": " guest",
    "3087": " money",
    "3088": " fru",
    "3089": " sour",
    "3090": " enjoy",
    "3091": "rence",
    "3092": " few",
    "3093": "Me",
    "3094": "Pardon",
    "3095": " lordship",
    "3096": " abro",
    "3097": " wretched",
    "3098": " alive",
    "3099": " stud",
    "3100": "iance",
    "3101": "irl",
    "3102": " methinks",
    "3103": "oh",
    "3104": "ohn",
    "3105": " promised",
    "3106": " Earl",
    "3107": "owb",
    "3108": "owbray",
    "3109": "umerle",
    "3110": "eeper",
    "3111": "SAM",
    "3112": "SAMP",
    "3113": "SAMPSON",
    "3114": "ETER",
    "3115": " Grumio",
    "3116": "CUR",
    "3117": "CURTIS",
    "3118": "Pedant",
    "3119": " corn",
    "3120": " account",
    "3121": " prov",
    "3122": "Either",
    "3123": "'re",
    "3124": " quoth",
    "3125": " sever",
    "3126": "stant",
    "3127": " valour",
    "3128": " moved",
    "3129": " guard",
    "3130": " cruel",
    "3131": "eaven",
    "3132": " How",
    "3133": " whether",
    "3134": "reed",
    "3135": " shake",
    "3136": " foolish",
    "3137": " encounter",
    "3138": " shepherd",
    "3139": " aid",
    "3140": "othing",
    "3141": " wretch",
    "3142": " cried",
    "3143": " priest",
    "3144": " rot",
    "3145": " pal",
    "3146": "ourn",
    "3147": " honourable",
    "3148": " health",
    "3149": " triumph",
    "3150": "ited",
    "3151": " among",
    "3152": "mit",
    "3153": " white",
    "3154": "Dis",
    "3155": "good",
    "3156": " deg",
    "3157": " counter",
    "3158": " judge",
    "3159": ":--",
    "3160": " calls",
    "3161": " Will",
    "3162": " humble",
    "3163": " unw",
    "3164": "Citizens",
    "3165": " Why",
    "3166": " officer",
    "3167": " demand",
    "3168": "ament",
    "3169": "lp",
    "3170": "Br",
    "3171": "ounce",
    "3172": " try",
    "3173": "take",
    "3174": " remed",
    "3175": " bastard",
    "3176": " beggar",
    "3177": " teach",
    "3178": " plant",
    "3179": " liest",
    "3180": " sim",
    "3181": " summer",
    "3182": "llow",
    "3183": " understand",
    "3184": " unp",
    "3185": "orious",
    "3186": " dance",
    "3187": " greet",
    "3188": " flowers",
    "3189": " herself",
    "3190": "pir",
    "3191": " charity",
    "3192": " dreams",
    "3193": " kindred",
    "3194": "BU",
    "3195": "BURY",
    "3196": "bury",
    "3197": "osed",
    "3198": " brothers",
    "3199": "ppy",
    "3200": " spent",
    "3201": " early",
    "3202": "LEY",
    "3203": "ey",
    "3204": " Mowbray",
    "3205": " cred",
    "3206": "EX",
    "3207": "utio",
    "3208": "ewis",
    "3209": "ANTI",
    "3210": "ANTIGON",
    "3211": "ANTIGONUS",
    "3212": " Master",
    "3213": " hung",
    "3214": "ating",
    "3215": "orthy",
    "3216": " neighb",
    "3217": " Roman",
    "3218": " idle",
    "3219": " minister",
    "3220": "True",
    "3221": " benef",
    "3222": "ead",
    "3223": " rise",
    "3224": " stone",
    "3225": " walls",
    "3226": " Volsces",
    "3227": " envy",
    "3228": " party",
    "3229": " Com",
    "3230": "Bet",
    "3231": "ask",
    "3232": "fall",
    "3233": " vie",
    "3234": " view",
    "3235": "mon",
    "3236": " ours",
    "3237": "mble",
    "3238": " pack",
    "3239": " others",
    "3240": "Fear",
    "3241": "ians",
    "3242": "Made",
    "3243": " add",
    "3244": " butcher",
    "3245": " weary",
    "3246": " yea",
    "3247": " force",
    "3248": "tle",
    "3249": "ief",
    "3250": " blame",
    "3251": " rid",
    "3252": " seven",
    "3253": " laugh",
    "3254": " gent",
    "3255": " vengeance",
    "3256": "ify",
    "3257": " din",
    "3258": "Mine",
    "3259": " private",
    "3260": " crave",
    "3261": " anon",
    "3262": "Twas",
    "3263": " scarce",
    "3264": " extrem",
    "3265": " thro",
    "3266": "leep",
    "3267": " glass",
    "3268": " going",
    "3269": "Lo",
    "3270": " wail",
    "3271": " month",
    "3272": " faint",
    "3273": " thinks",
    "3274": " dwell",
    "3275": "ites",
    "3276": "roy",
    "3277": " bids",
    "3278": "heart",
    "3279": " unf",
    "3280": " kindness",
    "3281": " ga",
    "3282": " chast",
    "3283": " stars",
    "3284": " And",
    "3285": " winter",
    "3286": "rison",
    "3287": " abroad",
    "3288": " miser",
    "3289": "ining",
    "3290": " thereof",
    "3291": " bright",
    "3292": " John",
    "3293": "RAT",
    "3294": "RATCLIFF",
    "3295": " satisfied",
    "3296": " fart",
    "3297": " Lewis",
    "3298": " ver",
    "3299": " rel",
    "3300": "aff",
    "3301": "have",
    "3302": " former",
    "3303": " evil",
    "3304": " vile",
    "3305": "Under",
    "3306": "gra",
    "3307": "ners",
    "3308": " cir",
    "3309": "Gentle",
    "3310": "woman",
    "3311": "amp",
    "3312": " swords",
    "3313": " school",
    "3314": "Fie",
    "3315": "ope",
    "3316": "cell",
    "3317": " excuse",
    "3318": " smo",
    "3319": " fellows",
    "3320": "Whilst",
    "3321": "rees",
    "3322": " incl",
    "3323": "rench",
    "3324": "Off",
    "3325": "Never",
    "3326": " cover",
    "3327": " truly",
    "3328": "whe",
    "3329": " condition",
    "3330": " deal",
    "3331": "orous",
    "3332": " received",
    "3333": " root",
    "3334": " god",
    "3335": " easy",
    "3336": " sport",
    "3337": " ease",
    "3338": "Bid",
    "3339": " dism",
    "3340": " arri",
    "3341": " judgment",
    "3342": "After",
    "3343": "eless",
    "3344": " foes",
    "3345": "shall",
    "3346": "Ne",
    "3347": " unb",
    "3348": " concl",
    "3349": " trial",
    "3350": " hol",
    "3351": " mayst",
    "3352": "ident",
    "3353": "vell",
    "3354": " wre",
    "3355": " wherefore",
    "3356": " imag",
    "3357": " fruit",
    "3358": " acqu",
    "3359": " convey",
    "3360": " lest",
    "3361": " changed",
    "3362": " corse",
    "3363": "vious",
    "3364": " wench",
    "3365": "allow",
    "3366": " Rut",
    "3367": " Rutland",
    "3368": " humour",
    "3369": " quite",
    "3370": "change",
    "3371": " firm",
    "3372": "BIS",
    "3373": "BISH",
    "3374": "BISHOP",
    "3375": " shrew",
    "3376": "omas",
    "3377": "lock",
    "3378": "ANLEY",
    "3379": " boot",
    "3380": "riar",
    "3381": " deputy",
    "3382": " tyrant",
    "3383": " faire",
    "3384": "IST",
    "3385": " Her",
    "3386": " flower",
    "3387": "TYBAL",
    "3388": "TYBALT",
    "3389": "ailor",
    "3390": "Signior",
    "3391": " Mercutio",
    "3392": " Mant",
    "3393": " Mantua",
    "3394": " Barn",
    "3395": "enes",
    "3396": " provost",
    "3397": " Vin",
    "3398": " Vincentio",
    "3399": "cians",
    "3400": " senate",
    "3401": " intend",
    "3402": " Al",
    "3403": "there",
    "3404": "pin",
    "3405": "Des",
    "3406": " feed",
    "3407": " meat",
    "3408": " choice",
    "3409": " Cominius",
    "3410": " grown",
    "3411": "ered",
    "3412": "oot",
    "3413": " Corioli",
    "3414": " embrace",
    "3415": " brows",
    "3416": "Methinks",
    "3417": " brow",
    "3418": "AL",
    "3419": "con",
    "3420": "enance",
    "3421": "after",
    "3422": "ilia",
    "3423": " Mars",
    "3424": "Tut",
    "3425": " We",
    "3426": " proof",
    "3427": " thunder",
    "3428": "place",
    "3429": "ta",
    "3430": " gift",
    "3431": " ba",
    "3432": "shi",
    "3433": " leaves",
    "3434": " malice",
    "3435": " question",
    "3436": " blind",
    "3437": "twixt",
    "3438": "rate",
    "3439": " leng",
    "3440": " blest",
    "3441": "Put",
    "3442": " gown",
    "3443": " taken",
    "3444": "his",
    "3445": "vish",
    "3446": " dust",
    "3447": " spake",
    "3448": " twice",
    "3449": " commend",
    "3450": "'?",
    "3451": "aste",
    "3452": " reasons",
    "3453": " divine",
    "3454": " traitors",
    "3455": " stoop",
    "3456": " fiery",
    "3457": " knave",
    "3458": " safety",
    "3459": " tyran",
    "3460": "rift",
    "3461": "ek",
    "3462": " beha",
    "3463": " wrongs",
    "3464": " stop",
    "3465": "ault",
    "3466": " whilst",
    "3467": "Bl",
    "3468": " prevent",
    "3469": "ement",
    "3470": " bite",
    "3471": " affair",
    "3472": " dull",
    "3473": "ealous",
    "3474": " sirrah",
    "3475": "idings",
    "3476": "aper",
    "3477": " joint",
    "3478": " buried",
    "3479": " prophe",
    "3480": "acher",
    "3481": "Alack",
    "3482": "BRAK",
    "3483": "BRAKEN",
    "3484": "BRAKENBURY",
    "3485": " ghost",
    "3486": "ursed",
    "3487": " stab",
    "3488": " repent",
    "3489": " honesty",
    "3490": " pains",
    "3491": " innocent",
    "3492": " Prince",
    "3493": " unl",
    "3494": " wither",
    "3495": "Ex",
    "3496": " fain",
    "3497": " Plantagenet",
    "3498": " import",
    "3499": " green",
    "3500": " vice",
    "3501": " Catesby",
    "3502": "anley",
    "3503": "arden",
    "3504": "ract",
    "3505": "azed",
    "3506": "roth",
    "3507": " shore",
    "3508": "OMAS",
    "3509": " spring",
    "3510": " sacred",
    "3511": " Aumerle",
    "3512": " spe",
    "3513": " girl",
    "3514": "erona",
    "3515": "AND",
    "3516": " Keeper",
    "3517": " Paulina",
    "3518": "would",
    "3519": "port",
    "3520": " Capit",
    "3521": " Capitol",
    "3522": "enen",
    "3523": "enenius",
    "3524": " always",
    "3525": " ed",
    "3526": "oard",
    "3527": " smile",
    "3528": "inous",
    "3529": " cares",
    "3530": "asc",
    "3531": " prevail",
    "3532": " rob",
    "3533": " circ",
    "3534": " assist",
    "3535": "more",
    "3536": " absence",
    "3537": " wherein",
    "3538": " To",
    "3539": " ele",
    "3540": "Ind",
    "3541": "Indeed",
    "3542": "unning",
    "3543": " troth",
    "3544": "my",
    "3545": " finger",
    "3546": " door",
    "3547": " wag",
    "3548": "eld",
    "3549": " drop",
    "3550": "hys",
    "3551": "hysic",
    "3552": " dec",
    "3553": " inform",
    "3554": " plague",
    "3555": "Wherein",
    "3556": "Hence",
    "3557": "ollo",
    "3558": " fright",
    "3559": " trumpets",
    "3560": " nose",
    "3561": " perceive",
    "3562": " used",
    "3563": " fury",
    "3564": " rotten",
    "3565": " custom",
    "3566": " prayer",
    "3567": " utter",
    "3568": " necess",
    "3569": " deserve",
    "3570": " emp",
    "3571": "cha",
    "3572": " tongues",
    "3573": " wanton",
    "3574": " plead",
    "3575": "ellow",
    "3576": " weeds",
    "3577": " sail",
    "3578": "pet",
    "3579": "Once",
    "3580": " adieu",
    "3581": " pract",
    "3582": " practise",
    "3583": " ignorant",
    "3584": " claim",
    "3585": " bark",
    "3586": "rehe",
    "3587": " drawn",
    "3588": " anger",
    "3589": " eag",
    "3590": " rock",
    "3591": "draw",
    "3592": "op",
    "3593": "nat",
    "3594": " langu",
    "3595": " remedy",
    "3596": " allow",
    "3597": " stones",
    "3598": " avo",
    "3599": "elve",
    "3600": " rude",
    "3601": "Without",
    "3602": "aughters",
    "3603": " design",
    "3604": " sits",
    "3605": " tempt",
    "3606": " uns",
    "3607": " wings",
    "3608": " shr",
    "3609": "Myself",
    "3610": " loyal",
    "3611": " delight",
    "3612": "Brother",
    "3613": "loy",
    "3614": " imprison",
    "3615": "anch",
    "3616": "oly",
    "3617": "Ad",
    "3618": " empt",
    "3619": "go",
    "3620": "icked",
    "3621": " creature",
    "3622": "mn",
    "3623": "Edward",
    "3624": "DER",
    "3625": "DERBY",
    "3626": " gross",
    "3627": "Richard",
    "3628": "?'",
    "3629": "edious",
    "3630": " hollow",
    "3631": " loath",
    "3632": " cheek",
    "3633": "think",
    "3634": " oracle",
    "3635": " fares",
    "3636": " Thomas",
    "3637": " mayor",
    "3638": " garden",
    "3639": "orry",
    "3640": " subst",
    "3641": " round",
    "3642": " knight",
    "3643": "GREG",
    "3644": "GREGOR",
    "3645": "GREGORY",
    "3646": "PETER",
    "3647": " Som",
    "3648": "erset",
    "3649": "unts",
    "3650": "MIST",
    "3651": "MISTR",
    "3652": "MISTRESS",
    "3653": " OVER",
    "3654": " OVERD",
    "3655": " OVERDON",
    "3656": " OVERDONE",
    "3657": " Barnard",
    "3658": " Barnardine",
    "3659": "Res",
    "3660": " chief",
    "3661": " authority",
    "3662": " es",
    "3663": " undone",
    "3664": "iment",
    "3665": " stat",
    "3666": "utes",
    "3667": " belly",
    "3668": "act",
    "3669": " devise",
    "3670": " whole",
    "3671": " steed",
    "3672": " receive",
    "3673": "this",
    "3674": " publ",
    "3675": " benefit",
    "3676": "semb",
    "3677": " rasc",
    "3678": " vantage",
    "3679": "pinion",
    "3680": " Your",
    "3681": " passing",
    "3682": " aim",
    "3683": "dy",
    "3684": " borne",
    "3685": "Besides",
    "3686": " earn",
    "3687": " aught",
    "3688": "ashi",
    "3689": "ission",
    "3690": " express",
    "3691": "aze",
    "3692": " profess",
    "3693": " becomes",
    "3694": " tread",
    "3695": "VAL",
    "3696": "VALER",
    "3697": "VALERIA",
    "3698": "eeth",
    "3699": " sens",
    "3700": " wives",
    "3701": " followers",
    "3702": " carry",
    "3703": " violent",
    "3704": "thi",
    "3705": " condu",
    "3706": " outward",
    "3707": " number",
    "3708": " shouldst",
    "3709": "Having",
    "3710": " behe",
    "3711": " silence",
    "3712": "ises",
    "3713": "aced",
    "3714": " proper",
    "3715": " lamb",
    "3716": "sing",
    "3717": " fools",
    "3718": " follows",
    "3719": " pair",
    "3720": "ards",
    "3721": " gives",
    "3722": " wont",
    "3723": " Where",
    "3724": "Into",
    "3725": "ongs",
    "3726": " cre",
    "3727": " nobles",
    "3728": " sheep",
    "3729": " maids",
    "3730": " Jove",
    "3731": "eous",
    "3732": "Turn",
    "3733": " cries",
    "3734": "Show",
    "3735": " dew",
    "3736": " tune",
    "3737": " star",
    "3738": " garments",
    "3739": "cend",
    "3740": " rememb",
    "3741": " awake",
    "3742": " ruin",
    "3743": " courtes",
    "3744": " despite",
    "3745": " Sic",
    "3746": "onounce",
    "3747": " cure",
    "3748": "loved",
    "3749": " therein",
    "3750": " throat",
    "3751": " asleep",
    "3752": " lar",
    "3753": "yard",
    "3754": "rious",
    "3755": " thrust",
    "3756": " loud",
    "3757": " banished",
    "3758": " supper",
    "3759": "ethought",
    "3760": " dur",
    "3761": " thrive",
    "3762": " possible",
    "3763": " deceived",
    "3764": " conj",
    "3765": " affairs",
    "3766": " jealous",
    "3767": "hant",
    "3768": "haps",
    "3769": " advise",
    "3770": "Art",
    "3771": " tidings",
    "3772": "itting",
    "3773": " heav",
    "3774": " dreadful",
    "3775": " amb",
    "3776": " treacher",
    "3777": " begins",
    "3778": " Grey",
    "3779": "Poor",
    "3780": " fatal",
    "3781": "Dost",
    "3782": " wicked",
    "3783": "what",
    "3784": " shar",
    "3785": " woful",
    "3786": " protect",
    "3787": " simple",
    "3788": " meaning",
    "3789": " deposed",
    "3790": " babe",
    "3791": " alas",
    "3792": "othe",
    "3793": " Christian",
    "3794": " broken",
    "3795": " tedious",
    "3796": " resign",
    "3797": " hid",
    "3798": " occasion",
    "3799": "CH",
    "3800": " went",
    "3801": " farther",
    "3802": " castle",
    "3803": " hit",
    "3804": "RICH",
    "3805": "RICHMON",
    "3806": "RICHMOND",
    "3807": "OX",
    "3808": "OXF",
    "3809": "OXFORD",
    "3810": " pil",
    "3811": " Music",
    "3812": " Verona",
    "3813": " Ap",
    "3814": " cell",
    "3815": " ship",
    "3816": "ursday",
    "3817": " Somerset",
    "3818": "SOM",
    "3819": "SOMER",
    "3820": "SOMERSET",
    "3821": "mion",
    "3822": "mione",
    "3823": "isa",
    "3824": " Caius",
    "3825": "fl",
    "3826": " lean",
    "3827": " gain",
    "3828": "Very",
    "3829": "itude",
    "3830": " accus",
    "3831": " Menenius",
    "3832": " trans",
    "3833": " cal",
    "3834": " store",
    "3835": "ouses",
    "3836": "enture",
    "3837": " parts",
    "3838": " kingly",
    "3839": " rash",
    "3840": " equ",
    "3841": " lip",
    "3842": " spare",
    "3843": " disd",
    "3844": " shadow",
    "3845": " brook",
    "3846": " band",
    "3847": " prepared",
    "3848": " pleased",
    "3849": "ub",
    "3850": " countenance",
    "3851": " cam",
    "3852": " lend",
    "3853": " shut",
    "3854": " pin",
    "3855": " infect",
    "3856": " hurt",
    "3857": " flight",
    "3858": "app",
    "3859": " silver",
    "3860": " prize",
    "3861": " physic",
    "3862": " exile",
    "3863": " threaten",
    "3864": " delay",
    "3865": " deare",
    "3866": " disposition",
    "3867": " beheld",
    "3868": " top",
    "3869": "orses",
    "3870": " wine",
    "3871": " san",
    "3872": " sanct",
    "3873": "ills",
    "3874": "pr",
    "3875": " spend",
    "3876": " legs",
    "3877": "eding",
    "3878": " stuff",
    "3879": "son",
    "3880": "Death",
    "3881": " renown",
    "3882": "ancy",
    "3883": " sway",
    "3884": "iffe",
    "3885": " affect",
    "3886": "eave",
    "3887": " owe",
    "3888": " desert",
    "3889": " There",
    "3890": " er",
    "3891": " six",
    "3892": " advantage",
    "3893": " denied",
    "3894": " stock",
    "3895": "Sc",
    "3896": "ser",
    "3897": " pawn",
    "3898": " van",
    "3899": " punish",
    "3900": " taste",
    "3901": " sup",
    "3902": "usion",
    "3903": " courtesy",
    "3904": "eg",
    "3905": " weap",
    "3906": " colour",
    "3907": " unnat",
    "3908": " peril",
    "3909": " perish",
    "3910": "Hast",
    "3911": " conquer",
    "3912": " chair",
    "3913": " spirits",
    "3914": " cunning",
    "3915": "Great",
    "3916": "Per",
    "3917": " quit",
    "3918": " twelve",
    "3919": " excell",
    "3920": " ir",
    "3921": " pursu",
    "3922": "ron",
    "3923": " names",
    "3924": " dinner",
    "3925": "rand",
    "3926": " bond",
    "3927": " forsworn",
    "3928": " until",
    "3929": " paper",
    "3930": "ping",
    "3931": "cing",
    "3932": "father",
    "3933": " belike",
    "3934": " betwixt",
    "3935": "arch",
    "3936": " prey",
    "3937": " weight",
    "3938": "imely",
    "3939": " miserable",
    "3940": " curst",
    "3941": " empty",
    "3942": " ange",
    "3943": " damned",
    "3944": "iteous",
    "3945": " humbly",
    "3946": " envious",
    "3947": " due",
    "3948": " det",
    "3949": " wander",
    "3950": " neighbour",
    "3951": " keeps",
    "3952": "utation",
    "3953": " room",
    "3954": "ldom",
    "3955": " lod",
    "3956": " whither",
    "3957": " nine",
    "3958": " storm",
    "3959": "hop",
    "3960": "STANLEY",
    "3961": " neg",
    "3962": " Friar",
    "3963": "ounty",
    "3964": "Two",
    "3965": " Bona",
    "3966": " contrary",
    "3967": " seas",
    "3968": " resolve",
    "3969": " Harry",
    "3970": "enn",
    "3971": " tort",
    "3972": " step",
    "3973": "ustice",
    "3974": "THOMAS",
    "3975": " MOW",
    "3976": " MOWBRA",
    "3977": " MOWBRAY",
    "3978": " gage",
    "3979": "BUS",
    "3980": "BUSH",
    "3981": "BUSHY",
    "3982": "run",
    "3983": " speci",
    "3984": " palace",
    "3985": " sighs",
    "3986": " pleasant",
    "3987": " wedding",
    "3988": "room",
    "3989": "Tybalt",
    "3990": " gentlewoman",
    "3991": " sorry",
    "3992": " Thursday",
    "3993": " Musician",
    "3994": " clear",
    "3995": "EXETER",
    "3996": "oat",
    "3997": "MA",
    "3998": "MAMIL",
    "3999": "MAMILL",
    "4000": "MAMILLIUS",
    "4001": " Pol",
    "4002": "ixenes",
    "4003": "MOP",
    "4004": "MOPSA",
    "4005": "ABHOR",
    "4006": "ABHORSON",
    "4007": "iond",
    "4008": "iondell",
    "4009": "iondello",
    "4010": "Tailor",
    "4011": "swain",
    "4012": " resolved",
    "4013": "lesome",
    "4014": "ane",
    "4015": " misery",
    "4016": "outs",
    "4017": " crack",
    "4018": " wond",
    "4019": " folly",
    "4020": "grace",
    "4021": "Still",
    "4022": " cup",
    "4023": " instruct",
    "4024": " discontent",
    "4025": " senators",
    "4026": " natural",
    "4027": "ency",
    "4028": " public",
    "4029": " bas",
    "4030": "Thanks",
    "4031": " diss",
    "4032": " opinion",
    "4033": "hor",
    "4034": "rease",
    "4035": " several",
    "4036": " making",
    "4037": " fee",
    "4038": " persu",
    "4039": " petition",
    "4040": "Only",
    "4041": "Sha",
    "4042": " cens",
    "4043": " fashi",
    "4044": " circum",
    "4045": "par",
    "4046": " When",
    "4047": " seeing",
    "4048": " drum",
    "4049": "cian",
    "4050": "irg",
    "4051": "lar",
    "4052": "yond",
    "4053": " wrath",
    "4054": " hark",
    "4055": "tune",
    "4056": " So",
    "4057": " market",
    "4058": "we",
    "4059": "Three",
    "4060": " yonder",
    "4061": " bud",
    "4062": "Ret",
    "4063": " endure",
    "4064": " advance",
    "4065": "lect",
    "4066": " port",
    "4067": " seest",
    "4068": " reward",
    "4069": " sometime",
    "4070": " naked",
    "4071": "ney",
    "4072": " wol",
    "4073": "mity",
    "4074": " motion",
    "4075": " ones",
    "4076": " table",
    "4077": " wounded",
    "4078": "Know",
    "4079": "amed",
    "4080": "ote",
    "4081": " theirs",
    "4082": "ared",
    "4083": " comple",
    "4084": " miss",
    "4085": " hatred",
    "4086": "wise",
    "4087": " remains",
    "4088": " weigh",
    "4089": " Pro",
    "4090": " dign",
    "4091": "ene",
    "4092": " terror",
    "4093": " gate",
    "4094": " painted",
    "4095": " perpet",
    "4096": " intent",
    "4097": " accept",
    "4098": " wits",
    "4099": " di",
    "4100": "ruly",
    "4101": " amen",
    "4102": "Rep",
    "4103": " curses",
    "4104": "ising",
    "4105": " bodies",
    "4106": "Pre",
    "4107": "oke",
    "4108": " fortunes",
    "4109": " calm",
    "4110": " plot",
    "4111": "erved",
    "4112": "ourish",
    "4113": "Nothing",
    "4114": " spoken",
    "4115": " obedience",
    "4116": "Ed",
    "4117": " quench",
    "4118": " pronounce",
    "4119": " waters",
    "4120": " dies",
    "4121": " unnatural",
    "4122": " beloved",
    "4123": " language",
    "4124": " undertake",
    "4125": " mend",
    "4126": " ends",
    "4127": " ado",
    "4128": "Prithee",
    "4129": " accuse",
    "4130": "urious",
    "4131": " courage",
    "4132": " corrupt",
    "4133": " wot",
    "4134": "Believe",
    "4135": "igence",
    "4136": " joyful",
    "4137": " groan",
    "4138": "thou",
    "4139": "can",
    "4140": " durst",
    "4141": " ball",
    "4142": " bew",
    "4143": " Messenger",
    "4144": "born",
    "4145": " daughters",
    "4146": " tremb",
    "4147": "umble",
    "4148": " fail",
    "4149": " tomb",
    "4150": "Right",
    "4151": " expect",
    "4152": "oler",
    "4153": " fro",
    "4154": " pure",
    "4155": " attempt",
    "4156": " heed",
    "4157": " mourn",
    "4158": " murderer",
    "4159": " protest",
    "4160": " Sh",
    "4161": " employ",
    "4162": " griev",
    "4163": " arg",
    "4164": "sequ",
    "4165": " whiles",
    "4166": " cursed",
    "4167": " wreck",
    "4168": " piteous",
    "4169": " story",
    "4170": " access",
    "4171": " happiness",
    "4172": " solemn",
    "4173": " joys",
    "4174": " penit",
    "4175": " duked",
    "4176": " dukedom",
    "4177": " mistake",
    "4178": " Did",
    "4179": " Rivers",
    "4180": " dag",
    "4181": " hopes",
    "4182": " fle",
    "4183": "Rem",
    "4184": "bow",
    "4185": " continue",
    "4186": " perfect",
    "4187": " susp",
    "4188": "icion",
    "4189": " remembrance",
    "4190": " chide",
    "4191": " debt",
    "4192": " princes",
    "4193": " government",
    "4194": "ARCH",
    "4195": " slow",
    "4196": " Stanley",
    "4197": "clock",
    "4198": "Cousin",
    "4199": " burthen",
    "4200": " tut",
    "4201": "chance",
    "4202": " princess",
    "4203": "hearted",
    "4204": "None",
    "4205": " assur",
    "4206": " assurance",
    "4207": " colours",
    "4208": " needful",
    "4209": " scept",
    "4210": "pass",
    "4211": " instrument",
    "4212": " PER",
    "4213": " PERC",
    "4214": " PERCY",
    "4215": " wood",
    "4216": " Fl",
    "4217": " crowns",
    "4218": " credit",
    "4219": " goodness",
    "4220": "cio",
    "4221": " Peter",
    "4222": "BALTH",
    "4223": "BALTHAS",
    "4224": "BALTHASAR",
    "4225": "cape",
    "4226": " Nap",
    "4227": "Widow",
    "4228": " Polixenes",
    "4229": " Pisa",
    "4230": " Biondello",
    "4231": "ieved",
    "4232": " partic",
    "4233": " services",
    "4234": " unknown",
    "4235": " They",
    "4236": " wants",
    "4237": "App",
    "4238": " fathers",
    "4239": " repe",
    "4240": " sink",
    "4241": " complain",
    "4242": "atience",
    "4243": " brain",
    "4244": " deserves",
    "4245": " increase",
    "4246": "vours",
    "4247": "ctions",
    "4248": " granted",
    "4249": "they",
    "4250": " hunt",
    "4251": "Mark",
    "4252": " commanded",
    "4253": " east",
    "4254": " Nay",
    "4255": " fame",
    "4256": "Beseech",
    "4257": "Heaven",
    "4258": "noon",
    "4259": "ex",
    "4260": " earnest",
    "4261": " hereafter",
    "4262": " mile",
    "4263": " drums",
    "4264": " clo",
    "4265": " disdain",
    "4266": " beyond",
    "4267": " faces",
    "4268": " praise",
    "4269": " powers",
    "4270": "time",
    "4271": " grey",
    "4272": " shun",
    "4273": " cease",
    "4274": "Those",
    "4275": " camest",
    "4276": " horses",
    "4277": "rib",
    "4278": " grows",
    "4279": " host",
    "4280": " blush",
    "4281": " write",
    "4282": "uary",
    "4283": " privile",
    "4284": " jour",
    "4285": " accord",
    "4286": "do",
    "4287": " discover",
    "4288": " mag",
    "4289": "uses",
    "4290": " reverend",
    "4291": " Yet",
    "4292": " prosperous",
    "4293": " brings",
    "4294": " purcha",
    "4295": "?--",
    "4296": " leads",
    "4297": "pro",
    "4298": " mat",
    "4299": " scene",
    "4300": "strous",
    "4301": " compass",
    "4302": " block",
    "4303": "elt",
    "4304": " teeth",
    "4305": " odd",
    "4306": " friendly",
    "4307": "ination",
    "4308": " choler",
    "4309": "lic",
    "4310": " instant",
    "4311": " apprehe",
    "4312": " haz",
    "4313": " rule",
    "4314": "ants",
    "4315": " cock",
    "4316": "olute",
    "4317": "fer",
    "4318": "Bear",
    "4319": "AEd",
    "4320": " seize",
    "4321": " ways",
    "4322": " od",
    "4323": " odds",
    "4324": "bear",
    "4325": " nought",
    "4326": " respected",
    "4327": " bare",
    "4328": " armour",
    "4329": " pol",
    "4330": " frame",
    "4331": "ipe",
    "4332": " virg",
    "4333": "Comm",
    "4334": " accom",
    "4335": " temper",
    "4336": " large",
    "4337": " vex",
    "4338": " venom",
    "4339": " Take",
    "4340": " advers",
    "4341": "aries",
    "4342": " slay",
    "4343": "Save",
    "4344": " turns",
    "4345": " enmity",
    "4346": " comest",
    "4347": "gers",
    "4348": " drops",
    "4349": " mere",
    "4350": " spite",
    "4351": " alter",
    "4352": " looking",
    "4353": " excellent",
    "4354": " bott",
    "4355": " passage",
    "4356": "uted",
    "4357": " freely",
    "4358": " led",
    "4359": "idence",
    "4360": " flies",
    "4361": " Who",
    "4362": " fairly",
    "4363": " shortly",
    "4364": "Might",
    "4365": "ified",
    "4366": " Can",
    "4367": "omen",
    "4368": " captain",
    "4369": " glorious",
    "4370": " kin",
    "4371": "ression",
    "4372": "arent",
    "4373": " imposs",
    "4374": "Young",
    "4375": "just",
    "4376": " gru",
    "4377": " strew",
    "4378": " repair",
    "4379": " degree",
    "4380": " resolution",
    "4381": "ences",
    "4382": " smooth",
    "4383": "ped",
    "4384": " untimely",
    "4385": " key",
    "4386": "same",
    "4387": " unha",
    "4388": " Bl",
    "4389": " swallow",
    "4390": "sa",
    "4391": " sharp",
    "4392": "Ar",
    "4393": " ring",
    "4394": "aintain",
    "4395": " French",
    "4396": " contented",
    "4397": "oc",
    "4398": "akest",
    "4399": "orset",
    "4400": " hateful",
    "4401": " sins",
    "4402": " torment",
    "4403": "atic",
    "4404": "val",
    "4405": "uteous",
    "4406": " suspicion",
    "4407": "Love",
    "4408": "oe",
    "4409": " dagger",
    "4410": " isle",
    "4411": "ourage",
    "4412": " boar",
    "4413": " realm",
    "4414": " terms",
    "4415": " contract",
    "4416": " manners",
    "4417": " scope",
    "4418": " imm",
    "4419": "Page",
    "4420": "yr",
    "4421": " El",
    "4422": " shape",
    "4423": "Post",
    "4424": "ishop",
    "4425": "NORF",
    "4426": "NORFOL",
    "4427": "NORFOLK",
    "4428": " slept",
    "4429": " rose",
    "4430": "ument",
    "4431": " sceptre",
    "4432": " Cal",
    "4433": " approach",
    "4434": " dares",
    "4435": " absent",
    "4436": " RO",
    "4437": " ROS",
    "4438": " ROSS",
    "4439": " test",
    "4440": " apparel",
    "4441": " trade",
    "4442": " conc",
    "4443": " maiden",
    "4444": " Lucio",
    "4445": " its",
    "4446": " hanging",
    "4447": " Good",
    "4448": " seeming",
    "4449": "oved",
    "4450": " qual",
    "4451": " houses",
    "4452": "ita",
    "4453": "Father",
    "4454": " vault",
    "4455": " whore",
    "4456": " Naples",
    "4457": "erd",
    "4458": " island",
    "4459": " Hermione",
    "4460": "DORCA",
    "4461": "DORCAS",
    "4462": "Boat",
    "4463": "Boatswain",
    "4464": " patri",
    "4465": " particular",
    "4466": "Cons",
    "4467": " famous",
    "4468": "Worthy",
    "4469": "Stri",
    "4470": " da",
    "4471": " daily",
    "4472": "rain",
    "4473": " accused",
    "4474": " serves",
    "4475": "bri",
    "4476": " veins",
    "4477": " dig",
    "4478": " rascal",
    "4479": " abhor",
    "4480": " finds",
    "4481": " affections",
    "4482": " garland",
    "4483": "aces",
    "4484": " whereof",
    "4485": " ruth",
    "4486": "gar",
    "4487": " revol",
    "4488": " lion",
    "4489": " constant",
    "4490": " Tit",
    "4491": " greatest",
    "4492": " press",
    "4493": "Whither",
    "4494": " rej",
    "4495": " consider",
    "4496": " nobly",
    "4497": " stamp",
    "4498": " suck",
    "4499": " Gre",
    "4500": "wife",
    "4501": "dis",
    "4502": " fears",
    "4503": " Ad",
    "4504": " south",
    "4505": "oldier",
    "4506": " jew",
    "4507": " Rom",
    "4508": " Romans",
    "4509": " oppos",
    "4510": "hest",
    "4511": " worthi",
    "4512": " charged",
    "4513": " dri",
    "4514": " tap",
    "4515": " vows",
    "4516": " direct",
    "4517": "Set",
    "4518": " willing",
    "4519": " conduct",
    "4520": " smiles",
    "4521": " mor",
    "4522": " conce",
    "4523": "uce",
    "4524": " Therefore",
    "4525": " clam",
    "4526": " kindly",
    "4527": " beard",
    "4528": " sanctuary",
    "4529": " spur",
    "4530": " journey",
    "4531": " tells",
    "4532": "love",
    "4533": "pping",
    "4534": " thief",
    "4535": " hasty",
    "4536": " adver",
    "4537": " nobl",
    "4538": " estate",
    "4539": "Has",
    "4540": " soundly",
    "4541": " build",
    "4542": " chat",
    "4543": " giving",
    "4544": " willingly",
    "4545": "iny",
    "4546": " perpetual",
    "4547": " recom",
    "4548": " north",
    "4549": " Pray",
    "4550": " roar",
    "4551": " counterfeit",
    "4552": "que",
    "4553": " thrice",
    "4554": "Amen",
    "4555": " spr",
    "4556": " wrought",
    "4557": " worn",
    "4558": " hardly",
    "4559": "andal",
    "4560": " catch",
    "4561": "iven",
    "4562": " current",
    "4563": "reme",
    "4564": " assured",
    "4565": " Be",
    "4566": "Help",
    "4567": " bury",
    "4568": "AEdile",
    "4569": " comb",
    "4570": " compan",
    "4571": " virgin",
    "4572": " Do",
    "4573": "ades",
    "4574": " begun",
    "4575": "Supp",
    "4576": " streets",
    "4577": " warlike",
    "4578": " season",
    "4579": " mill",
    "4580": "erve",
    "4581": " Farewell",
    "4582": " behalf",
    "4583": "Roman",
    "4584": " intell",
    "4585": " avoid",
    "4586": "ker",
    "4587": " darest",
    "4588": "Long",
    "4589": " unless",
    "4590": " muster",
    "4591": " destroy",
    "4592": " hanged",
    "4593": " tame",
    "4594": "About",
    "4595": " record",
    "4596": " messenger",
    "4597": "ances",
    "4598": " witch",
    "4599": "ended",
    "4600": " urged",
    "4601": " haply",
    "4602": " groans",
    "4603": " Jack",
    "4604": "isper",
    "4605": " parent",
    "4606": " winds",
    "4607": " wait",
    "4608": " holds",
    "4609": " able",
    "4610": " tide",
    "4611": " Cons",
    "4612": " Conspir",
    "4613": " knife",
    "4614": " grieve",
    "4615": " stol",
    "4616": " pieces",
    "4617": " treacherous",
    "4618": "Clarence",
    "4619": " sends",
    "4620": " imprisonment",
    "4621": " perforce",
    "4622": " grievous",
    "4623": " fig",
    "4624": " supposed",
    "4625": " provo",
    "4626": " revenged",
    "4627": " wept",
    "4628": " Ber",
    "4629": " afford",
    "4630": " study",
    "4631": " protector",
    "4632": "DORSET",
    "4633": " lovely",
    "4634": "ales",
    "4635": " taught",
    "4636": " bef",
    "4637": " sky",
    "4638": " braw",
    "4639": "law",
    "4640": " perj",
    "4641": " squ",
    "4642": " meant",
    "4643": "ember",
    "4644": "Until",
    "4645": " peers",
    "4646": " swell",
    "4647": " committed",
    "4648": "Dear",
    "4649": "Boy",
    "4650": " bethink",
    "4651": " Pomf",
    "4652": " Pomfret",
    "4653": " May",
    "4654": " elder",
    "4655": " ST",
    "4656": "atcl",
    "4657": "atcliff",
    "4658": "GH",
    "4659": "iate",
    "4660": " conceit",
    "4661": "Came",
    "4662": " sull",
    "4663": " advice",
    "4664": "TYR",
    "4665": "TYRR",
    "4666": "TYRREL",
    "4667": " Ire",
    "4668": " Ireland",
    "4669": "Wilt",
    "4670": "Please",
    "4671": " disper",
    "4672": " Mil",
    "4673": " lark",
    "4674": "Ghost",
    "4675": " Co",
    "4676": " Marshal",
    "4677": " bird",
    "4678": " lusty",
    "4679": " boots",
    "4680": "pul",
    "4681": "GREEN",
    "4682": " furn",
    "4683": " waste",
    "4684": "erns",
    "4685": " arrived",
    "4686": "Gentlemen",
    "4687": " special",
    "4688": " amazed",
    "4689": " weather",
    "4690": " profit",
    "4691": " dress",
    "4692": " forbear",
    "4693": " rap",
    "4694": " raise",
    "4695": " thorn",
    "4696": " parli",
    "4697": " parliament",
    "4698": "osal",
    "4699": "osaline",
    "4700": " county",
    "4701": " passion",
    "4702": "forth",
    "4703": "Mistress",
    "4704": "kin",
    "4705": "untsman",
    "4706": " Apollo",
    "4707": " rogue",
    "4708": "ALON",
    "4709": "ALONS",
    "4710": "ALONSO",
    "4711": "FER",
    "4712": "FERD",
    "4713": "FERDIN",
    "4714": "FERDINAND",
    "4715": " patricians",
    "4716": " pi",
    "4717": " partly",
    "4718": "vet",
    "4719": " barren",
    "4720": "Soft",
    "4721": "Conf",
    "4722": " disgrace",
    "4723": " bearing",
    "4724": " instruments",
    "4725": " appet",
    "4726": " appetite",
    "4727": "cei",
    "4728": "sell",
    "4729": " food",
    "4730": " rebell",
    "4731": " desires",
    "4732": "ages",
    "4733": " slaves",
    "4734": "aded",
    "4735": " mouths",
    "4736": "ullus",
    "4737": " Titus",
    "4738": "Noble",
    "4739": " puts",
    "4740": " equal",
    "4741": " below",
    "4742": " merit",
    "4743": " fashion",
    "4744": " commission",
    "4745": " hie",
    "4746": "Bring",
    "4747": "should",
    "4748": " rejo",
    "4749": " beholding",
    "4750": "upt",
    "4751": " task",
    "4752": "ifest",
    "4753": "master",
    "4754": " caught",
    "4755": "rick",
    "4756": " pound",
    "4757": " shield",
    "4758": "eat",
    "4759": " fires",
    "4760": " Soldier",
    "4761": " pot",
    "4762": "ares",
    "4763": " stro",
    "4764": " tremble",
    "4765": " alike",
    "4766": " trumpet",
    "4767": " chase",
    "4768": " forced",
    "4769": "adv",
    "4770": " Anti",
    "4771": "arts",
    "4772": "uten",
    "4773": "utenant",
    "4774": " whip",
    "4775": " ing",
    "4776": " treasure",
    "4777": " ach",
    "4778": " flatt",
    "4779": "erer",
    "4780": "faced",
    "4781": "ulate",
    "4782": "mory",
    "4783": " according",
    "4784": " beasts",
    "4785": " brace",
    "4786": "upon",
    "4787": " sy",
    "4788": " chara",
    "4789": " charac",
    "4790": " knaves",
    "4791": "wear",
    "4792": " saying",
    "4793": "ative",
    "4794": " third",
    "4795": " newly",
    "4796": "Coriol",
    "4797": " fancy",
    "4798": " hor",
    "4799": " complex",
    "4800": " agree",
    "4801": "ruction",
    "4802": " sore",
    "4803": " commons",
    "4804": " event",
    "4805": " determined",
    "4806": "Leave",
    "4807": " length",
    "4808": " stret",
    "4809": " silent",
    "4810": "fellow",
    "4811": " mult",
    "4812": " stopp",
    "4813": " rare",
    "4814": " ves",
    "4815": " vessel",
    "4816": " dying",
    "4817": " pier",
    "4818": "Twere",
    "4819": " cere",
    "4820": " called",
    "4821": "vior",
    "4822": " single",
    "4823": " standing",
    "4824": "ourth",
    "4825": "itation",
    "4826": " dischar",
    "4827": "ties",
    "4828": " contempt",
    "4829": "semble",
    "4830": " enforce",
    "4831": " descend",
    "4832": " ruled",
    "4833": " yond",
    "4834": " inqu",
    "4835": " yoke",
    "4836": " reck",
    "4837": " Well",
    "4838": "Cannot",
    "4839": " resist",
    "4840": " sets",
    "4841": " holp",
    "4842": "roll",
    "4843": " Give",
    "4844": " apt",
    "4845": "icy",
    "4846": " sal",
    "4847": " corre",
    "4848": " stout",
    "4849": " although",
    "4850": "Keep",
    "4851": " graves",
    "4852": "osing",
    "4853": "ilence",
    "4854": "Makes",
    "4855": "erity",
    "4856": "Vols",
    "4857": "Volsce",
    "4858": " entertainment",
    "4859": " boys",
    "4860": "irect",
    "4861": "ipp",
    "4862": " trick",
    "4863": " smell",
    "4864": " fun",
    "4865": " fors",
    "4866": " Then",
    "4867": "thee",
    "4868": " sple",
    "4869": " fi",
    "4870": " flood",
    "4871": " weakness",
    "4872": " defence",
    "4873": "ib",
    "4874": "ourse",
    "4875": " rust",
    "4876": " breed",
    "4877": " waking",
    "4878": ";--",
    "4879": "iety",
    "4880": " melt",
    "4881": " All",
    "4882": " apparent",
    "4883": " sovereig",
    "4884": " sovereignt",
    "4885": " sovereignty",
    "4886": "aints",
    "4887": " nail",
    "4888": " regard",
    "4889": " unkind",
    "4890": " forgive",
    "4891": " sometimes",
    "4892": "ater",
    "4893": " Away",
    "4894": "sha",
    "4895": " whisper",
    "4896": " tyranny",
    "4897": " alack",
    "4898": " recon",
    "4899": " reconci",
    "4900": " wide",
    "4901": " unjust",
    "4902": " native",
    "4903": "Lords",
    "4904": " betray",
    "4905": " wrink",
    "4906": " secure",
    "4907": " confe",
    "4908": " conference",
    "4909": " cher",
    "4910": "zz",
    "4911": " mel",
    "4912": " melanch",
    "4913": " melancholy",
    "4914": "dig",
    "4915": "ouchsa",
    "4916": " circumst",
    "4917": " stroke",
    "4918": " stabb",
    "4919": " maintain",
    "4920": " Der",
    "4921": " Derby",
    "4922": " sickness",
    "4923": " suspect",
    "4924": " blunt",
    "4925": "maid",
    "4926": " Dorset",
    "4927": " detest",
    "4928": " breathed",
    "4929": "ams",
    "4930": "nal",
    "4931": " faithful",
    "4932": " tempest",
    "4933": " purse",
    "4934": " offended",
    "4935": " powerful",
    "4936": "deem",
    "4937": " falsehood",
    "4938": " z",
    "4939": " wing",
    "4940": "earer",
    "4941": " forfeit",
    "4942": " feet",
    "4943": " bade",
    "4944": " image",
    "4945": " unhappy",
    "4946": " deceit",
    "4947": " obedient",
    "4948": " aunt",
    "4949": " weeps",
    "4950": " dim",
    "4951": " gently",
    "4952": " mistrust",
    "4953": "Acc",
    "4954": " Mayor",
    "4955": "esar",
    "4956": " prett",
    "4957": " betimes",
    "4958": " helm",
    "4959": "ercy",
    "4960": "forced",
    "4961": " lin",
    "4962": " sees",
    "4963": " pitch",
    "4964": " reverence",
    "4965": " dignity",
    "4966": "yrrel",
    "4967": " Ex",
    "4968": " Exeter",
    "4969": "clam",
    "4970": " alliance",
    "4971": "alis",
    "4972": "alisbury",
    "4973": " Le",
    "4974": " affli",
    "4975": " fairest",
    "4976": " ago",
    "4977": " sire",
    "4978": " appeal",
    "4979": " twain",
    "4980": " sue",
    "4981": "tled",
    "4982": "aming",
    "4983": " pilg",
    "4984": " pilgrim",
    "4985": " parting",
    "4986": "eeming",
    "4987": "des",
    "4988": "shire",
    "4989": " household",
    "4990": "LIS",
    "4991": " sting",
    "4992": " sooth",
    "4993": " surely",
    "4994": " regal",
    "4995": " clim",
    "4996": " oaths",
    "4997": " abide",
    "4998": " Rosaline",
    "4999": " exchange",
    "5000": "<|endoftext|>",
    "5001": "<|padding|>"
  },
  "merges": {
    "32,116": 256,
    "104,101": 257,
    "32,97": 258,
    "111,117": 259,
    "32,115": 260,
    "32,109": 261,
    "105,110": 262,
    "32,119": 263,
    "114,101": 264,
    "104,97": 265,
    "110,100": 266,
    "256,257": 267,
    "32,98": 268,
    "105,115": 269,
    "111,114": 270,
    "32,102": 271,
    "101,114": 272,
    "108,108": 273,
    "105,116": 274,
    "111,110": 275,
    "32,100": 276,
    "32,99": 277,
    "101,115": 278,
    "101,110": 279,
    "32,110": 280,
    "32,108": 281,
    "32,121": 282,
    "256,104": 283,
    "97,114": 284,
    "32,104": 285,
    "32,111": 286,
    "256,111": 287,
    "282,259": 288,
    "32,112": 289,
    "265,116": 290,
    "32,73": 291,
    "32,257": 292,
    "118,101": 293,
    "111,116": 294,
    "115,116": 295,
    "258,266": 296,
    "111,119": 297,
    "262,103": 298,
    "97,110": 299,
    "286,102": 300,
    "111,109": 301,
    "32,103": 302,
    "97,116": 303,
    "268,101": 304,
    "115,101": 305,
    "261,121": 306,
    "32,262": 307,
    "99,101": 308,
    "32,265": 309,
    "108,101": 310,
    "97,121": 311,
    "108,100": 312,
    "105,114": 313,
    "101,116": 314,
    "101,100": 315,
    "117,116": 316,
    "261,101": 317,
    "105,109": 318,
    "274,104": 319,
    "39,115": 320,
    "280,294": 321,
    "99,104": 322,
    "256,290": 323,
    "32,269": 324,
    "103,104": 325,
    "65,266": 326,
    "271,270": 327,
    "107,101": 328,
    "32,117": 329,
    "259,114": 330,
    "263,101": 331,
    "111,111": 332,
    "105,273": 333,
    "32,101": 334,
    "257,114": 335,
    "263,319": 336,
    "279,116": 337,
    "32,274": 338,
    "288,114": 339,
    "97,100": 340,
    "114,105": 341,
    "283,259": 342,
    "260,116": 343,
    "39,100": 344,
    "32,107": 345,
    "301,101": 346,
    "285,269": 347,
    "325,116": 348,
    "69,78": 349,
    "270,100": 350,
    "105,100": 351,
    "97,115": 352,
    "84,257": 353,
    "32,264": 354,
    "309,293": 355,
    "73,78": 356,
    "108,121": 357,
    "114,97": 358,
    "281,105": 359,
    "285,318": 360,
    "117,114": 361,
    "283,269": 362,
    "97,108": 363,
    "73,79": 364,
    "260,111": 365,
    "258,115": 366,
    "276,101": 367,
    "32,275": 368,
    "111,264": 369,
    "114,111": 370,
    "65,82": 371,
    "104,105": 372,
    "259,312": 373,
    "332,100": 374,
    "99,107": 375,
    "97,262": 376,
    "118,272": 377,
    "278,116": 378,
    "283,121": 379,
    "260,265": 380,
    "278,115": 381,
    "101,97": 382,
    "276,111": 383,
    "263,333": 384,
    "97,109": 385,
    "280,111": 386,
    "268,316": 387,
    "117,115": 388,
    "97,266": 389,
    "85,83": 390,
    "105,102": 391,
    "260,101": 392,
    "103,101": 393,
    "84,104": 394,
    "258,273": 395,
    "260,117": 396,
    "97,328": 397,
    "84,111": 398,
    "292,114": 399,
    "114,117": 400,
    "105,275": 401,
    "116,104": 402,
    "258,110": 403,
    "116,272": 404,
    "284,100": 405,
    "281,111": 406,
    "265,110": 407,
    "101,273": 408,
    "101,284": 409,
    "260,112": 410,
    "267,101": 411,
    "32,330": 412,
    "271,97": 413,
    "380,273": 414,
    "268,121": 415,
    "85,67": 416,
    "105,108": 417,
    "258,264": 418,
    "356,71": 419,
    "32,67": 420,
    "280,101": 421,
    "114,301": 422,
    "104,111": 423,
    "345,110": 424,
    "65,78": 425,
    "32,82": 426,
    "84,290": 427,
    "32,118": 428,
    "69,82": 429,
    "97,295": 430,
    "79,82": 431,
    "99,116": 432,
    "259,115": 433,
    "263,290": 434,
    "105,348": 435,
    "260,104": 436,
    "117,108": 437,
    "32,39": 438,
    "69,84": 439,
    "299,116": 440,
    "69,83": 441,
    "329,112": 442,
    "305,108": 443,
    "113,117": 444,
    "66,316": 445,
    "284,116": 446,
    "302,374": 447,
    "114,297": 448,
    "303,104": 449,
    "262,101": 450,
    "281,350": 451,
    "372,322": 452,
    "110,116": 453,
    "117,295": 454,
    "39,273": 455,
    "275,101": 456,
    "289,114": 457,
    "277,301": 458,
    "258,116": 459,
    "261,299": 460,
    "32,77": 461,
    "87,290": 462,
    "263,257": 463,
    "32,69": 464,
    "75,419": 465,
    "258,109": 466,
    "101,266": 467,
    "105,99": 468,
    "277,275": 469,
    "98,310": 470,
    "114,121": 471,
    "275,103": 472,
    "105,101": 473,
    "105,293": 474,
    "271,422": 475,
    "268,108": 476,
    "118,279": 477,
    "32,71": 478,
    "70,270": 479,
    "260,257": 480,
    "101,109": 481,
    "302,111": 482,
    "97,264": 483,
    "261,369": 484,
    "267,109": 485,
    "259,116": 486,
    "73,67": 487,
    "263,352": 488,
    "97,117": 489,
    "294,335": 490,
    "294,104": 491,
    "72,101": 492,
    "260,313": 493,
    "111,108": 494,
    "280,297": 495,
    "32,76": 496,
    "32,290": 497,
    "32,391": 498,
    "111,295": 499,
    "76,79": 500,
    "262,100": 501,
    "267,264": 502,
    "424,297": 503,
    "263,373": 504,
    "277,299": 505,
    "272,115": 506,
    "73,390": 507,
    "101,112": 508,
    "443,102": 509,
    "371,68": 510,
    "303,335": 511,
    "102,101": 512,
    "111,266": 513,
    "264,115": 514,
    "303,101": 515,
    "260,311": 516,
    "292,264": 517,
    "406,293": 518,
    "267,313": 519,
    "260,119": 520,
    "268,114": 521,
    "112,112": 522,
    "32,270": 523,
    "97,273": 524,
    "45,45": 525,
    "32,83": 526,
    "256,407": 527,
    "345,298": 528,
    "267,110": 529,
    "329,115": 530,
    "32,79": 531,
    "267,121": 532,
    "32,66": 533,
    "258,114": 534,
    "111,100": 535,
    "77,121": 536,
    "281,314": 537,
    "329,110": 538,
    "105,103": 539,
    "263,270": 540,
    "117,264": 541,
    "262,107": 542,
    "32,72": 543,
    "270,116": 544,
    "104,121": 545,
    "385,101": 546,
    "32,86": 547,
    "102,369": 548,
    "65,115": 549,
    "261,311": 550,
    "101,108": 551,
    "277,346": 552,
    "32,444": 553,
    "332,107": 554,
    "87,257": 555,
    "269,104": 556,
    "76,73": 557,
    "331,273": 558,
    "75,69": 559,
    "118,278": 560,
    "32,106": 561,
    "368,101": 562,
    "497,104": 563,
    "313,295": 564,
    "89,259": 565,
    "261,397": 566,
    "264,303": 567,
    "103,376": 568,
    "97,107": 569,
    "261,454": 570,
    "259,266": 571,
    "110,103": 572,
    "302,358": 573,
    "331,264": 574,
    "285,111": 575,
    "99,105": 576,
    "392,101": 577,
    "359,328": 578,
    "117,101": 579,
    "382,107": 580,
    "436,373": 581,
    "84,364": 582,
    "274,121": 583,
    "289,370": 584,
    "261,340": 585,
    "260,97": 586,
    "32,80": 587,
    "117,109": 588,
    "289,108": 589,
    "271,511": 590,
    "82,79": 591,
    "65,85": 592,
    "309,100": 593,
    "276,351": 594,
    "112,101": 595,
    "318,101": 596,
    "442,275": 597,
    "105,308": 598,
    "287,111": 599,
    "79,78": 600,
    "279,308": 601,
    "32,87": 602,
    "119,405": 603,
    "269,116": 604,
    "367,449": 605,
    "297,110": 606,
    "32,279": 607,
    "111,305": 608,
    "109,299": 609,
    "117,110": 610,
    "102,437": 611,
    "73,83": 612,
    "110,308": 613,
    "410,580": 614,
    "32,114": 615,
    "289,111": 616,
    "100,101": 617,
    "337,310": 618,
    "32,486": 619,
    "105,111": 620,
    "263,452": 621,
    "112,116": 622,
    "487,72": 623,
    "271,341": 624,
    "79,76": 625,
    "258,568": 626,
    "68,85": 627,
    "627,559": 628,
    "285,297": 629,
    "69,76": 630,
    "32,65": 631,
    "292,446": 632,
    "256,400": 633,
    "105,375": 634,
    "309,266": 635,
    "282,314": 636,
    "394,259": 637,
    "67,65": 638,
    "377,121": 639,
    "623,510": 640,
    "349,582": 641,
    "87,319": 642,
    "539,110": 643,
    "299,308": 644,
    "260,346": 645,
    "263,423": 646,
    "87,452": 647,
    "73,102": 648,
    "463,110": 649,
    "105,278": 650,
    "261,284": 651,
    "105,264": 652,
    "285,275": 653,
    "261,450": 654,
    "270,110": 655,
    "265,114": 656,
    "300,102": 657,
    "262,308": 658,
    "356,67": 659,
    "97,375": 660,
    "73,110": 661,
    "32,89": 662,
    "276,269": 663,
    "260,275": 664,
    "258,108": 665,
    "39,116": 666,
    "87,101": 667,
    "119,110": 668,
    "292,97": 669,
    "117,322": 670,
    "70,564": 671,
    "111,121": 672,
    "292,284": 673,
    "256,596": 674,
    "101,99": 675,
    "396,322": 676,
    "65,66": 677,
    "110,381": 678,
    "521,490": 679,
    "76,65": 680,
    "79,102": 681,
    "476,374": 682,
    "274,335": 683,
    "258,98": 684,
    "267,305": 685,
    "87,545": 686,
    "85,69": 687,
    "78,111": 688,
    "302,474": 689,
    "271,111": 690,
    "276,311": 691,
    "334,284": 692,
    "426,640": 693,
    "291,73": 694,
    "269,101": 695,
    "334,120": 696,
    "32,370": 697,
    "394,269": 698,
    "359,512": 699,
    "441,84": 700,
    "256,408": 701,
    "101,314": 702,
    "283,542": 703,
    "83,111": 704,
    "281,554": 705,
    "416,72": 706,
    "263,350": 707,
    "463,264": 708,
    "334,121": 709,
    "259,108": 710,
    "116,335": 711,
    "97,393": 712,
    "97,103": 713,
    "101,279": 714,
    "624,467": 715,
    "256,397": 716,
    "71,500": 717,
    "717,416": 718,
    "718,700": 719,
    "719,429": 720,
    "101,102": 721,
    "272,118": 722,
    "340,121": 723,
    "448,110": 724,
    "298,115": 725,
    "276,278": 726,
    "110,294": 727,
    "97,293": 728,
    "361,305": 729,
    "302,618": 730,
    "32,341": 731,
    "72,297": 732,
    "82,89": 733,
    "97,305": 734,
    "119,311": 735,
    "81,687": 736,
    "736,349": 737,
    "659,641": 738,
    "281,382": 739,
    "116,269": 740,
    "531,70": 741,
    "534,116": 742,
    "261,499": 743,
    "555,264": 744,
    "653,330": 745,
    "261,670": 746,
    "76,425": 747,
    "260,108": 748,
    "263,284": 749,
    "271,108": 750,
    "361,110": 751,
    "585,101": 752,
    "109,337": 753,
    "78,297": 754,
    "309,295": 755,
    "271,409": 756,
    "256,119": 757,
    "32,84": 758,
    "304,116": 759,
    "489,348": 760,
    "349,733": 761,
    "73,115": 762,
    "102,102": 763,
    "98,272": 764,
    "478,535": 765,
    "76,69": 766,
    "293,100": 767,
    "259,325": 768,
    "268,264": 769,
    "99,99": 770,
    "421,377": 771,
    "297,272": 772,
    "547,738": 773,
    "66,101": 774,
    "97,112": 775,
    "105,325": 776,
    "302,567": 777,
    "413,313": 778,
    "32,75": 779,
    "277,259": 780,
    "261,279": 781,
    "274,116": 782,
    "87,423": 783,
    "101,101": 784,
    "426,346": 785,
    "421,119": 786,
    "430,272": 787,
    "270,448": 788,
    "117,328": 789,
    "105,122": 790,
    "111,312": 791,
    "431,75": 792,
    "289,446": 793,
    "303,401": 794,
    "356,507": 795,
    "351,101": 796,
    "264,101": 797,
    "115,115": 798,
    "79,114": 799,
    "277,524": 800,
    "403,121": 801,
    "112,310": 802,
    "669,477": 803,
    "258,100": 804,
    "458,109": 805,
    "505,727": 806,
    "89,330": 807,
    "73,116": 808,
    "343,389": 809,
    "633,101": 810,
    "304,279": 811,
    "409,115": 812,
    "280,546": 813,
    "68,87": 814,
    "814,510": 815,
    "277,108": 816,
    "289,264": 817,
    "520,702": 818,
    "457,311": 819,
    "44,525": 820,
    "276,491": 821,
    "104,298": 822,
    "386,470": 823,
    "85,77": 824,
    "80,439": 825,
    "286,668": 826,
    "77,349": 827,
    "289,310": 828,
    "352,115": 829,
    "84,72": 830,
    "76,416": 831,
    "259,305": 832,
    "289,272": 833,
    "32,68": 834,
    "67,346": 835,
    "353,264": 836,
    "65,121": 837,
    "117,273": 838,
    "276,456": 839,
    "391,101": 840,
    "263,114": 841,
    "256,114": 842,
    "97,119": 843,
    "263,311": 844,
    "286,711": 845,
    "292,340": 846,
    "317,299": 847,
    "108,105": 848,
    "555,110": 849,
    "264,100": 850,
    "280,270": 851,
    "100,603": 852,
    "260,99": 853,
    "289,514": 854,
    "260,710": 855,
    "591,77": 856,
    "856,69": 857,
    "857,79": 858,
    "827,349": 859,
    "859,507": 860,
    "304,284": 861,
    "540,312": 862,
    "97,308": 863,
    "376,116": 864,
    "280,435": 865,
    "118,298": 866,
    "420,108": 867,
    "489,305": 868,
    "103,272": 869,
    "304,548": 870,
    "268,491": 871,
    "553,714": 872,
    "112,272": 873,
    "353,110": 874,
    "760,272": 875,
    "277,372": 876,
    "261,111": 877,
    "492,264": 878,
    "825,82": 879,
    "879,706": 880,
    "880,364": 881,
    "32,639": 882,
    "97,470": 883,
    "79,77": 884,
    "367,340": 885,
    "84,441": 886,
    "32,358": 887,
    "274,101": 888,
    "66,121": 889,
    "116,111": 890,
    "116,257": 891,
    "84,407": 892,
    "32,328": 893,
    "108,278": 894,
    "97,98": 895,
    "276,606": 896,
    "32,70": 897,
    "469,116": 898,
    "258,522": 899,
    "306,509": 900,
    "534,109": 901,
    "354,109": 902,
    "263,104": 903,
    "496,350": 904,
    "72,65": 905,
    "71,82": 906,
    "283,388": 907,
    "417,116": 908,
    "431,364": 909,
    "909,747": 910,
    "910,390": 911,
    "83,675": 912,
    "912,513": 913,
    "739,293": 914,
    "67,911": 915,
    "304,298": 916,
    "432,401": 917,
    "108,111": 918,
    "464,852": 919,
    "329,453": 920,
    "115,119": 921,
    "573,308": 922,
    "78,270": 923,
    "514,115": 924,
    "709,278": 925,
    "108,381": 926,
    "304,103": 927,
    "261,490": 928,
    "108,389": 929,
    "310,100": 930,
    "66,65": 931,
    "114,299": 932,
    "286,312": 933,
    "261,97": 934,
    "32,318": 935,
    "464,815": 936,
    "356,65": 937,
    "274,790": 938,
    "938,279": 939,
    "461,284": 940,
    "334,377": 941,
    "112,115": 942,
    "281,472": 943,
    "359,293": 944,
    "876,312": 945,
    "76,314": 946,
    "263,840": 947,
    "109,101": 948,
    "258,735": 949,
    "354,112": 950,
    "83,257": 951,
    "694,73": 952,
    "616,270": 953,
    "715,115": 954,
    "263,301": 955,
    "261,435": 956,
    "99,346": 957,
    "258,102": 958,
    "102,270": 959,
    "119,634": 960,
    "343,311": 961,
    "266,272": 962,
    "382,308": 963,
    "276,473": 964,
    "259,100": 965,
    "107,115": 966,
    "303,322": 967,
    "458,278": 968,
    "32,400": 969,
    "32,74": 970,
    "469,115": 971,
    "284,960": 972,
    "460,121": 973,
    "297,115": 974,
    "277,724": 975,
    "289,101": 976,
    "281,101": 977,
    "265,273": 978,
    "84,269": 979,
    "269,275": 980,
    "662,792": 981,
    "354,295": 982,
    "342,348": 983,
    "269,115": 984,
    "117,375": 985,
    "309,114": 986,
    "285,832": 987,
    "612,677": 988,
    "988,630": 989,
    "989,680": 990,
    "277,330": 991,
    "272,99": 992,
    "105,299": 993,
    "32,337": 994,
    "359,101": 995,
    "82,425": 996,
    "260,314": 997,
    "99,257": 998,
    "303,404": 999,
    "270,115": 1000,
    "119,408": 1001,
    "602,972": 1002,
    "74,85": 1003,
    "1003,557": 1004,
    "1004,439": 1005,
    "766,600": 1006,
    "1006,886": 1007,
    "78,311": 1008,
    "782,310": 1009,
    "262,116": 1010,
    "302,456": 1011,
    "276,875": 1012,
    "759,404": 1013,
    "114,440": 1014,
    "259,348": 1015,
    "457,658": 1016,
    "77,73": 1017,
    "256,472": 1018,
    "72,269": 1019,
    "321,822": 1020,
    "68,89": 1021,
    "86,625": 1022,
    "349,67": 1023,
    "1023,69": 1024,
    "680,1021": 1025,
    "105,315": 1026,
    "893,508": 1027,
    "66,82": 1028,
    "84,65": 1029,
    "263,274": 1030,
    "354,115": 1031,
    "105,433": 1032,
    "87,408": 1033,
    "99,278": 1034,
    "111,115": 1035,
    "71,111": 1036,
    "786,115": 1037,
    "656,100": 1038,
    "260,310": 1039,
    "102,116": 1040,
    "275,116": 1041,
    "105,272": 1042,
    "264,116": 1043,
    "256,341": 1044,
    "83,487": 1045,
    "1045,795": 1046,
    "332,108": 1047,
    "610,101": 1048,
    "283,608": 1049,
    "302,341": 1050,
    "626,295": 1051,
    "281,1009": 1052,
    "78,294": 1053,
    "451,115": 1054,
    "569,278": 1055,
    "268,378": 1056,
    "292,613": 1057,
    "285,330": 1058,
    "405,275": 1059,
    "102,350": 1060,
    "258,770": 1061,
    "437,116": 1062,
    "305,100": 1063,
    "690,273": 1064,
    "108,305": 1065,
    "413,308": 1066,
    "79,110": 1067,
    "334,266": 1068,
    "117,100": 1069,
    "284,107": 1070,
    "101,119": 1071,
    "288,572": 1072,
    "473,312": 1073,
    "345,501": 1074,
    "283,298": 1075,
    "343,333": 1076,
    "270,107": 1077,
    "289,341": 1078,
    "363,107": 1079,
    "289,361": 1080,
    "458,112": 1081,
    "394,121": 1082,
    "83,84": 1083,
    "831,364": 1084,
    "97,310": 1085,
    "262,115": 1086,
    "289,772": 1087,
    "289,316": 1088,
    "272,116": 1089,
    "757,111": 1090,
    "468,1038": 1091,
    "291,86": 1092,
    "360,509": 1093,
    "277,265": 1094,
    "302,117": 1095,
    "367,284": 1096,
    "271,564": 1097,
    "262,381": 1098,
    "289,963": 1099,
    "334,1065": 1100,
    "99,108": 1101,
    "80,370": 1102,
    "341,315": 1103,
    "576,433": 1104,
    "372,310": 1105,
    "920,111": 1106,
    "83,313": 1107,
    "97,417": 1108,
    "396,98": 1109,
    "352,275": 1110,
    "256,333": 1111,
    "260,109": 1112,
    "105,310": 1113,
    "114,311": 1114,
    "316,121": 1115,
    "101,432": 1116,
    "780,453": 1117,
    "277,111": 1118,
    "268,660": 1119,
    "707,115": 1120,
    "285,388": 1121,
    "268,351": 1122,
    "502,548": 1123,
    "692,402": 1124,
    "256,358": 1125,
    "276,264": 1126,
    "82,73": 1127,
    "464,557": 1128,
    "1128,90": 1129,
    "1129,677": 1130,
    "1130,439": 1131,
    "1131,72": 1132,
    "105,388": 1133,
    "111,802": 1134,
    "277,373": 1135,
    "109,279": 1136,
    "72,728": 1137,
    "1018,579": 1138,
    "271,501": 1139,
    "98,389": 1140,
    "121,363": 1141,
    "116,121": 1142,
    "421,315": 1143,
    "283,450": 1144,
    "281,723": 1145,
    "270,305": 1146,
    "662,1077": 1147,
    "264,110": 1148,
    "271,408": 1149,
    "285,776": 1150,
    "327,402": 1151,
    "103,314": 1152,
    "116,119": 1153,
    "575,595": 1154,
    "279,471": 1155,
    "72,761": 1156,
    "292,108": 1157,
    "83,116": 1158,
    "784,322": 1159,
    "285,346": 1160,
    "392,481": 1161,
    "1121,1140": 1162,
    "314,104": 1163,
    "293,264": 1164,
    "77,429": 1165,
    "785,111": 1166,
    "731,348": 1167,
    "67,76": 1168,
    "276,789": 1169,
    "316,104": 1170,
    "342,325": 1171,
    "32,462": 1172,
    "264,114": 1173,
    "102,544": 1174,
    "268,299": 1175,
    "547,73": 1176,
    "71,69": 1177,
    "87,371": 1178,
    "1178,87": 1179,
    "1179,487": 1180,
    "1180,75": 1181,
    "976,1134": 1182,
    "277,656": 1183,
    "269,404": 1184,
    "268,358": 1185,
    "97,322": 1186,
    "261,501": 1187,
    "372,112": 1188,
    "85,84": 1189,
    "105,120": 1190,
    "277,257": 1191,
    "543,761": 1192,
    "420,939": 1193,
    "100,115": 1194,
    "103,315": 1195,
    "78,729": 1196,
    "353,121": 1197,
    "256,264": 1198,
    "543,1155": 1199,
    "905,77": 1200,
    "436,297": 1201,
    "101,315": 1202,
    "277,407": 1203,
    "469,102": 1204,
    "268,341": 1205,
    "281,843": 1206,
    "635,115": 1207,
    "426,1091": 1208,
    "80,85": 1209,
    "1209,76": 1210,
    "1210,439": 1211,
    "73,425": 1212,
    "263,545": 1213,
    "935,112": 1214,
    "368,308": 1215,
    "586,351": 1216,
    "302,108": 1217,
    "98,101": 1218,
    "277,868": 1219,
    "261,787": 1220,
    "69,89": 1221,
    "268,535": 1222,
    "83,978": 1223,
    "561,672": 1224,
    "280,456": 1225,
    "71,374": 1226,
    "722,440": 1227,
    "433,262": 1228,
    "77,364": 1229,
    "65,273": 1230,
    "327,116": 1231,
    "98,116": 1232,
    "521,298": 1233,
    "89,314": 1234,
    "334,639": 1235,
    "303,278": 1236,
    "1028,1189": 1237,
    "1237,390": 1238,
    "276,259": 1239,
    "416,465": 1240,
    "1240,1200": 1241,
    "70,422": 1242,
    "289,829": 1243,
    "313,100": 1244,
    "359,348": 1245,
    "105,314": 1246,
    "261,604": 1247,
    "66,1241": 1248,
    "441,83": 1249,
    "533,625": 1250,
    "1250,419": 1251,
    "1251,66": 1252,
    "1252,591": 1253,
    "1253,559": 1254,
    "84,996": 1255,
    "1255,364": 1256,
    "280,303": 1257,
    "87,333": 1258,
    "921,272": 1259,
    "283,114": 1260,
    "108,116": 1261,
    "68,111": 1262,
    "697,1141": 1263,
    "263,111": 1264,
    "118,499": 1265,
    "274,115": 1266,
    "646,305": 1267,
    "828,734": 1268,
    "277,546": 1269,
    "99,310": 1270,
    "256,812": 1271,
    "461,371": 1272,
    "284,121": 1273,
    "80,429": 1274,
    "84,612": 1275,
    "270,121": 1276,
    "370,328": 1277,
    "118,121": 1278,
    "108,102": 1279,
    "289,1059": 1280,
    "631,110": 1281,
    "292,405": 1282,
    "112,608": 1283,
    "367,118": 1284,
    "561,454": 1285,
    "284,471": 1286,
    "268,278": 1287,
    "854,337": 1288,
    "268,672": 1289,
    "271,838": 1290,
    "67,108": 1291,
    "841,472": 1292,
    "309,522": 1293,
    "78,69": 1294,
    "1272,71": 1295,
    "1295,371": 1296,
    "1296,439": 1297,
    "261,269": 1298,
    "334,264": 1299,
    "343,515": 1300,
    "260,658": 1301,
    "101,551": 1302,
    "589,863": 1303,
    "279,115": 1304,
    "281,430": 1305,
    "281,389": 1306,
    "1017,76": 1307,
    "65,830": 1308,
    "345,333": 1309,
    "115,389": 1310,
    "109,98": 1311,
    "111,375": 1312,
    "317,314": 1313,
    "958,404": 1314,
    "329,962": 1315,
    "274,401": 1316,
    "277,483": 1317,
    "342,1310": 1318,
    "575,312": 1319,
    "378,121": 1320,
    "99,337": 1321,
    "260,788": 1322,
    "431,68": 1323,
    "906,69": 1324,
    "425,1177": 1325,
    "1325,500": 1326,
    "72,431": 1327,
    "1157,112": 1328,
    "79,361": 1329,
    "1064,297": 1330,
    "903,301": 1331,
    "483,613": 1332,
    "67,85": 1333,
    "371,937": 1334,
    "576,388": 1335,
    "607,481": 1336,
    "313,116": 1337,
    "443,560": 1338,
    "709,101": 1339,
    "684,486": 1340,
    "308,474": 1341,
    "285,683": 1342,
    "281,381": 1343,
    "100,311": 1344,
    "271,284": 1345,
    "331,508": 1346,
    "380,948": 1347,
    "75,1308": 1348,
    "1348,1334": 1349,
    "289,303": 1350,
    "275,115": 1351,
    "403,1259": 1352,
    "396,110": 1353,
    "105,494": 1354,
    "271,1047": 1355,
    "271,363": 1356,
    "361,617": 1357,
    "352,541": 1358,
    "97,313": 1359,
    "413,273": 1360,
    "934,351": 1361,
    "277,104": 1362,
    "259,453": 1363,
    "402,121": 1364,
    "268,388": 1365,
    "497,101": 1366,
    "85,112": 1367,
    "730,609": 1368,
    "573,1104": 1369,
    "85,110": 1370,
    "1050,721": 1371,
    "277,1228": 1372,
    "779,298": 1373,
    "441,638": 1374,
    "1374,76": 1375,
    "1375,390": 1376,
    "106,1116": 1377,
    "261,1055": 1378,
    "343,341": 1379,
    "111,293": 1380,
    "318,278": 1381,
    "307,890": 1382,
    "65,110": 1383,
    "105,312": 1384,
    "343,264": 1385,
    "105,118": 1386,
    "72,449": 1387,
    "955,299": 1388,
    "464,572": 1389,
    "285,588": 1390,
    "468,278": 1391,
    "108,298": 1392,
    "780,110": 1393,
    "991,116": 1394,
    "458,1174": 1395,
    "256,751": 1396,
    "1039,508": 1397,
    "383,295": 1398,
    "363,116": 1399,
    "1357,1173": 1400,
    "834,789": 1401,
    "68,706": 1402,
    "1402,1249": 1403,
    "256,1079": 1404,
    "1222,121": 1405,
    "304,108": 1406,
    "286,377": 1407,
    "112,335": 1408,
    "274,270": 1409,
    "76,350": 1410,
    "940,1335": 1411,
    "617,315": 1412,
    "316,101": 1413,
    "268,117": 1414,
    "302,114": 1415,
    "263,908": 1416,
    "109,788": 1417,
    "393,918": 1418,
    "473,293": 1419,
    "413,1062": 1420,
    "459,116": 1421,
    "105,601": 1422,
    "32,105": 1423,
    "73,65": 1424,
    "304,100": 1425,
    "589,311": 1426,
    "584,293": 1427,
    "269,315": 1428,
    "867,1332": 1429,
    "638,1307": 1430,
    "1430,500": 1431,
    "299,115": 1432,
    "367,315": 1433,
    "105,357": 1434,
    "307,295": 1435,
    "354,116": 1436,
    "331,108": 1437,
    "527,107": 1438,
    "101,264": 1439,
    "260,571": 1440,
    "276,358": 1441,
    "340,101": 1442,
    "301,314": 1443,
    "71,535": 1444,
    "307,1412": 1445,
    "260,272": 1446,
    "520,350": 1447,
    "271,435": 1448,
    "423,312": 1449,
    "1356,305": 1450,
    "268,111": 1451,
    "428,111": 1452,
    "333,376": 1453,
    "1281,1418": 1454,
    "1327,84": 1455,
    "1455,349": 1456,
    "1456,83": 1457,
    "334,477": 1458,
    "1149,297": 1459,
    "83,104": 1460,
    "573,293": 1461,
    "1367,275": 1462,
    "403,490": 1463,
    "329,305": 1464,
    "804,118": 1465,
    "365,1164": 1466,
    "70,1127": 1467,
    "1467,371": 1468,
    "1102,1265": 1469,
    "1457,364": 1470,
    "309,115": 1471,
    "277,361": 1472,
    "361,121": 1473,
    "44,39": 1474,
    "1231,1048": 1475,
    "595,432": 1476,
    "101,363": 1477,
    "1175,556": 1478,
    "931,80": 1479,
    "1479,1275": 1480,
    "1480,1029": 1481,
    "615,511": 1482,
    "354,477": 1483,
    "1117,471": 1484,
    "261,999": 1485,
    "263,440": 1486,
    "109,112": 1487,
    "392,266": 1488,
    "259,322": 1489,
    "67,884": 1490,
    "1490,795": 1491,
    "1239,1232": 1492,
    "366,115": 1493,
    "112,279": 1494,
    "512,432": 1495,
    "457,980": 1496,
    "261,992": 1497,
    "592,84": 1498,
    "1498,625": 1499,
    "1499,89": 1500,
    "1500,67": 1501,
    "1501,390": 1502,
    "428,1337": 1503,
    "368,357": 1504,
    "69,477": 1505,
    "46,39": 1506,
    "263,556": 1507,
    "77,369": 1508,
    "359,278": 1509,
    "842,1170": 1510,
    "282,812": 1511,
    "65,264": 1512,
    "394,1244": 1513,
    "354,1110": 1514,
    "371,1024": 1515,
    "87,373": 1516,
    "769,449": 1517,
    "901,115": 1518,
    "109,115": 1519,
    "111,102": 1520,
    "105,270": 1521,
    "289,506": 1522,
    "32,445": 1523,
    "299,121": 1524,
    "276,299": 1525,
    "1408,100": 1526,
    "114,644": 1527,
    "1126,385": 1528,
    "1168,1515": 1529,
    "1365,1098": 1530,
    "663,99": 1531,
    "279,272": 1532,
    "77,371": 1533,
    "260,337": 1534,
    "100,100": 1535,
    "302,105": 1536,
    "343,358": 1537,
    "380,1261": 1538,
    "100,272": 1539,
    "78,431": 1540,
    "66,349": 1541,
    "1541,1022": 1542,
    "1542,364": 1543,
    "1291,606": 1544,
    "607,768": 1545,
    "260,279": 1546,
    "257,100": 1547,
    "98,121": 1548,
    "65,116": 1549,
    "289,422": 1550,
    "805,389": 1551,
    "65,108": 1552,
    "722,298": 1553,
    "575,357": 1554,
    "906,824": 1555,
    "1555,364": 1556,
    "80,591": 1557,
    "1557,83": 1558,
    "1558,1274": 1559,
    "1559,79": 1560,
    "898,337": 1561,
    "457,965": 1562,
    "277,358": 1563,
    "365,312": 1564,
    "281,311": 1565,
    "309,572": 1566,
    "343,932": 1567,
    "303,270": 1568,
    "105,97": 1569,
    "520,409": 1570,
    "289,583": 1571,
    "413,264": 1572,
    "263,501": 1573,
    "410,313": 1574,
    "107,279": 1575,
    "260,382": 1576,
    "284,115": 1577,
    "304,97": 1578,
    "461,1400": 1579,
    "1165,1333": 1580,
    "1580,582": 1581,
    "568,295": 1582,
    "1257,541": 1583,
    "105,328": 1584,
    "314,272": 1585,
    "902,481": 1586,
    "367,112": 1587,
    "1437,957": 1588,
    "392,99": 1589,
    "276,483": 1590,
    "359,560": 1591,
    "428,1453": 1592,
    "779,515": 1593,
    "831,641": 1594,
    "482,1194": 1595,
    "307,116": 1596,
    "302,314": 1597,
    "117,453": 1598,
    "585,385": 1599,
    "99,301": 1600,
    "586,119": 1601,
    "420,346": 1602,
    "336,262": 1603,
    "302,264": 1604,
    "378,272": 1605,
    "271,797": 1606,
    "84,119": 1607,
    "1466,643": 1608,
    "345,984": 1609,
    "265,109": 1610,
    "256,467": 1611,
    "1293,121": 1612,
    "747,68": 1613,
    "80,884": 1614,
    "1614,80": 1615,
    "260,722": 1616,
    "277,583": 1617,
    "377,115": 1618,
    "1287,1159": 1619,
    "667,264": 1620,
    "260,1443": 1621,
    "265,108": 1622,
    "97,622": 1623,
    "260,1184": 1624,
    "271,710": 1625,
    "80,592": 1626,
    "1626,76": 1627,
    "1627,937": 1628,
    "282,1073": 1629,
    "272,121": 1630,
    "303,116": 1631,
    "769,569": 1632,
    "847,115": 1633,
    "1152,335": 1634,
    "513,272": 1635,
    "339,115": 1636,
    "283,797": 1637,
    "117,305": 1638,
    "105,337": 1639,
    "713,579": 1640,
    "1109,1377": 1641,
    "276,279": 1642,
    "286,449": 1643,
    "89,792": 1644,
    "1615,1221": 1645,
    "1324,1229": 1646,
    "263,1105": 1647,
    "258,119": 1648,
    "283,725": 1649,
    "268,655": 1650,
    "261,272": 1651,
    "1022,824": 1652,
    "1652,78": 1653,
    "1653,1424": 1654,
    "848,328": 1655,
    "682,121": 1656,
    "285,1146": 1657,
    "998,115": 1658,
    "721,116": 1659,
    "705,115": 1660,
    "299,99": 1661,
    "388,468": 1662,
    "32,923": 1663,
    "121,98": 1664,
    "1664,1399": 1665,
    "80,79": 1666,
    "1666,557": 1667,
    "1667,88": 1668,
    "1668,349": 1669,
    "1669,441": 1670,
    "425,84": 1671,
    "114,472": 1672,
    "117,112": 1673,
    "263,262": 1674,
    "117,278": 1675,
    "271,652": 1676,
    "279,869": 1677,
    "339,509": 1678,
    "410,111": 1679,
    "263,571": 1680,
    "934,106": 1681,
    "72,272": 1682,
    "413,319": 1683,
    "256,481": 1684,
    "396,522": 1685,
    "1125,1409": 1686,
    "526,1553": 1687,
    "1687,609": 1688,
    "1083,419": 1689,
    "1689,83": 1690,
    "1321,620": 1691,
    "71,600": 1692,
    "286,98": 1693,
    "805,275": 1694,
    "651,107": 1695,
    "381,1677": 1696,
    "276,400": 1697,
    "945,1148": 1698,
    "83,311": 1699,
    "1089,376": 1700,
    "281,385": 1701,
    "264,109": 1702,
    "1247,924": 1703,
    "905,1690": 1704,
    "98,1277": 1705,
    "496,592": 1706,
    "1706,82": 1707,
    "1707,1024": 1708,
    "367,102": 1709,
    "428,363": 1710,
    "959,109": 1711,
    "304,303": 1712,
    "277,513": 1713,
    "836,548": 1714,
    "354,444": 1715,
    "1681,1320": 1716,
    "66,89": 1717,
    "538,1270": 1718,
    "66,429": 1719,
    "258,763": 1720,
    "281,515": 1721,
    "287,312": 1722,
    "260,262": 1723,
    "87,352": 1724,
    "691,115": 1725,
    "586,293": 1726,
    "261,314": 1727,
    "392,279": 1728,
    "281,1659": 1729,
    "76,554": 1730,
    "365,275": 1731,
    "1611,272": 1732,
    "1389,929": 1733,
    "67,557": 1734,
    "1734,70": 1735,
    "1735,70": 1736,
    "1264,101": 1737,
    "1540,830": 1738,
    "1738,824": 1739,
    "1739,1719": 1740,
    "1740,1613": 1741,
    "302,1532": 1742,
    "637,325": 1743,
    "114,298": 1744,
    "351,278": 1745,
    "73,68": 1746,
    "84,397": 1747,
    "1436,751": 1748,
    "383,278": 1749,
    "1572,1001": 1750,
    "101,377": 1751,
    "1497,121": 1752,
    "260,435": 1753,
    "261,275": 1754,
    "351,297": 1755,
    "112,108": 1756,
    "1080,1283": 1757,
    "1260,768": 1758,
    "98,108": 1759,
    "257,115": 1760,
    "260,274": 1761,
    "610,278": 1762,
    "100,301": 1763,
    "116,279": 1764,
    "749,1014": 1765,
    "1525,869": 1766,
    "367,508": 1767,
    "690,294": 1768,
    "97,99": 1769,
    "482,312": 1770,
    "404,115": 1771,
    "669,1278": 1772,
    "260,340": 1773,
    "264,108": 1774,
    "651,471": 1775,
    "32,425": 1776,
    "1776,1294": 1777,
    "970,437": 1778,
    "105,432": 1779,
    "118,337": 1780,
    "117,266": 1781,
    "330,115": 1782,
    "753,115": 1783,
    "68,351": 1784,
    "109,272": 1785,
    "726,272": 1786,
    "277,423": 1787,
    "287,1634": 1788,
    "71,474": 1789,
    "115,111": 1790,
    "32,333": 1791,
    "302,448": 1792,
    "409,110": 1793,
    "280,729": 1794,
    "396,264": 1795,
    "97,318": 1796,
    "277,791": 1797,
    "391,1060": 1798,
    "65,104": 1799,
    "80,82": 1800,
    "1800,659": 1801,
    "1801,69": 1802,
    "638,1211": 1803,
    "643,1521": 1804,
    "308,315": 1805,
    "270,1354": 1806,
    "483,1001": 1807,
    "589,985": 1808,
    "97,122": 1809,
    "950,544": 1810,
    "99,97": 1811,
    "1574,274": 1812,
    "1406,1419": 1813,
    "366,107": 1814,
    "336,486": 1815,
    "388,104": 1816,
    "256,1381": 1817,
    "337,121": 1818,
    "97,351": 1819,
    "406,295": 1820,
    "370,798": 1821,
    "111,1010": 1822,
    "995,393": 1823,
    "494,298": 1824,
    "1824,1705": 1825,
    "1067,101": 1826,
    "516,115": 1827,
    "259,402": 1828,
    "1567,393": 1829,
    "376,115": 1830,
    "115,104": 1831,
    "258,313": 1832,
    "314,115": 1833,
    "391,116": 1834,
    "258,393": 1835,
    "263,303": 1836,
    "406,798": 1837,
    "379,509": 1838,
    "292,313": 1839,
    "783,305": 1840,
    "120,116": 1841,
    "533,1825": 1842,
    "461,1041": 1843,
    "396,763": 1844,
    "1460,373": 1845,
    "277,471": 1846,
    "569,298": 1847,
    "692,115": 1848,
    "72,340": 1849,
    "994,567": 1850,
    "1522,275": 1851,
    "110,111": 1852,
    "755,101": 1853,
    "308,100": 1854,
    "105,363": 1855,
    "1284,417": 1856,
    "110,272": 1857,
    "1415,571": 1858,
    "281,1793": 1859,
    "867,1798": 1860,
    "1778,1246": 1861,
    "65,500": 1862,
    "110,435": 1863,
    "301,299": 1864,
    "76,1584": 1865,
    "258,103": 1866,
    "1586,764": 1867,
    "616,1010": 1868,
    "1285,598": 1869,
    "663,112": 1870,
    "87,104": 1871,
    "759,119": 1872,
    "428,269": 1873,
    "413,295": 1874,
    "261,361": 1875,
    "262,315": 1876,
    "271,357": 1877,
    "287,603": 1878,
    "1190,116": 1879,
    "1537,435": 1880,
    "289,430": 1881,
    "310,116": 1882,
    "748,376": 1883,
    "897,1527": 1884,
    "496,117": 1885,
    "624,284": 1886,
    "489,100": 1887,
    "343,1672": 1888,
    "277,729": 1889,
    "1435,400": 1890,
    "633,295": 1891,
    "540,1364": 1892,
    "268,791": 1893,
    "592,70": 1894,
    "1894,1746": 1895,
    "1895,507": 1896,
    "353,305": 1897,
    "665,456": 1898,
    "83,346": 1899,
    "553,634": 1900,
    "260,417": 1901,
    "77,311": 1902,
    "316,401": 1903,
    "726,652": 1904,
    "1616,598": 1905,
    "280,409": 1906,
    "32,350": 1907,
    "618,609": 1908,
    "1578,1115": 1909,
    "420,65": 1910,
    "1910,1211": 1911,
    "262,97": 1912,
    "70,76": 1913,
    "1913,431": 1914,
    "1914,73": 1915,
    "1915,90": 1916,
    "1916,630": 1917,
    "1336,121": 1918,
    "1483,393": 1919,
    "1742,363": 1920,
    "969,110": 1921,
    "354,723": 1922,
    "103,115": 1923,
    "521,1015": 1924,
    "271,571": 1925,
    "340,385": 1926,
    "110,298": 1927,
    "115,1188": 1928,
    "274,257": 1929,
    "986,100": 1930,
    "541,100": 1931,
    "119,319": 1932,
    "256,1489": 1933,
    "291,115": 1934,
    "616,798": 1935,
    "84,408": 1936,
    "67,299": 1937,
    "86,429": 1938,
    "758,1665": 1939,
    "83,69": 1940,
    "364,78": 1941,
    "1887,620": 1942,
    "98,115": 1943,
    "489,453": 1944,
    "307,102": 1945,
    "302,1014": 1946,
    "526,279": 1947,
    "1947,1568": 1948,
    "33,39": 1949,
    "542,115": 1950,
    "406,305": 1951,
    "105,470": 1952,
    "983,115": 1953,
    "1183,393": 1954,
    "503,115": 1955,
    "263,332": 1956,
    "588,764": 1957,
    "72,97": 1958,
    "338,509": 1959,
    "308,622": 1960,
    "118,111": 1961,
    "32,878": 1962,
    "651,1103": 1963,
    "505,295": 1964,
    "276,1115": 1965,
    "385,333": 1966,
    "83,112": 1967,
    "65,1582": 1968,
    "32,565": 1969,
    "367,848": 1970,
    "66,675": 1971,
    "67,507": 1972,
    "651,341": 1973,
    "553,284": 1974,
    "324,115": 1975,
    "584,102": 1976,
    "998,100": 1977,
    "410,1202": 1978,
    "1385,572": 1979,
    "1929,101": 1980,
    "809,115": 1981,
    "1058,115": 1982,
    "261,655": 1983,
    "757,1818": 1984,
    "331,284": 1985,
    "1204,381": 1986,
    "354,340": 1987,
    "101,508": 1988,
    "108,259": 1989,
    "1989,99": 1990,
    "117,97": 1991,
    "82,640": 1992,
    "951,1526": 1993,
    "1940,931": 1994,
    "1994,1083": 1995,
    "1995,1212": 1996,
    "271,361": 1997,
    "512,917": 1998,
    "307,99": 1999,
    "1393,443": 2000,
    "271,369": 2001,
    "332,112": 2002,
    "103,117": 2003,
    "309,1279": 2004,
    "271,1073": 2005,
    "394,388": 2006,
    "288,402": 2007,
    "292,273": 2008,
    "277,284": 2009,
    "877,375": 2010,
    "588,112": 2011,
    "289,499": 2012,
    "696,675": 2013,
    "561,1069": 2014,
    "276,1386": 2015,
    "32,78": 2016,
    "756,611": 2017,
    "275,278": 2018,
    "543,430": 2019,
    "985,298": 2020,
    "426,105": 2021,
    "494,107": 2022,
    "79,87": 2023,
    "1966,111": 2024,
    "1031,494": 2025,
    "939,115": 2026,
    "540,107": 2027,
    "261,262": 2028,
    "334,1186": 2029,
    "109,499": 2030,
    "268,1631": 2031,
    "1533,1972": 2032,
    "494,115": 2033,
    "340,115": 2034,
    "67,301": 2035,
    "420,1806": 2036,
    "112,483": 2037,
    "289,284": 2038,
    "84,333": 2039,
    "304,1449": 2040,
    "632,115": 2041,
    "256,272": 2042,
    "367,108": 2043,
    "263,1043": 2044,
    "99,381": 2045,
    "544,363": 2046,
    "726,112": 2047,
    "268,1035": 2048,
    "2048,301": 2049,
    "354,99": 2050,
    "1990,1605": 2051,
    "2020,1610": 2052,
    "1973,712": 2053,
    "1843,1640": 2054,
    "867,1942": 2055,
    "66,1941": 2056,
    "2056,68": 2057,
    "2057,630": 2058,
    "2058,500": 2059,
    "32,353": 2060,
    "420,775": 2061,
    "256,279": 2062,
    "1421,467": 2063,
    "256,1085": 2064,
    "282,101": 2065,
    "577,107": 2066,
    "1379,328": 2067,
    "1081,1524": 2068,
    "503,110": 2069,
    "436,544": 2070,
    "77,1926": 2071,
    "65,735": 2072,
    "286,1494": 2073,
    "105,506": 2074,
    "103,278": 2075,
    "1446,293": 2076,
    "986,109": 2077,
    "268,571": 2078,
    "110,297": 2079,
    "276,385": 2080,
    "279,322": 2081,
    "363,109": 2082,
    "256,274": 2083,
    "277,316": 2084,
    "358,104": 2085,
    "1150,678": 2086,
    "2019,725": 2087,
    "1875,1539": 2088,
    "1095,908": 2089,
    "533,2052": 2090,
    "102,2022": 2091,
    "77,600": 2092,
    "260,796": 2093,
    "653,378": 2094,
    "389,272": 2095,
    "269,1547": 2096,
    "271,1302": 2097,
    "337,115": 2098,
    "32,293": 2099,
    "264,295": 2100,
    "32,492": 2101,
    "1044,98": 2102,
    "70,1807": 2103,
    "1979,402": 2104,
    "1441,119": 2105,
    "276,604": 2106,
    "1621,822": 2107,
    "396,274": 2108,
    "406,866": 2109,
    "1452,1391": 2110,
    "276,556": 2111,
    "104,374": 2112,
    "260,303": 2113,
    "803,115": 2114,
    "263,372": 2115,
    "263,967": 2116,
    "99,407": 2117,
    "79,80": 2118,
    "72,429": 2119,
    "32,592": 2120,
    "2120,1165": 2121,
    "2121,766": 2122,
    "1671,600": 2123,
    "2123,364": 2124,
    "1336,650": 2125,
    "258,432": 2126,
    "277,270": 2127,
    "83,784": 2128,
    "102,351": 2129,
    "263,1635": 2130,
    "343,313": 2131,
    "1163,1950": 2132,
    "263,430": 2133,
    "730,1136": 2134,
    "80,1114": 2135,
    "103,298": 2136,
    "343,111": 2137,
    "260,397": 2138,
    "816,965": 2139,
    "955,279": 2140,
    "263,1755": 2141,
    "496,1661": 2142,
    "2142,787": 2143,
    "594,295": 2144,
    "478,2051": 2145,
    "268,274": 2146,
    "77,1286": 2147,
    "478,1908": 2148,
    "1692,90": 2149,
    "2149,1862": 2150,
    "991,305": 2151,
    "358,308": 2152,
    "85,453": 2153,
    "289,1085": 2154,
    "264,119": 2155,
    "260,298": 2156,
    "98,357": 2157,
    "302,1236": 2158,
    "417,115": 2159,
    "855,115": 2160,
    "105,560": 2161,
    "289,358": 2162,
    "1185,293": 2163,
    "527,966": 2164,
    "276,114": 2165,
    "458,298": 2166,
    "1341,100": 2167,
    "1191,101": 2168,
    "994,272": 2169,
    "289,473": 2170,
    "332,305": 2171,
    "1030,1622": 2172,
    "2083,310": 2173,
    "424,1071": 2174,
    "421,1841": 2175,
    "816,608": 2176,
    "268,567": 2177,
    "828,1358": 2178,
    "261,1662": 2179,
    "420,2024": 2180,
    "993,1811": 2181,
    "304,957": 2182,
    "303,115": 2183,
    "1844,272": 2184,
    "817,116": 2185,
    "121,259": 2186,
    "1970,377": 2187,
    "271,274": 2188,
    "400,295": 2189,
    "1203,393": 2190,
    "302,284": 2191,
    "297,405": 2192,
    "684,115": 2193,
    "561,378": 2194,
    "102,404": 2195,
    "551,115": 2196,
    "314,322": 2197,
    "1050,101": 2198,
    "327,103": 2199,
    "110,101": 2200,
    "118,330": 2201,
    "268,361": 2202,
    "589,376": 2203,
    "359,942": 2204,
    "263,97": 2205,
    "334,683": 2206,
    "1101,1796": 2207,
    "256,121": 2208,
    "331,569": 2209,
    "1663,2091": 2210,
    "314,400": 2211,
    "1736,1323": 2212,
    "2119,1229": 2213,
    "2213,1294": 2214,
    "1168,592": 2215,
    "2215,68": 2216,
    "2216,364": 2217,
    "117,763": 2218,
    "107,278": 2219,
    "264,723": 2220,
    "731,322": 2221,
    "260,634": 2222,
    "263,524": 2223,
    "263,269": 2224,
    "332,102": 2225,
    "117,2129": 2226,
    "2226,1133": 2227,
    "665,472": 2228,
    "540,305": 2229,
    "485,1338": 2230,
    "769,430": 2231,
    "1153,352": 2232,
    "99,335": 2233,
    "1350,1422": 2234,
    "313,402": 2235,
    "599,107": 2236,
    "1651,471": 2237,
    "382,295": 2238,
    "1153,1439": 2239,
    "260,643": 2240,
    "260,546": 2241,
    "616,980": 2242,
    "277,430": 2243,
    "971,437": 2244,
    "327,1152": 2245,
    "428,279": 2246,
    "77,499": 2247,
    "260,107": 2248,
    "115,278": 2249,
    "327,98": 2250,
    "354,103": 2251,
    "32,394": 2252,
    "1191,272": 2253,
    "361,112": 2254,
    "1907,272": 2255,
    "587,301": 2256,
    "76,1323": 2257,
    "269,102": 2258,
    "69,815": 2259,
    "932,620": 2260,
    "533,2181": 2261,
    "2211,322": 2262,
    "2262,620": 2263,
    "1017,996": 2264,
    "2264,68": 2265,
    "2265,65": 2266,
    "1997,711": 2267,
    "524,121": 2268,
    "1503,579": 2269,
    "665,2220": 2270,
    "291,102": 2271,
    "352,104": 2272,
    "2031,310": 2273,
    "261,1828": 2274,
    "77,1696": 2275,
    "774,298": 2276,
    "341,278": 2277,
    "271,330": 2278,
    "448,115": 2279,
    "1975,579": 2280,
    "322,109": 2281,
    "108,295": 2282,
    "1536,477": 2283,
    "268,340": 2284,
    "1983,298": 2285,
    "401,115": 2286,
    "302,728": 2287,
    "657,598": 2288,
    "392,1279": 2289,
    "263,315": 2290,
    "359,764": 2291,
    "111,262": 2292,
    "268,554": 2293,
    "877,293": 2294,
    "276,117": 2295,
    "377,110": 2296,
    "1962,1060": 2297,
    "79,72": 2298,
    "2298,78": 2299,
    "83,1227": 2300,
    "83,65": 2301,
    "83,600": 2302,
    "774,548": 2303,
    "289,311": 2304,
    "365,1040": 2305,
    "117,1063": 2306,
    "263,695": 2307,
    "77,397": 2308,
    "396,770": 2309,
    "482,278": 2310,
    "83,658": 2311,
    "520,655": 2312,
    "1872,714": 2313,
    "664,115": 2314,
    "117,433": 2315,
    "281,340": 2316,
    "112,278": 2317,
    "354,100": 2318,
    "690,101": 2319,
    "1535,279": 2320,
    "259,110": 2321,
    "268,751": 2322,
    "276,652": 2323,
    "271,2238": 2324,
    "696,116": 2325,
    "256,97": 2326,
    "971,337": 2327,
    "299,388": 2328,
    "927,262": 2329,
    "1715,378": 2330,
    "927,103": 2331,
    "302,370": 2332,
    "109,764": 2333,
    "551,957": 2334,
    "468,272": 2335,
    "278,104": 2336,
    "258,99": 2337,
    "476,660": 2338,
    "842,259": 2339,
    "271,724": 2340,
    "382,322": 2341,
    "1974,1774": 2342,
    "115,257": 2343,
    "1564,2074": 2344,
    "110,107": 2345,
    "584,112": 2346,
    "758,772": 2347,
    "270,393": 2348,
    "114,604": 2349,
    "2281,513": 2350,
    "2113,2258": 2351,
    "526,1804": 2352,
    "1885,1691": 2353,
    "117,572": 2354,
    "268,284": 2355,
    "32,479": 2356,
    "82,101": 2357,
    "1971,868": 2358,
    "105,514": 2359,
    "467,115": 2360,
    "283,341": 2361,
    "631,2227": 2362,
    "277,114": 2363,
    "83,670": 2364,
    "529,308": 2365,
    "696,112": 2366,
    "73,82": 2367,
    "476,381": 2368,
    "83,119": 2369,
    "313,109": 2370,
    "276,370": 2371,
    "1766,433": 2372,
    "67,524": 2373,
    "297,506": 2374,
    "1680,115": 2375,
    "77,454": 2376,
    "1078,118": 2377,
    "117,514": 2378,
    "540,402": 2379,
    "98,315": 2380,
    "295,389": 2381,
    "276,1070": 2382,
    "260,1227": 2383,
    "843,100": 2384,
    "406,560": 2385,
    "116,298": 2386,
    "481,622": 2387,
    "1370,926": 2388,
    "854,601": 2389,
    "294,115": 2390,
    "1552,352": 2391,
    "277,734": 2392,
    "103,483": 2393,
    "2393,116": 2394,
    "420,104": 2395,
    "638,886": 2396,
    "2396,1717": 2397,
    "284,269": 2398,
    "78,84": 2399,
    "65,83": 2400,
    "257,109": 2401,
    "329,266": 2402,
    "749,115": 2403,
    "750,999": 2404,
    "334,118": 2405,
    "260,776": 2406,
    "547,2033": 2407,
    "334,1311": 2408,
    "1873,274": 2409,
    "302,294": 2410,
    "1205,721": 2411,
    "1679,328": 2412,
    "111,273": 2413,
    "268,310": 2414,
    "421,683": 2415,
    "307,404": 2416,
    "116,290": 2417,
    "481,110": 2418,
    "285,294": 2419,
    "275,330": 2420,
    "576,337": 2421,
    "1452,598": 2422,
    "1642,121": 2423,
    "526,313": 2424,
    "396,109": 2425,
    "1836,272": 2426,
    "1031,1476": 2427,
    "1126,340": 2428,
    "1260,456": 2429,
    "428,1779": 2430,
    "956,121": 2431,
    "496,513": 2432,
    "2432,275": 2433,
    "76,89": 2434,
    "275,97": 2435,
    "1205,617": 2436,
    "1623,604": 2437,
    "261,363": 2438,
    "518,100": 2439,
    "1433,115": 2440,
    "105,112": 2441,
    "82,346": 2442,
    "341,348": 2443,
    "271,358": 2444,
    "105,440": 2445,
    "117,348": 2446,
    "287,668": 2447,
    "586,512": 2448,
    "528,115": 2449,
    "557,65": 2450,
    "1218,121": 2451,
    "1414,121": 2452,
    "285,361": 2453,
    "396,2320": 2454,
    "1016,357": 2455,
    "652,100": 2456,
    "300,1764": 2457,
    "66,491": 2458,
    "1094,2333": 2459,
    "32,378": 2460,
    "89,278": 2461,
    "268,895": 2462,
    "403,2421": 2463,
    "1871,301": 2464,
    "261,2046": 2465,
    "864,315": 2466,
    "410,1159": 2467,
    "351,315": 2468,
    "109,389": 2469,
    "540,1928": 2470,
    "309,866": 2471,
    "76,378": 2472,
    "268,297": 2473,
    "114,116": 2474,
    "1161,115": 2475,
    "428,297": 2476,
    "272,110": 2477,
    "478,101": 2478,
    "2478,2348": 2479,
    "1028,65": 2480,
    "940,2394": 2481,
    "1938,83": 2482,
    "2021,2350": 2483,
    "2146,404": 2484,
    "587,2398": 2485,
    "82,1221": 2486,
    "74,2299": 2487,
    "931,76": 2488,
    "66,1212": 2489,
    "2489,638": 2490,
    "533,2437": 2491,
    "1967,580": 2492,
    "115,112": 2493,
    "392,303": 2494,
    "117,358": 2495,
    "440,712": 2496,
    "977,340": 2497,
    "107,298": 2498,
    "277,2192": 2499,
    "1550,695": 2500,
    "1710,2445": 2501,
    "2309,381": 2502,
    "899,409": 2503,
    "108,115": 2504,
    "496,723": 2505,
    "32,698": 2506,
    "587,108": 2507,
    "32,637": 2508,
    "271,2197": 2509,
    "586,99": 2510,
    "375,115": 2511,
    "294,401": 2512,
    "277,494": 2513,
    "278,1063": 2514,
    "87,2334": 2515,
    "108,556": 2516,
    "281,318": 2517,
    "361,322": 2518,
    "846,115": 2519,
    "853,655": 2520,
    "887,393": 2521,
    "1350,1639": 2522,
    "277,1821": 2523,
    "1701,337": 2524,
    "1030,678": 2525,
    "424,1312": 2526,
    "456,121": 2527,
    "271,514": 2528,
    "457,294": 2529,
    "526,864": 2530,
    "289,279": 2531,
    "1127,2482": 2532,
    "528,1763": 2533,
    "478,592": 2534,
    "2534,2399": 2535,
    "526,1227": 2536,
    "1934,895": 2537,
    "630,66": 2538,
    "2538,2023": 2539,
    "2491,97": 2540,
    "110,606": 2541,
    "115,117": 2542,
    "334,303": 2543,
    "1081,108": 2544,
    "99,121": 2545,
    "353,313": 2546,
    "391,102": 2547,
    "281,660": 2548,
    "277,775": 2549,
    "877,275": 2550,
    "2102,1762": 2551,
    "69,264": 2552,
    "283,448": 2553,
    "66,278": 2554,
    "258,917": 2555,
    "817,2037": 2556,
    "819,506": 2557,
    "457,1980": 2558,
    "428,1354": 2559,
    "286,522": 2560,
    "115,873": 2561,
    "607,99": 2562,
    "72,791": 2563,
    "748,728": 2564,
    "274,650": 2565,
    "488,104": 2566,
    "461,121": 2567,
    "119,333": 2568,
    "403,103": 2569,
    "739,295": 2570,
    "2165,542": 2571,
    "899,370": 2572,
    "569,279": 2573,
    "1044,2011": 2574,
    "750,2336": 2575,
    "286,119": 2576,
    "277,310": 2577,
    "32,643": 2578,
    "302,524": 2579,
    "108,272": 2580,
    "268,370": 2581,
    "277,567": 2582,
    "782,315": 2583,
    "327,603": 2584,
    "657,272": 2585,
    "440,713": 2586,
    "891,110": 2587,
    "2395,2349": 2588,
    "120,1060": 2589,
    "457,262": 2590,
    "345,1086": 2591,
    "84,89": 2592,
    "268,2384": 2593,
    "1029,71": 2594,
    "2594,687": 2595,
    "2442,111": 2596,
    "32,465": 2597,
    "758,2260": 2598,
    "544,1304": 2599,
    "2599,620": 2600,
    "587,2263": 2601,
    "260,361": 2602,
    "98,316": 2603,
    "1420,115": 2604,
    "430,506": 2605,
    "101,278": 2606,
    "261,351": 2607,
    "32,351": 2608,
    "1112,524": 2609,
    "354,98": 2610,
    "262,278": 2611,
    "665,2030": 2612,
    "1709,467": 2613,
    "283,683": 2614,
    "512,274": 2615,
    "118,378": 2616,
    "588,98": 2617,
    "363,115": 2618,
    "569,315": 2619,
    "285,796": 2620,
    "304,430": 2621,
    "98,274": 2622,
    "1641,115": 2623,
    "363,402": 2624,
    "276,378": 2625,
    "853,284": 2626,
    "111,270": 2627,
    "838,121": 2628,
    "1288,357": 2629,
    "271,473": 2630,
    "358,119": 2631,
    "115,99": 2632,
    "1935,381": 2633,
    "400,109": 2634,
    "280,311": 2635,
    "106,672": 2636,
    "89,382": 2637,
    "1589,1043": 2638,
    "423,295": 2639,
    "310,121": 2640,
    "402,1957": 2641,
    "2641,929": 2642,
    "1587,446": 2643,
    "111,2401": 2644,
    "595,121": 2645,
    "303,656": 2646,
    "2646,1912": 2647,
    "576,601": 2648,
    "400,101": 2649,
    "67,275": 2650,
    "281,895": 2651,
    "298,357": 2652,
    "633,1487": 2653,
    "2495,108": 2654,
    "268,279": 2655,
    "307,115": 2656,
    "104,501": 2657,
    "833,1711": 2658,
    "1203,308": 2659,
    "463,613": 2660,
    "673,298": 2661,
    "86,2367": 2662,
    "2662,71": 2663,
    "2663,73": 2664,
    "2664,2450": 2665,
    "256,409": 2666,
    "271,333": 2667,
    "298,272": 2668,
    "80,108": 2669,
    "268,734": 2670,
    "87,372": 2671,
    "343,400": 2672,
    "121,298": 2673,
    "1900,357": 2674,
    "402,768": 2675,
    "841,274": 2676,
    "873,515": 2677,
    "334,352": 2678,
    "930,393": 2679,
    "327,109": 2680,
    "1503,2315": 2681,
    "1158,389": 2682,
    "1158,311": 2683,
    "447,357": 2684,
    "271,513": 2685,
    "268,2235": 2686,
    "289,376": 2687,
    "304,99": 2688,
    "264,121": 2689,
    "359,866": 2690,
    "97,437": 2691,
    "748,875": 2692,
    "2080,110": 2693,
    "530,2254": 2694,
    "263,1089": 2695,
    "65,84": 2696,
    "284,108": 2697,
    "478,2486": 2698,
    "2092,2595": 2699,
    "2644,1569": 2700,
    "1274,68": 2701,
    "2701,73": 2702,
    "2702,1029": 2703,
    "73,630": 2704,
    "584,1805": 2705,
    "2185,1142": 2706,
    "958,1998": 2707,
    "1564,1042": 2708,
    "1648,1105": 2709,
    "289,117": 2710,
    "98,98": 2711,
    "657,601": 2712,
    "1217,340": 2713,
    "380,100": 2714,
    "32,316": 2715,
    "424,784": 2716,
    "284,110": 2717,
    "271,1042": 2718,
    "122,101": 2719,
    "277,1700": 2720,
    "103,103": 2721,
    "804,109": 2722,
    "2036,2328": 2723,
    "454,301": 2724,
    "2569,471": 2725,
    "121,330": 2726,
    "828,352": 2727,
    "111,377": 2728,
    "258,121": 2729,
    "2013,1903": 2730,
    "476,974": 2731,
    "1786,767": 2732,
    "307,106": 2733,
    "277,97": 2734,
    "114,270": 2735,
    "315,115": 2736,
    "959,308": 2737,
    "275,121": 2738,
    "394,542": 2739,
    "261,967": 2740,
    "264,340": 2741,
    "307,1852": 2742,
    "80,963": 2743,
    "1206,611": 2744,
    "263,1384": 2745,
    "261,1384": 2746,
    "430,405": 2747,
    "593,295": 2748,
    "1346,298": 2749,
    "553,1246": 2750,
    "329,114": 2751,
    "424,1302": 2752,
    "111,798": 2753,
    "100,298": 2754,
    "526,116": 2755,
    "105,378": 2756,
    "587,2691": 2757,
    "269,541": 2758,
    "1039,119": 2759,
    "289,274": 2760,
    "83,439": 2761,
    "256,270": 2762,
    "2089,121": 2763,
    "101,481": 2764,
    "68,491": 2765,
    "531,2589": 2766,
    "2256,2645": 2767,
    "1533,1212": 2768,
    "2768,65": 2769,
    "83,2434": 2770,
    "315,440": 2771,
    "271,385": 2772,
    "538,107": 2773,
    "776,98": 2774,
    "109,315": 2775,
    "263,1079": 2776,
    "614,115": 2777,
    "260,423": 2778,
    "540,295": 2779,
    "386,98": 2780,
    "334,109": 2781,
    "777,272": 2782,
    "77,284": 2783,
    "118,494": 2784,
    "261,535": 2785,
    "122,279": 2786,
    "421,375": 2787,
    "2316,650": 2788,
    "651,322": 2789,
    "476,297": 2790,
    "260,372": 2791,
    "2321,404": 2792,
    "1035,1316": 2793,
    "436,974": 2794,
    "383,301": 2795,
    "1713,2418": 2796,
    "504,295": 2797,
    "537,1771": 2798,
    "657,467": 2799,
    "70,97": 2800,
    "271,930": 2801,
    "97,668": 2802,
    "1546,305": 2803,
    "117,363": 2804,
    "317,1358": 2805,
    "258,112": 2806,
    "412,1338": 2807,
    "2291,1142": 2808,
    "2339,470": 2809,
    "102,2628": 2810,
    "279,381": 2811,
    "2139,115": 2812,
    "2111,2420": 2813,
    "1198,1110": 2814,
    "2250,351": 2815,
    "400,622": 2816,
    "361,115": 2817,
    "413,2201": 2818,
    "103,579": 2819,
    "1478,753": 2820,
    "309,112": 2821,
    "538,99": 2822,
    "286,770": 2823,
    "261,315": 2824,
    "385,278": 2825,
    "327,921": 2826,
    "107,315": 2827,
    "1822,315": 2828,
    "100,393": 2829,
    "354,643": 2830,
    "977,2758": 2831,
    "2586,279": 2832,
    "2177,257": 2833,
    "1389,2516": 2834,
    "482,2296": 2835,
    "77,787": 2836,
    "282,409": 2837,
    "80,371": 2838,
    "2838,612": 2839,
    "2537,551": 2840,
    "340,1991": 2841,
    "779,2647": 2842,
    "1702,620": 2843,
    "2634,620": 2844,
    "86,738": 2845,
    "383,103": 2846,
    "351,272": 2847,
    "97,560": 2848,
    "114,433": 2849,
    "902,376": 2850,
    "303,1000": 2851,
    "104,832": 2852,
    "366,796": 2853,
    "304,2657": 2854,
    "84,332": 2855,
    "292,312": 2856,
    "1870,967": 2857,
    "537,404": 2858,
    "1143,115": 2859,
    "260,544": 2860,
    "955,98": 2861,
    "277,400": 2862,
    "58,39": 2863,
    "286,2451": 2864,
    "1781,850": 2865,
    "281,604": 2866,
    "386,695": 2867,
    "117,315": 2868,
    "1589,513": 2869,
    "65,98": 2870,
    "417,278": 2871,
    "354,102": 2872,
    "321,101": 2873,
    "1496,272": 2874,
    "305,116": 2875,
    "284,298": 2876,
    "100,310": 2877,
    "584,2561": 2878,
    "571,115": 2879,
    "263,275": 2880,
    "359,767": 2881,
    "73,453": 2882,
    "87,1105": 2883,
    "276,471": 2884,
    "295,272": 2885,
    "2578,270": 2886,
    "2170,308": 2887,
    "281,1819": 2888,
    "1362,2171": 2889,
    "79,316": 2890,
    "790,101": 2891,
    "281,299": 2892,
    "615,768": 2893,
    "1684,112": 2894,
    "1362,2518": 2895,
    "261,788": 2896,
    "303,315": 2897,
    "684,1380": 2898,
    "293,108": 2899,
    "2688,868": 2900,
    "561,2292": 2901,
    "428,376": 2902,
    "2528,104": 2903,
    "114,318": 2904,
    "2832,314": 2905,
    "1770,279": 2906,
    "943,272": 2907,
    "461,992": 2908,
    "97,1270": 2909,
    "343,270": 2910,
    "32,88": 2911,
    "533,2700": 2912,
    "277,2026": 2913,
    "1170,270": 2914,
    "437,284": 2915,
    "496,314": 2916,
    "468,1032": 2917,
    "1041,337": 2918,
    "274,1000": 2919,
    "339,1338": 2920,
    "117,962": 2921,
    "424,2606": 2922,
    "748,2095": 2923,
    "304,273": 2924,
    "261,316": 2925,
    "2153,111": 2926,
    "289,314": 2927,
    "281,297": 2928,
    "101,449": 2929,
    "299,103": 2930,
    "588,101": 2931,
    "268,1277": 2932,
    "2224,1763": 2933,
    "262,1133": 2934,
    "2369,702": 2935,
    "271,450": 2936,
    "260,322": 2937,
    "104,318": 2938,
    "696,99": 2939,
    "382,305": 2940,
    "587,114": 2941,
    "76,371": 2942,
    "2942,84": 2943,
    "2943,507": 2944,
    "285,2865": 2945,
    "72,1070": 2946,
    "65,109": 2947,
    "268,539": 2948,
    "1239,470": 2949,
    "116,115": 2950,
    "283,567": 2951,
    "33,525": 2952,
    "480,100": 2953,
    "310,734": 2954,
    "307,100": 2955,
    "334,102": 2956,
    "2956,1495": 2957,
    "256,337": 2958,
    "343,1302": 2959,
    "2199,294": 2960,
    "343,376": 2961,
    "1078,617": 2962,
    "352,401": 2963,
    "293,121": 2964,
    "354,1164": 2965,
    "281,489": 2966,
    "304,266": 2967,
    "2246,393": 2968,
    "32,754": 2969,
    "343,374": 2970,
    "281,279": 2971,
    "300,116": 2972,
    "817,1104": 2973,
    "272,310": 2974,
    "971,2648": 2975,
    "473,117": 2976,
    "1878,115": 2977,
    "271,474": 2978,
    "586,102": 2979,
    "861,115": 2980,
    "69,110": 2981,
    "1693,315": 2982,
    "268,2018": 2983,
    "520,1834": 2984,
    "1283,100": 2985,
    "80,114": 2986,
    "98,299": 2987,
    "1534,601": 2988,
    "469,444": 2989,
    "314,121": 2990,
    "83,117": 2991,
    "476,2514": 2992,
    "994,1700": 2993,
    "604,924": 2994,
    "105,930": 2995,
    "294,116": 2996,
    "365,310": 2997,
    "899,483": 2998,
    "1107,2085": 2999,
    "573,266": 3000,
    "110,121": 3001,
    "2430,1276": 3002,
    "1217,1276": 3003,
    "260,864": 3004,
    "260,388": 3005,
    "68,431": 3006,
    "1236,1548": 3007,
    "276,724": 3008,
    "343,1477": 3009,
    "726,2677": 3010,
    "308,274": 3011,
    "1264,278": 3012,
    "2591,609": 3013,
    "281,454": 3014,
    "350,115": 3015,
    "1697,2345": 3016,
    "584,2207": 3017,
    "1663,2642": 3018,
    "478,1944": 3019,
    "1306,115": 3020,
    "2061,117": 3021,
    "3021,1882": 3022,
    "602,967": 3023,
    "3023,609": 3024,
    "496,69": 3025,
    "3025,87": 3026,
    "3026,612": 3027,
    "2911,73": 3028,
    "587,2841": 3029,
    "543,2600": 3030,
    "478,2843": 3031,
    "371,2704": 3032,
    "420,97": 3033,
    "258,2914": 3034,
    "1095,381": 3035,
    "117,617": 3036,
    "794,115": 3037,
    "735,115": 3038,
    "119,452": 3039,
    "261,2605": 3040,
    "2651,330": 3041,
    "66,551": 3042,
    "417,583": 3043,
    "118,1108": 3044,
    "334,312": 3045,
    "271,1015": 3046,
    "745,115": 3047,
    "901,121": 3048,
    "276,1026": 3049,
    "309,313": 3050,
    "1600,278": 3051,
    "257,340": 3052,
    "642,262": 3053,
    "749,109": 3054,
    "2672,375": 3055,
    "631,453": 3056,
    "432,315": 3057,
    "383,298": 3058,
    "478,111": 3059,
    "885,357": 3060,
    "100,279": 3061,
    "2168,966": 3062,
    "378,401": 3063,
    "460,1857": 3064,
    "2800,319": 3065,
    "503,2679": 3066,
    "264,453": 3067,
    "276,1585": 3068,
    "3068,109": 3069,
    "271,101": 3070,
    "271,303": 3071,
    "59,39": 3072,
    "615,299": 3073,
    "391,437": 3074,
    "392,363": 3075,
    "261,1363": 3076,
    "67,373": 3077,
    "103,753": 3078,
    "893,622": 3079,
    "898,262": 3080,
    "289,610": 3081,
    "72,409": 3082,
    "898,114": 3083,
    "2047,1359": 3084,
    "277,1623": 3085,
    "1095,378": 3086,
    "261,2527": 3087,
    "271,400": 3088,
    "260,330": 3089,
    "607,2636": 3090,
    "264,613": 3091,
    "271,1071": 3092,
    "77,101": 3093,
    "80,1059": 3094,
    "1054,1188": 3095,
    "684,370": 3096,
    "2044,1977": 3097,
    "665,474": 3098,
    "343,1069": 3099,
    "105,644": 3100,
    "313,108": 3101,
    "261,2132": 3102,
    "111,104": 3103,
    "3103,110": 3104,
    "1550,1428": 3105,
    "464,2697": 3106,
    "297,98": 3107,
    "3107,1114": 3108,
    "588,2974": 3109,
    "1988,272": 3110,
    "2301,77": 3111,
    "3111,80": 3112,
    "3112,2302": 3113,
    "439,429": 3114,
    "478,2844": 3115,
    "1333,82": 3116,
    "3116,1275": 3117,
    "80,2771": 3118,
    "277,655": 3119,
    "1061,1363": 3120,
    "584,118": 3121,
    "69,683": 3122,
    "39,264": 3123,
    "553,491": 3124,
    "392,377": 3125,
    "295,440": 3126,
    "1710,330": 3127,
    "877,767": 3128,
    "1095,405": 3129,
    "2862,551": 3130,
    "382,477": 3131,
    "543,297": 3132,
    "463,711": 3133,
    "264,315": 3134,
    "380,328": 3135,
    "1355,556": 3136,
    "2562,2792": 3137,
    "480,1526": 3138,
    "258,351": 3139,
    "491,298": 3140,
    "2044,322": 3141,
    "277,1103": 3142,
    "1078,378": 3143,
    "615,294": 3144,
    "289,363": 3145,
    "330,110": 3146,
    "745,883": 3147,
    "292,2624": 3148,
    "2574,104": 3149,
    "274,315": 3150,
    "466,472": 3151,
    "109,274": 3152,
    "903,888": 3153,
    "68,269": 3154,
    "103,374": 3155,
    "367,103": 3156,
    "1393,404": 3157,
    "2014,393": 3158,
    "58,525": 3159,
    "800,115": 3160,
    "602,333": 3161,
    "1390,470": 3162,
    "538,119": 3163,
    "67,2026": 3164,
    "602,545": 3165,
    "657,2335": 3166,
    "367,2469": 3167,
    "385,337": 3168,
    "108,112": 3169,
    "66,114": 3170,
    "259,613": 3171,
    "256,471": 3172,
    "116,397": 3173,
    "902,315": 3174,
    "268,2747": 3175,
    "2331,284": 3176,
    "256,2341": 3177,
    "589,440": 3178,
    "359,378": 3179,
    "260,318": 3180,
    "2425,1785": 3181,
    "273,297": 3182,
    "1315,2381": 3183,
    "538,112": 3184,
    "270,1032": 3185,
    "276,644": 3186,
    "1604,314": 3187,
    "750,2374": 3188,
    "399,509": 3189,
    "112,313": 3190,
    "1183,583": 3191,
    "1528,115": 3192,
    "1074,850": 3193,
    "66,85": 3194,
    "3194,733": 3195,
    "98,1473": 3196,
    "608,100": 3197,
    "679,115": 3198,
    "522,121": 3199,
    "410,337": 3200,
    "692,357": 3201,
    "766,89": 3202,
    "101,121": 3203,
    "461,3108": 3204,
    "277,850": 3205,
    "69,88": 3206,
    "316,620": 3207,
    "1071,269": 3208,
    "1671,73": 3209,
    "3209,1692": 3210,
    "3210,390": 3211,
    "461,787": 3212,
    "285,2354": 3213,
    "303,298": 3214,
    "270,1364": 3215,
    "421,2774": 3216,
    "426,1864": 3217,
    "2608,310": 3218,
    "2028,1184": 3219,
    "84,2649": 3220,
    "2655,721": 3221,
    "101,340": 3222,
    "615,695": 3223,
    "343,456": 3224,
    "2223,115": 3225,
    "2407,1034": 3226,
    "607,1278": 3227,
    "793,121": 3228,
    "420,301": 3229,
    "66,314": 3230,
    "352,107": 3231,
    "102,524": 3232,
    "428,473": 3233,
    "3233,119": 3234,
    "109,275": 3235,
    "412,115": 3236,
    "109,470": 3237,
    "289,660": 3238,
    "845,115": 3239,
    "70,409": 3240,
    "993,115": 3241,
    "77,1442": 3242,
    "804,100": 3243,
    "387,2233": 3244,
    "331,1273": 3245,
    "282,382": 3246,
    "327,308": 3247,
    "116,310": 3248,
    "473,102": 3249,
    "476,546": 3250,
    "731,100": 3251,
    "392,477": 3252,
    "2966,325": 3253,
    "302,337": 3254,
    "2968,644": 3255,
    "391,121": 3256,
    "276,262": 3257,
    "77,450": 3258,
    "2377,515": 3259,
    "1563,293": 3260,
    "403,275": 3261,
    "1607,352": 3262,
    "2626,308": 3263,
    "2325,1702": 3264,
    "283,370": 3265,
    "310,508": 3266,
    "1217,829": 3267,
    "482,298": 3268,
    "76,111": 3269,
    "263,1108": 3270,
    "1754,402": 3271,
    "271,864": 3272,
    "703,115": 3273,
    "276,1001": 3274,
    "274,278": 3275,
    "370,121": 3276,
    "1122,115": 3277,
    "257,446": 3278,
    "538,102": 3279,
    "1074,678": 3280,
    "302,97": 3281,
    "1094,295": 3282,
    "343,1577": 3283,
    "32,326": 3284,
    "1674,404": 3285,
    "114,980": 3286,
    "3096,340": 3287,
    "1298,272": 3288,
    "262,298": 3289,
    "502,1520": 3290,
    "1205,348": 3291,
    "970,3104": 3292,
    "82,2696": 3293,
    "3293,1736": 3294,
    "2351,1026": 3295,
    "271,446": 3296,
    "496,3208": 3297,
    "32,377": 3298,
    "354,108": 3299,
    "97,763": 3300,
    "265,293": 3301,
    "327,1785": 3302,
    "2405,417": 3303,
    "428,1113": 3304,
    "85,962": 3305,
    "103,358": 3306,
    "110,506": 3307,
    "277,313": 3308,
    "71,618": 3309,
    "119,1864": 3310,
    "385,112": 3311,
    "1447,115": 3312,
    "2937,1047": 3313,
    "70,473": 3314,
    "111,595": 3315,
    "308,273": 3316,
    "2939,1638": 3317,
    "1112,111": 3318,
    "1149,974": 3319,
    "2671,2282": 3320,
    "264,278": 3321,
    "307,1101": 3322,
    "1148,322": 3323,
    "681,102": 3324,
    "78,1751": 3325,
    "1118,377": 3326,
    "633,357": 3327,
    "119,257": 3328,
    "1713,1316": 3329,
    "367,363": 3330,
    "270,433": 3331,
    "354,2167": 3332,
    "697,294": 3333,
    "482,100": 3334,
    "2678,121": 3335,
    "410,544": 3336,
    "334,734": 3337,
    "66,351": 3338,
    "663,109": 3339,
    "534,341": 3340,
    "2014,3078": 3341,
    "65,2195": 3342,
    "551,381": 3343,
    "690,278": 3344,
    "115,978": 3345,
    "78,101": 3346,
    "538,98": 3347,
    "469,1101": 3348,
    "1044,363": 3349,
    "285,494": 3350,
    "550,295": 3351,
    "351,337": 3352,
    "293,273": 3353,
    "263,264": 3354,
    "708,548": 3355,
    "935,713": 3356,
    "3088,274": 3357,
    "2337,444": 3358,
    "469,2964": 3359,
    "281,378": 3360,
    "1203,1195": 3361,
    "277,1146": 3362,
    "118,1032": 3363,
    "263,2081": 3364,
    "524,297": 3365,
    "426,316": 3366,
    "3366,929": 3367,
    "1390,330": 3368,
    "553,888": 3369,
    "2117,393": 3370,
    "271,2370": 3371,
    "66,612": 3372,
    "3372,72": 3373,
    "3373,2118": 3374,
    "436,2155": 3375,
    "301,352": 3376,
    "918,375": 3377,
    "425,3202": 3378,
    "1451,294": 3379,
    "341,284": 3380,
    "1587,1115": 3381,
    "2208,1014": 3382,
    "413,652": 3383,
    "612,84": 3384,
    "543,272": 3385,
    "750,772": 3386,
    "2592,2488": 3387,
    "3387,84": 3388,
    "1108,270": 3389,
    "83,1804": 3390,
    "2908,3207": 3391,
    "461,440": 3392,
    "3392,1991": 3393,
    "533,2717": 3394,
    "279,278": 3395,
    "584,1265": 3396,
    "547,262": 3397,
    "3397,1691": 3398,
    "576,1432": 3399,
    "1546,515": 3400,
    "1596,467": 3401,
    "631,108": 3402,
    "891,264": 3403,
    "112,262": 3404,
    "68,278": 3405,
    "271,1202": 3406,
    "317,303": 3407,
    "1787,598": 3408,
    "3229,2934": 3409,
    "302,724": 3410,
    "101,850": 3411,
    "111,294": 3412,
    "2036,105": 3413,
    "2408,2152": 3414,
    "268,2279": 3415,
    "77,2132": 3416,
    "268,448": 3417,
    "65,76": 3418,
    "99,275": 3419,
    "279,644": 3420,
    "97,2195": 3421,
    "417,1569": 3422,
    "940,115": 3423,
    "84,316": 3424,
    "602,101": 3425,
    "457,2225": 3426,
    "283,2921": 3427,
    "1756,863": 3428,
    "116,97": 3429,
    "302,1834": 3430,
    "268,97": 3431,
    "115,372": 3432,
    "739,560": 3433,
    "2438,598": 3434,
    "553,3063": 3435,
    "476,501": 3436,
    "1153,1879": 3437,
    "114,515": 3438,
    "2971,103": 3439,
    "476,378": 3440,
    "80,316": 3441,
    "302,606": 3442,
    "256,2573": 3443,
    "104,269": 3444,
    "118,556": 3445,
    "276,454": 3446,
    "410,397": 3447,
    "757,598": 3448,
    "805,467": 3449,
    "39,63": 3450,
    "430,101": 3451,
    "1514,115": 3452,
    "2015,450": 3453,
    "1125,2919": 3454,
    "343,2002": 3455,
    "2718,121": 3456,
    "424,728": 3457,
    "2979,2990": 3458,
    "2208,932": 3459,
    "341,1040": 3460,
    "101,107": 3461,
    "304,265": 3462,
    "1292,115": 3463,
    "2137,112": 3464,
    "97,1062": 3465,
    "2115,2282": 3466,
    "66,108": 3467,
    "817,1780": 3468,
    "481,337": 3469,
    "268,888": 3470,
    "1720,1359": 3471,
    "276,838": 3472,
    "1477,433": 3473,
    "493,2085": 3474,
    "351,725": 3475,
    "775,272": 3476,
    "561,1822": 3477,
    "1414,1103": 3478,
    "2346,257": 3479,
    "1769,335": 3480,
    "1552,660": 3481,
    "2480,75": 3482,
    "3482,349": 3483,
    "3483,3195": 3484,
    "302,2639": 3485,
    "729,100": 3486,
    "343,895": 3487,
    "950,337": 3488,
    "653,1320": 3489,
    "289,1830": 3490,
    "2742,1321": 3491,
    "2941,658": 3492,
    "538,108": 3493,
    "263,683": 3494,
    "69,120": 3495,
    "271,376": 3496,
    "2507,2905": 3497,
    "1214,544": 3498,
    "1604,279": 3499,
    "428,598": 3500,
    "420,3007": 3501,
    "299,2640": 3502,
    "405,279": 3503,
    "358,432": 3504,
    "1809,315": 3505,
    "114,491": 3506,
    "436,369": 3507,
    "884,2400": 3508,
    "410,1744": 3509,
    "2510,850": 3510,
    "631,3109": 3511,
    "410,101": 3512,
    "302,3101": 3513,
    "272,2435": 3514,
    "425,68": 3515,
    "779,3110": 3516,
    "2757,1912": 3517,
    "119,373": 3518,
    "112,544": 3519,
    "2061,274": 3520,
    "3520,494": 3521,
    "279,279": 3522,
    "3522,1133": 3523,
    "665,3038": 3524,
    "32,315": 3525,
    "111,405": 3526,
    "1112,1113": 3527,
    "262,433": 3528,
    "1317,115": 3529,
    "352,99": 3530,
    "817,3044": 3531,
    "697,98": 3532,
    "3308,99": 3533,
    "1493,604": 3534,
    "109,369": 3535,
    "2193,601": 3536,
    "708,262": 3537,
    "32,398": 3538,
    "334,310": 3539,
    "73,266": 3540,
    "3540,1202": 3541,
    "610,1927": 3542,
    "842,491": 3543,
    "109,121": 3544,
    "271,2668": 3545,
    "383,270": 3546,
    "263,713": 3547,
    "101,312": 3548,
    "2371,112": 3549,
    "545,115": 3550,
    "3550,468": 3551,
    "367,99": 3552,
    "307,1711": 3553,
    "589,1640": 3554,
    "744,262": 3555,
    "72,601": 3556,
    "2413,111": 3557,
    "624,348": 3558,
    "2653,1833": 3559,
    "386,305": 3560,
    "833,1341": 3561,
    "329,1063": 3562,
    "271,1473": 3563,
    "3144,1764": 3564,
    "277,2724": 3565,
    "819,272": 3566,
    "2715,404": 3567,
    "421,2045": 3568,
    "1786,293": 3569,
    "334,1487": 3570,
    "99,265": 3571,
    "1018,1675": 3572,
    "1486,275": 3573,
    "828,340": 3574,
    "408,297": 3575,
    "331,2736": 3576,
    "586,417": 3577,
    "112,314": 3578,
    "79,613": 3579,
    "804,2976": 3580,
    "2162,432": 3581,
    "3581,695": 3582,
    "2886,440": 3583,
    "816,1796": 3584,
    "268,1070": 3585,
    "264,257": 3586,
    "1441,668": 3587,
    "403,869": 3588,
    "334,713": 3589,
    "697,375": 3590,
    "100,2631": 3591,
    "111,112": 3592,
    "110,303": 3593,
    "2892,2003": 3594,
    "3174,121": 3595,
    "395,297": 3596,
    "343,2018": 3597,
    "258,1961": 3598,
    "551,293": 3599,
    "969,617": 3600,
    "642,486": 3601,
    "760,506": 3602,
    "726,643": 3603,
    "260,1266": 3604,
    "1684,622": 3605,
    "538,115": 3606,
    "263,725": 3607,
    "436,114": 3608,
    "536,509": 3609,
    "406,1141": 3610,
    "2043,435": 3611,
    "3170,490": 3612,
    "108,672": 3613,
    "1214,3286": 3614,
    "299,322": 3615,
    "111,357": 3616,
    "65,100": 3617,
    "2781,622": 3618,
    "103,111": 3619,
    "634,315": 3620,
    "2582,541": 3621,
    "109,110": 3622,
    "69,852": 3623,
    "68,429": 3624,
    "3624,1717": 3625,
    "302,1821": 3626,
    "82,1091": 3627,
    "63,39": 3628,
    "315,1032": 3629,
    "575,3182": 3630,
    "406,449": 3631,
    "2168,107": 3632,
    "402,542": 3633,
    "523,2909": 3634,
    "413,514": 3635,
    "2252,3376": 3636,
    "550,270": 3637,
    "302,3503": 3638,
    "270,471": 3639,
    "1109,295": 3640,
    "615,571": 3641,
    "424,435": 3642,
    "1324,71": 3643,
    "3643,431": 3644,
    "3644,89": 3645,
    "825,429": 3646,
    "526,301": 3647,
    "272,2875": 3648,
    "1598,115": 3649,
    "77,3384": 3650,
    "3650,82": 3651,
    "3651,1249": 3652,
    "531,1938": 3653,
    "3653,68": 3654,
    "3654,600": 3655,
    "3655,69": 3656,
    "3394,405": 3657,
    "3657,450": 3658,
    "82,278": 3659,
    "876,721": 3660,
    "3034,583": 3661,
    "32,278": 3662,
    "2402,456": 3663,
    "318,337": 3664,
    "343,303": 3665,
    "316,278": 3666,
    "2924,121": 3667,
    "97,432": 3668,
    "1284,695": 3669,
    "646,310": 3670,
    "343,1202": 3671,
    "354,1341": 3672,
    "402,269": 3673,
    "2710,1759": 3674,
    "3221,274": 3675,
    "305,1311": 3676,
    "615,3530": 3677,
    "428,2496": 3678,
    "3404,401": 3679,
    "662,330": 3680,
    "1243,298": 3681,
    "258,318": 3682,
    "100,121": 3683,
    "1650,101": 3684,
    "2554,1745": 3685,
    "692,110": 3686,
    "258,2446": 3687,
    "352,372": 3688,
    "984,401": 3689,
    "2366,924": 3690,
    "1809,101": 3691,
    "1976,381": 3692,
    "304,3051": 3693,
    "1198,340": 3694,
    "86,3418": 3695,
    "3695,429": 3696,
    "3696,1424": 3697,
    "702,104": 3698,
    "260,1304": 3699,
    "263,2161": 3700,
    "1330,506": 3701,
    "277,1286": 3702,
    "2559,337": 3703,
    "116,372": 3704,
    "1713,117": 3705,
    "619,603": 3706,
    "280,1957": 3707,
    "581,295": 3708,
    "1958,866": 3709,
    "304,257": 3710,
    "1901,601": 3711,
    "269,278": 3712,
    "863,100": 3713,
    "584,873": 3714,
    "1701,98": 3715,
    "115,298": 3716,
    "1355,115": 3717,
    "1064,974": 3718,
    "289,1359": 3719,
    "405,115": 3720,
    "1536,560": 3721,
    "263,1041": 3722,
    "32,744": 3723,
    "2882,111": 3724,
    "472,115": 3725,
    "277,264": 3726,
    "2780,894": 3727,
    "480,508": 3728,
    "1361,115": 3729,
    "970,1380": 3730,
    "101,433": 3731,
    "84,751": 3732,
    "277,2277": 3733,
    "1460,297": 3734,
    "367,119": 3735,
    "256,1048": 3736,
    "343,284": 3737,
    "2191,1783": 3738,
    "308,266": 3739,
    "1586,98": 3740,
    "1648,397": 3741,
    "969,262": 3742,
    "1394,278": 3743,
    "2047,888": 3744,
    "526,468": 3745,
    "275,3171": 3746,
    "277,541": 3747,
    "918,767": 3748,
    "502,262": 3749,
    "3265,303": 3750,
    "366,3266": 3751,
    "281,284": 3752,
    "121,405": 3753,
    "341,433": 3754,
    "283,2189": 3755,
    "281,965": 3756,
    "1175,2096": 3757,
    "1685,272": 3758,
    "1163,1015": 3759,
    "276,361": 3760,
    "2361,293": 3761,
    "1935,1952": 3762,
    "367,2167": 3763,
    "469,106": 3764,
    "3471,115": 3765,
    "561,3473": 3766,
    "407,116": 3767,
    "265,942": 3768,
    "1465,695": 3769,
    "65,2474": 3770,
    "256,3475": 3771,
    "782,298": 3772,
    "669,118": 3773,
    "2428,611": 3774,
    "466,98": 3775,
    "1198,3480": 3776,
    "927,1086": 3777,
    "478,2689": 3778,
    "80,2627": 3779,
    "3071,363": 3780,
    "68,499": 3781,
    "263,3620": 3782,
    "119,290": 3783,
    "380,114": 3784,
    "1264,611": 3785,
    "2529,1116": 3786,
    "3180,802": 3787,
    "847,298": 3788,
    "367,2985": 3789,
    "2462,101": 3790,
    "665,352": 3791,
    "294,257": 3792,
    "2588,993": 3793,
    "2581,1575": 3794,
    "256,3629": 3795,
    "1031,643": 3796,
    "285,351": 3797,
    "2823,2963": 3798,
    "67,72": 3799,
    "263,337": 3800,
    "3296,335": 3801,
    "2243,310": 3802,
    "285,274": 3803,
    "82,623": 3804,
    "3804,2092": 3805,
    "3805,68": 3806,
    "79,88": 3807,
    "3807,70": 3808,
    "3808,1323": 3809,
    "289,417": 3810,
    "461,1662": 3811,
    "547,3514": 3812,
    "631,112": 3813,
    "277,408": 3814,
    "260,1188": 3815,
    "2817,1344": 3816,
    "3647,3648": 3817,
    "83,884": 3818,
    "3818,429": 3819,
    "3819,2761": 3820,
    "109,401": 3821,
    "3821,101": 3822,
    "269,97": 3823,
    "3033,1133": 3824,
    "102,108": 3825,
    "977,299": 3826,
    "302,376": 3827,
    "86,1630": 3828,
    "274,3036": 3829,
    "1061,388": 3830,
    "461,3523": 3831,
    "842,1432": 3832,
    "277,363": 3833,
    "343,369": 3834,
    "433,278": 3835,
    "337,541": 3836,
    "793,115": 3837,
    "528,357": 3838,
    "615,2272": 3839,
    "334,444": 3840,
    "359,112": 3841,
    "410,483": 3842,
    "663,100": 3843,
    "2714,297": 3844,
    "521,554": 3845,
    "268,389": 3846,
    "2556,100": 3847,
    "1268,100": 3848,
    "117,98": 3849,
    "1117,3420": 3850,
    "277,385": 3851,
    "281,467": 3852,
    "436,316": 3853,
    "289,262": 3854,
    "307,1495": 3855,
    "2453,116": 3856,
    "750,435": 3857,
    "97,522": 3858,
    "1901,377": 3859,
    "1078,2719": 3860,
    "289,3551": 3861,
    "696,1113": 3862,
    "2951,279": 3863,
    "2043,311": 3864,
    "367,483": 3865,
    "1870,2793": 3866,
    "3710,312": 3867,
    "287,112": 3868,
    "1000,278": 3869,
    "263,450": 3870,
    "260,299": 3871,
    "3871,432": 3872,
    "333,115": 3873,
    "112,114": 3874,
    "410,467": 3875,
    "977,1923": 3876,
    "315,298": 3877,
    "343,2218": 3878,
    "115,275": 3879,
    "68,2929": 3880,
    "354,2541": 3881,
    "1661,121": 3882,
    "520,311": 3883,
    "391,512": 3884,
    "958,1495": 3885,
    "382,293": 3886,
    "2576,101": 3887,
    "726,1089": 3888,
    "32,836": 3889,
    "32,272": 3890,
    "260,1190": 3891,
    "1465,2496": 3892,
    "1642,1026": 3893,
    "343,1312": 3894,
    "83,99": 3895,
    "115,272": 3896,
    "289,2802": 3897,
    "428,299": 3898,
    "3081,556": 3899,
    "256,3451": 3900,
    "396,112": 3901,
    "388,401": 3902,
    "3743,121": 3903,
    "101,103": 3904,
    "331,775": 3905,
    "2513,330": 3906,
    "538,3593": 3907,
    "833,417": 3908,
    "833,556": 3909,
    "72,430": 3910,
    "2989,272": 3911,
    "1094,313": 3912,
    "1574,1266": 3913,
    "277,3542": 3914,
    "71,567": 3915,
    "80,272": 3916,
    "553,274": 3917,
    "757,3599": 3918,
    "696,3316": 3919,
    "32,313": 3920,
    "1080,2542": 3921,
    "114,275": 3922,
    "280,2825": 3923,
    "3257,1857": 3924,
    "358,266": 3925,
    "268,513": 3926,
    "2826,655": 3927,
    "920,417": 3928,
    "289,3476": 3929,
    "112,298": 3930,
    "99,298": 3931,
    "102,511": 3932,
    "304,1655": 3933,
    "1872,1879": 3934,
    "284,322": 3935,
    "817,121": 3936,
    "331,435": 3937,
    "596,357": 3938,
    "3288,883": 3939,
    "1472,295": 3940,
    "3618,121": 3941,
    "403,393": 3942,
    "2693,315": 3943,
    "888,433": 3944,
    "1390,2157": 3945,
    "607,3363": 3946,
    "276,579": 3947,
    "276,314": 3948,
    "263,2095": 3949,
    "3216,330": 3950,
    "1027,115": 3951,
    "316,794": 3952,
    "697,301": 3953,
    "312,301": 3954,
    "406,100": 3955,
    "903,683": 3956,
    "280,450": 3957,
    "2910,109": 3958,
    "423,112": 3959,
    "1083,3378": 3960,
    "421,103": 3961,
    "897,3380": 3962,
    "1363,121": 3963,
    "1607,111": 3964,
    "533,2435": 3965,
    "3083,1273": 3966,
    "392,352": 3967,
    "2025,293": 3968,
    "543,1286": 3969,
    "279,110": 3970,
    "256,544": 3971,
    "343,508": 3972,
    "454,598": 3973,
    "830,3508": 3974,
    "461,2023": 3975,
    "3975,2480": 3976,
    "3976,89": 3977,
    "302,712": 3978,
    "66,390": 3979,
    "3979,72": 3980,
    "3980,89": 3981,
    "400,110": 3982,
    "3512,576": 3983,
    "3145,863": 3984,
    "2406,115": 3985,
    "2727,440": 3986,
    "2290,2754": 3987,
    "370,301": 3988,
    "84,1665": 3989,
    "730,3310": 3990,
    "260,3639": 3991,
    "2252,3816": 3992,
    "3811,993": 3993,
    "2577,284": 3994,
    "3206,3114": 3995,
    "111,303": 3996,
    "77,65": 3997,
    "3997,1307": 3998,
    "3998,76": 3999,
    "3999,507": 4000,
    "587,494": 4001,
    "1190,3395": 4002,
    "77,2118": 4003,
    "4003,2301": 4004,
    "677,1327": 4005,
    "4005,2302": 4006,
    "105,513": 4007,
    "4007,408": 4008,
    "4008,111": 4009,
    "84,3389": 4010,
    "921,376": 4011,
    "2025,767": 4012,
    "894,346": 4013,
    "299,101": 4014,
    "1298,1630": 4015,
    "486,115": 4016,
    "1563,375": 4017,
    "263,513": 4018,
    "1064,121": 4019,
    "103,2152": 4020,
    "1158,333": 4021,
    "277,1673": 4022,
    "1890,432": 4023,
    "1531,2918": 4024,
    "1546,2851": 4025,
    "1257,2654": 4026,
    "279,2545": 4027,
    "3674,468": 4028,
    "268,352": 4029,
    "892,966": 4030,
    "663,115": 4031,
    "286,3679": 4032,
    "104,270": 4033,
    "264,734": 4034,
    "3125,363": 4035,
    "261,1847": 4036,
    "271,784": 4037,
    "1522,117": 4038,
    "2927,1316": 4039,
    "1067,357": 4040,
    "83,265": 4041,
    "277,1304": 4042,
    "271,3688": 4043,
    "3533,588": 4044,
    "112,284": 4045,
    "32,849": 4046,
    "577,298": 4047,
    "1697,109": 4048,
    "576,299": 4049,
    "313,103": 4050,
    "108,284": 4051,
    "121,513": 4052,
    "841,449": 4053,
    "986,107": 4054,
    "116,1048": 4055,
    "526,111": 4056,
    "1695,314": 4057,
    "119,101": 4058,
    "394,797": 4059,
    "282,1635": 4060,
    "268,1069": 4061,
    "82,314": 4062,
    "1068,541": 4063,
    "1465,644": 4064,
    "310,432": 4065,
    "289,544": 4066,
    "392,378": 4067,
    "354,603": 4068,
    "1621,596": 4069,
    "280,2619": 4070,
    "2200,121": 4071,
    "263,494": 4072,
    "109,583": 4073,
    "261,2512": 4074,
    "368,278": 4075,
    "256,883": 4076,
    "1680,315": 4077,
    "75,2079": 4078,
    "385,315": 4079,
    "294,101": 4080,
    "519,115": 4081,
    "483,100": 4082,
    "458,802": 4083,
    "261,984": 4084,
    "497,850": 4085,
    "119,695": 4086,
    "902,1830": 4087,
    "331,776": 4088,
    "587,370": 4089,
    "276,643": 4090,
    "279,101": 4091,
    "2042,2735": 4092,
    "302,515": 4093,
    "289,2466": 4094,
    "833,3578": 4095,
    "1596,337": 4096,
    "2337,1960": 4097,
    "1030,115": 4098,
    "276,105": 4099,
    "400,357": 4100,
    "466,279": 4101,
    "82,508": 4102,
    "1472,2249": 4103,
    "269,298": 4104,
    "1222,650": 4105,
    "80,264": 4106,
    "111,328": 4107,
    "1231,1762": 4108,
    "277,2082": 4109,
    "589,294": 4110,
    "272,767": 4111,
    "330,556": 4112,
    "78,3140": 4113,
    "1679,1575": 4114,
    "2982,1422": 4115,
    "69,100": 4116,
    "553,2081": 4117,
    "457,3746": 4118,
    "1836,506": 4119,
    "276,650": 4120,
    "3907,2654": 4121,
    "304,3748": 4122,
    "3594,712": 4123,
    "1315,3173": 4124,
    "317,266": 4125,
    "1068,115": 4126,
    "804,111": 4127,
    "2986,1980": 4128,
    "1061,1638": 4129,
    "117,3754": 4130,
    "991,712": 4131,
    "2127,2816": 4132,
    "263,294": 4133,
    "3042,1419": 4134,
    "539,601": 4135,
    "1224,611": 4136,
    "2332,299": 4137,
    "402,259": 4138,
    "99,299": 4139,
    "3760,295": 4140,
    "268,524": 4141,
    "304,119": 4142,
    "461,1696": 4143,
    "98,655": 4144,
    "276,3602": 4145,
    "1198,1311": 4146,
    "588,470": 4147,
    "413,417": 4148,
    "287,1311": 4149,
    "82,435": 4150,
    "696,1476": 4151,
    "494,272": 4152,
    "271,370": 4153,
    "289,541": 4154,
    "1421,2387": 4155,
    "292,315": 4156,
    "261,3146": 4157,
    "261,1400": 4158,
    "2529,378": 4159,
    "526,104": 4160,
    "3570,3613": 4161,
    "2198,118": 4162,
    "534,103": 4163,
    "305,444": 4164,
    "2115,894": 4165,
    "1889,100": 4166,
    "3354,375": 4167,
    "289,3944": 4168,
    "343,1276": 4169,
    "1061,381": 4170,
    "1293,1098": 4171,
    "2997,3622": 4172,
    "1224,115": 4173,
    "2531,274": 4174,
    "2295,2827": 4175,
    "4175,301": 4176,
    "1247,397": 4177,
    "834,351": 4178,
    "2021,1618": 4179,
    "276,713": 4180,
    "575,2317": 4181,
    "271,310": 4182,
    "82,481": 4183,
    "98,297": 4184,
    "3080,579": 4185,
    "833,1495": 4186,
    "3005,112": 4187,
    "468,401": 4188,
    "3740,1527": 4189,
    "1362,796": 4190,
    "367,1232": 4191,
    "2590,1034": 4192,
    "2835,753": 4193,
    "371,3799": 4194,
    "748,297": 4195,
    "2755,3502": 4196,
    "99,3377": 4197,
    "67,1228": 4198,
    "2202,2587": 4199,
    "256,316": 4200,
    "2117,308": 4201,
    "2590,2045": 4202,
    "3278,315": 4203,
    "78,456": 4204,
    "1493,361": 4205,
    "4205,644": 4206,
    "2513,1782": 4207,
    "1143,611": 4208,
    "260,1960": 4209,
    "112,829": 4210,
    "1890,753": 4211,
    "587,429": 4212,
    "4212,67": 4213,
    "4213,89": 4214,
    "263,374": 4215,
    "897,108": 4216,
    "975,115": 4217,
    "3205,274": 4218,
    "447,678": 4219,
    "576,111": 4220,
    "587,1585": 4221,
    "2488,830": 4222,
    "4222,2400": 4223,
    "4223,371": 4224,
    "1811,595": 4225,
    "2016,775": 4226,
    "87,1755": 4227,
    "4001,4002": 4228,
    "587,3823": 4229,
    "533,4009": 4230,
    "473,767": 4231,
    "793,468": 4232,
    "1616,1391": 4233,
    "2773,2541": 4234,
    "32,1197": 4235,
    "1486,115": 4236,
    "65,522": 4237,
    "590,115": 4238,
    "354,595": 4239,
    "260,542": 4240,
    "2544,376": 4241,
    "303,1422": 4242,
    "1185,262": 4243,
    "1786,560": 4244,
    "1999,4034": 4245,
    "118,1782": 4246,
    "917,115": 4247,
    "1946,315": 4248,
    "891,121": 4249,
    "285,1598": 4250,
    "77,1070": 4251,
    "1551,315": 4252,
    "334,430": 4253,
    "32,1008": 4254,
    "271,546": 4255,
    "2554,1159": 4256,
    "72,3131": 4257,
    "1852,275": 4258,
    "101,120": 4259,
    "3686,378": 4260,
    "517,3421": 4261,
    "261,1113": 4262,
    "1697,1519": 4263,
    "816,111": 4264,
    "3843,376": 4265,
    "304,4052": 4266,
    "413,1034": 4267,
    "2162,695": 4268,
    "289,2374": 4269,
    "116,596": 4270,
    "1604,121": 4271,
    "436,610": 4272,
    "277,2940": 4273,
    "394,608": 4274,
    "3851,378": 4275,
    "285,3869": 4276,
    "341,98": 4277,
    "1792,115": 4278,
    "285,499": 4279,
    "476,1816": 4280,
    "841,888": 4281,
    "117,1273": 4282,
    "2377,1113": 4283,
    "561,330": 4284,
    "1061,350": 4285,
    "100,111": 4286,
    "1531,2728": 4287,
    "261,713": 4288,
    "388,278": 4289,
    "2965,266": 4290,
    "662,314": 4291,
    "2878,433": 4292,
    "521,725": 4293,
    "1080,3571": 4294,
    "63,525": 4295,
    "977,2034": 4296,
    "112,370": 4297,
    "261,303": 4298,
    "853,4091": 4299,
    "295,2849": 4300,
    "1081,829": 4301,
    "476,1312": 4302,
    "551,116": 4303,
    "256,3698": 4304,
    "286,1535": 4305,
    "715,357": 4306,
    "262,794": 4307,
    "1787,2580": 4308,
    "108,468": 4309,
    "1435,440": 4310,
    "899,3586": 4311,
    "309,122": 4312,
    "969,310": 4313,
    "440,115": 4314,
    "1118,375": 4315,
    "494,1413": 4316,
    "102,272": 4317,
    "66,409": 4318,
    "65,4116": 4319,
    "392,2891": 4320,
    "844,115": 4321,
    "286,100": 4322,
    "4322,1194": 4323,
    "98,409": 4324,
    "280,1015": 4325,
    "2427,315": 4326,
    "268,483": 4327,
    "901,330": 4328,
    "289,494": 4329,
    "2444,948": 4330,
    "105,595": 4331,
    "428,4050": 4332,
    "2035,109": 4333,
    "1061,301": 4334,
    "1684,873": 4335,
    "3752,393": 4336,
    "2099,120": 4337,
    "2246,301": 4338,
    "758,397": 4339,
    "804,1618": 4340,
    "284,650": 4341,
    "748,311": 4342,
    "83,728": 4343,
    "1396,115": 4344,
    "607,4073": 4345,
    "458,378": 4346,
    "103,506": 4347,
    "2371,942": 4348,
    "317,264": 4349,
    "410,888": 4350,
    "665,404": 4351,
    "705,298": 4352,
    "3919,337": 4353,
    "268,2996": 4354,
    "1243,712": 4355,
    "316,315": 4356,
    "1606,357": 4357,
    "281,315": 4358,
    "351,601": 4359,
    "750,650": 4360,
    "602,423": 4361,
    "778,357": 4362,
    "2070,357": 4363,
    "77,435": 4364,
    "391,1026": 4365,
    "420,299": 4366,
    "301,279": 4367,
    "3085,376": 4368,
    "1217,3185": 4369,
    "345,262": 4370,
    "924,401": 4371,
    "483,453": 4372,
    "1214,2753": 4373,
    "565,572": 4374,
    "106,454": 4375,
    "302,400": 4376,
    "1385,119": 4377,
    "950,1359": 4378,
    "3156,797": 4379,
    "2025,1903": 4380,
    "279,1034": 4381,
    "3318,491": 4382,
    "112,315": 4383,
    "920,3938": 4384,
    "893,121": 4385,
    "115,546": 4386,
    "538,265": 4387,
    "533,108": 4388,
    "520,3365": 4389,
    "115,97": 4390,
    "3784,112": 4391,
    "65,114": 4392,
    "615,298": 4393,
    "864,376": 4394,
    "897,3323": 4395,
    "1561,315": 4396,
    "111,99": 4397,
    "569,378": 4398,
    "1146,116": 4399,
    "1366,611": 4400,
    "260,1086": 4401,
    "2762,753": 4402,
    "303,468": 4403,
    "118,363": 4404,
    "1413,433": 4405,
    "4187,4188": 4406,
    "76,1380": 4407,
    "111,101": 4408,
    "4180,869": 4409,
    "324,310": 4410,
    "330,712": 4411,
    "1451,284": 4412,
    "354,2082": 4413,
    "2042,1519": 4414,
    "898,3504": 4415,
    "460,3307": 4416,
    "853,3315": 4417,
    "935,109": 4418,
    "80,712": 4419,
    "121,114": 4420,
    "464,108": 4421,
    "380,595": 4422,
    "80,499": 4423,
    "269,3959": 4424,
    "1540,70": 4425,
    "4425,625": 4426,
    "4426,75": 4427,
    "1039,622": 4428,
    "697,305": 4429,
    "588,337": 4430,
    "4209,264": 4431,
    "420,363": 4432,
    "2572,1186": 4433,
    "1590,115": 4434,
    "2193,337": 4435,
    "426,79": 4436,
    "4436,83": 4437,
    "4437,83": 4438,
    "256,378": 4439,
    "2998,108": 4440,
    "842,1442": 4441,
    "469,99": 4442,
    "1361,279": 4443,
    "1885,4220": 4444,
    "338,115": 4445,
    "1566,298": 4446,
    "478,374": 4447,
    "1161,298": 4448,
    "111,767": 4449,
    "553,363": 4450,
    "285,3835": 4451,
    "274,97": 4452,
    "70,511": 4453,
    "428,3465": 4454,
    "903,369": 4455,
    "4226,894": 4456,
    "272,100": 4457,
    "324,929": 4458,
    "3385,3822": 4459,
    "3006,638": 4460,
    "4460,83": 4461,
    "66,3996": 4462,
    "4462,4011": 4463,
    "1350,341": 4464,
    "4232,2915": 4465,
    "67,1351": 4466,
    "2772,433": 4467,
    "87,3215": 4468,
    "1158,341": 4469,
    "276,97": 4470,
    "4470,1434": 4471,
    "358,262": 4472,
    "1061,2306": 4473,
    "1446,560": 4474,
    "98,341": 4475,
    "2099,1086": 4476,
    "276,539": 4477,
    "3677,363": 4478,
    "684,4033": 4479,
    "1139,115": 4480,
    "2707,115": 4481,
    "2191,929": 4482,
    "97,1034": 4483,
    "708,1520": 4484,
    "615,1170": 4485,
    "103,284": 4486,
    "354,2784": 4487,
    "359,275": 4488,
    "469,3126": 4489,
    "758,274": 4490,
    "777,378": 4491,
    "854,115": 4492,
    "1871,683": 4493,
    "354,106": 4494,
    "971,2847": 4495,
    "386,2157": 4496,
    "343,3311": 4497,
    "396,375": 4498,
    "478,264": 4499,
    "119,840": 4500,
    "100,269": 4501,
    "756,115": 4502,
    "631,100": 4503,
    "260,1828": 4504,
    "791,1042": 4505,
    "561,1071": 4506,
    "426,301": 4507,
    "4507,1432": 4508,
    "2560,1035": 4509,
    "257,295": 4510,
    "540,3704": 4511,
    "1183,1195": 4512,
    "276,341": 4513,
    "256,775": 4514,
    "428,974": 4515,
    "2323,432": 4516,
    "83,314": 4517,
    "384,298": 4518,
    "3705,432": 4519,
    "1112,2871": 4520,
    "261,270": 4521,
    "469,308": 4522,
    "117,308": 4523,
    "32,1714": 4524,
    "816,385": 4525,
    "1074,357": 4526,
    "304,405": 4527,
    "3872,4282": 4528,
    "410,361": 4529,
    "4284,4071": 4530,
    "701,115": 4531,
    "918,293": 4532,
    "522,298": 4533,
    "283,3249": 4534,
    "755,121": 4535,
    "804,377": 4536,
    "386,1759": 4537,
    "2460,515": 4538,
    "72,352": 4539,
    "1440,357": 4540,
    "1414,1384": 4541,
    "277,290": 4542,
    "1536,866": 4543,
    "384,2652": 4544,
    "262,121": 4545,
    "4095,2804": 4546,
    "354,1600": 4547,
    "851,402": 4548,
    "587,1114": 4549,
    "697,284": 4550,
    "3157,2615": 4551,
    "444,101": 4552,
    "2361,308": 4553,
    "65,1136": 4554,
    "410,114": 4555,
    "841,1015": 4556,
    "540,110": 4557,
    "1930,357": 4558,
    "389,363": 4559,
    "277,967": 4560,
    "105,477": 4561,
    "1472,3067": 4562,
    "264,948": 4563,
    "1493,1931": 4564,
    "533,101": 4565,
    "492,3169": 4566,
    "268,1473": 4567,
    "4319,1113": 4568,
    "458,98": 4569,
    "1081,299": 4570,
    "4332,262": 4571,
    "834,111": 4572,
    "340,278": 4573,
    "927,610": 4574,
    "2991,522": 4575,
    "1385,1833": 4576,
    "749,1655": 4577,
    "392,1110": 4578,
    "261,333": 4579,
    "272,293": 4580,
    "897,1807": 4581,
    "3462,1279": 4582,
    "82,1864": 4583,
    "1596,408": 4584,
    "3598,351": 4585,
    "107,272": 4586,
    "1590,295": 4587,
    "76,472": 4588,
    "538,926": 4589,
    "570,272": 4590,
    "2625,3276": 4591,
    "1566,315": 4592,
    "256,546": 4593,
    "2870,486": 4594,
    "2050,350": 4595,
    "261,1696": 4596,
    "299,1034": 4597,
    "1030,322": 4598,
    "467,315": 4599,
    "2751,1195": 4600,
    "2821,357": 4601,
    "2332,1432": 4602,
    "970,660": 4603,
    "269,873": 4604,
    "289,4372": 4605,
    "1573,115": 4606,
    "2205,274": 4607,
    "1319,115": 4608,
    "258,470": 4609,
    "256,796": 4610,
    "420,1351": 4611,
    "4611,3190": 4612,
    "424,840": 4613,
    "2198,293": 4614,
    "343,494": 4615,
    "2170,1034": 4616,
    "3776,433": 4617,
    "1291,1332": 4618,
    "1488,115": 4619,
    "3614,753": 4620,
    "833,2737": 4621,
    "4162,433": 4622,
    "271,539": 4623,
    "1685,3197": 4624,
    "584,1961": 4625,
    "1483,1195": 4626,
    "331,622": 4627,
    "533,272": 4628,
    "1720,350": 4629,
    "3099,121": 4630,
    "3786,270": 4631,
    "3006,2761": 4632,
    "518,357": 4633,
    "363,278": 4634,
    "256,760": 4635,
    "304,102": 4636,
    "2248,121": 4637,
    "1185,119": 4638,
    "108,843": 4639,
    "833,106": 4640,
    "260,444": 4641,
    "317,440": 4642,
    "481,764": 4643,
    "2153,417": 4644,
    "976,506": 4645,
    "520,408": 4646,
    "805,2583": 4647,
    "68,409": 4648,
    "66,672": 4649,
    "304,3633": 4650,
    "2256,102": 4651,
    "4651,1043": 4652,
    "461,311": 4653,
    "3045,272": 4654,
    "526,84": 4655,
    "303,1101": 4656,
    "4656,2547": 4657,
    "71,72": 4658,
    "105,515": 4659,
    "469,3011": 4660,
    "67,546": 4661,
    "396,273": 4662,
    "1465,598": 4663,
    "2592,82": 4664,
    "4664,82": 4665,
    "4665,630": 4666,
    "291,264": 4667,
    "4667,929": 4668,
    "87,908": 4669,
    "80,2954": 4670,
    "663,873": 4671,
    "461,417": 4672,
    "281,1070": 4673,
    "71,2639": 4674,
    "420,111": 4675,
    "3423,1622": 4676,
    "268,1244": 4677,
    "3014,121": 4678,
    "1451,2390": 4679,
    "112,437": 4680,
    "1324,349": 4681,
    "271,751": 4682,
    "2133,101": 4683,
    "2477,115": 4684,
    "3340,767": 4685,
    "3309,1136": 4686,
    "3983,363": 4687,
    "466,3505": 4688,
    "331,511": 4689,
    "1976,274": 4690,
    "276,924": 4691,
    "2250,409": 4692,
    "887,112": 4693,
    "887,695": 4694,
    "283,655": 4695,
    "2038,848": 4696,
    "4696,3168": 4697,
    "1035,363": 4698,
    "4698,450": 4699,
    "1117,121": 4700,
    "1243,401": 4701,
    "959,402": 4702,
    "77,2994": 4703,
    "107,262": 4704,
    "3649,609": 4705,
    "3813,3557": 4706,
    "697,2819": 4707,
    "1862,78": 4708,
    "4708,83": 4709,
    "4709,79": 4710,
    "70,429": 4711,
    "4711,68": 4712,
    "4712,356": 4713,
    "4713,3515": 4714,
    "4464,3399": 4715,
    "289,105": 4716,
    "793,357": 4717,
    "293,116": 4718,
    "2355,1148": 4719,
    "704,1040": 4720,
    "2650,102": 4721,
    "663,4020": 4722,
    "861,298": 4723,
    "1890,1783": 4724,
    "899,314": 4725,
    "4725,888": 4726,
    "308,105": 4727,
    "305,273": 4728,
    "271,374": 4729,
    "2610,408": 4730,
    "726,2359": 4731,
    "713,278": 4732,
    "748,2848": 4733,
    "340,315": 4734,
    "2274,115": 4735,
    "838,388": 4736,
    "4490,388": 4737,
    "688,470": 4738,
    "1088,115": 4739,
    "3840,363": 4740,
    "1406,297": 4741,
    "1651,274": 4742,
    "4043,275": 4743,
    "805,3689": 4744,
    "285,473": 4745,
    "66,1744": 4746,
    "1831,373": 4747,
    "4494,111": 4748,
    "2040,298": 4749,
    "117,622": 4750,
    "256,3231": 4751,
    "391,378": 4752,
    "109,787": 4753,
    "277,760": 4754,
    "341,375": 4755,
    "289,571": 4756,
    "2791,3548": 4757,
    "101,303": 4758,
    "271,2359": 4759,
    "526,4505": 4760,
    "289,294": 4761,
    "483,115": 4762,
    "343,370": 4763,
    "1198,3237": 4764,
    "665,1584": 4765,
    "2653,314": 4766,
    "1094,305": 4767,
    "327,1854": 4768,
    "340,118": 4769,
    "3056,105": 4770,
    "446,115": 4771,
    "316,279": 4772,
    "4772,440": 4773,
    "263,1188": 4774,
    "32,298": 4775,
    "1198,1358": 4776,
    "258,322": 4777,
    "750,1631": 4778,
    "101,1173": 4779,
    "102,3713": 4780,
    "437,515": 4781,
    "109,1276": 4782,
    "4285,298": 4783,
    "2621,115": 4784,
    "1185,308": 4785,
    "1673,275": 4786,
    "260,121": 4787,
    "1094,358": 4788,
    "4788,99": 4789,
    "424,2848": 4790,
    "119,409": 4791,
    "516,298": 4792,
    "303,474": 4793,
    "283,1244": 4794,
    "786,357": 4795,
    "67,1806": 4796,
    "271,3882": 4797,
    "285,270": 4798,
    "4083,120": 4799,
    "1866,797": 4800,
    "400,917": 4801,
    "365,264": 4802,
    "805,1351": 4803,
    "334,1780": 4804,
    "3069,1876": 4805,
    "76,3886": 4806,
    "3439,402": 4807,
    "343,1043": 4808,
    "1901,337": 4809,
    "102,3575": 4810,
    "261,1062": 4811,
    "2137,522": 4812,
    "887,264": 4813,
    "428,278": 4814,
    "4814,443": 4815,
    "276,2673": 4816,
    "289,1042": 4817,
    "1607,1439": 4818,
    "277,1439": 4819,
    "800,315": 4820,
    "118,1521": 4821,
    "2156,310": 4822,
    "809,298": 4823,
    "330,402": 4824,
    "274,794": 4825,
    "1531,656": 4826,
    "116,650": 4827,
    "898,2387": 4828,
    "305,3237": 4829,
    "607,2737": 4830,
    "726,3739": 4831,
    "969,930": 4832,
    "282,513": 4833,
    "307,444": 4834,
    "282,4107": 4835,
    "354,375": 4836,
    "602,408": 4837,
    "1937,727": 4838,
[...]
